{
  "version": "1.0",
  "truncation": null,
  "padding": null,
  "added_tokens": [
    {
      "id": 0,
      "content": "[UNK]",
      "single_word": false,
      "lstrip": false,
      "rstrip": false,
      "normalized": false,
      "special": true
    },
    {
      "id": 1,
      "content": "[PAD]",
      "single_word": false,
      "lstrip": false,
      "rstrip": false,
      "normalized": false,
      "special": true
    },
    {
      "id": 2,
      "content": "[SOS]",
      "single_word": false,
      "lstrip": false,
      "rstrip": false,
      "normalized": false,
      "special": true
    },
    {
      "id": 3,
      "content": "[EOS]",
      "single_word": false,
      "lstrip": false,
      "rstrip": false,
      "normalized": false,
      "special": true
    }
  ],
  "normalizer": null,
  "pre_tokenizer": {
    "type": "ByteLevel",
    "add_prefix_space": false,
    "trim_offsets": true,
    "use_regex": true
  },
  "post_processor": null,
  "decoder": {
    "type": "ByteLevel",
    "add_prefix_space": true,
    "trim_offsets": true,
    "use_regex": true
  },
  "model": {
    "type": "BPE",
    "dropout": null,
    "unk_token": "[UNK]",
    "continuing_subword_prefix": null,
    "end_of_word_suffix": null,
    "fuse_unk": false,
    "byte_fallback": false,
    "ignore_merges": false,
    "vocab": {
      "[UNK]": 0,
      "[PAD]": 1,
      "[SOS]": 2,
      "[EOS]": 3,
      "!": 4,
      "\"": 5,
      "#": 6,
      "$": 7,
      "%": 8,
      "&": 9,
      "'": 10,
      "(": 11,
      ")": 12,
      "*": 13,
      "+": 14,
      ",": 15,
      "-": 16,
      ".": 17,
      "/": 18,
      "0": 19,
      "1": 20,
      "2": 21,
      "3": 22,
      "4": 23,
      "5": 24,
      "6": 25,
      "7": 26,
      "8": 27,
      "9": 28,
      ":": 29,
      ";": 30,
      "<": 31,
      "=": 32,
      ">": 33,
      "?": 34,
      "@": 35,
      "A": 36,
      "B": 37,
      "C": 38,
      "D": 39,
      "E": 40,
      "F": 41,
      "G": 42,
      "H": 43,
      "I": 44,
      "J": 45,
      "K": 46,
      "L": 47,
      "M": 48,
      "N": 49,
      "O": 50,
      "P": 51,
      "Q": 52,
      "R": 53,
      "S": 54,
      "T": 55,
      "U": 56,
      "V": 57,
      "W": 58,
      "X": 59,
      "Y": 60,
      "Z": 61,
      "[": 62,
      "\\": 63,
      "]": 64,
      "^": 65,
      "_": 66,
      "`": 67,
      "a": 68,
      "b": 69,
      "c": 70,
      "d": 71,
      "e": 72,
      "f": 73,
      "g": 74,
      "h": 75,
      "i": 76,
      "j": 77,
      "k": 78,
      "l": 79,
      "m": 80,
      "n": 81,
      "o": 82,
      "p": 83,
      "q": 84,
      "r": 85,
      "s": 86,
      "t": 87,
      "u": 88,
      "v": 89,
      "w": 90,
      "x": 91,
      "y": 92,
      "z": 93,
      "{": 94,
      "|": 95,
      "}": 96,
      "~": 97,
      "¡": 98,
      "¢": 99,
      "£": 100,
      "¤": 101,
      "¥": 102,
      "¦": 103,
      "§": 104,
      "¨": 105,
      "©": 106,
      "ª": 107,
      "«": 108,
      "¬": 109,
      "®": 110,
      "¯": 111,
      "°": 112,
      "±": 113,
      "²": 114,
      "³": 115,
      "´": 116,
      "µ": 117,
      "¶": 118,
      "·": 119,
      "¸": 120,
      "¹": 121,
      "º": 122,
      "»": 123,
      "¼": 124,
      "½": 125,
      "¾": 126,
      "¿": 127,
      "À": 128,
      "Á": 129,
      "Â": 130,
      "Ã": 131,
      "Ä": 132,
      "Å": 133,
      "Æ": 134,
      "Ç": 135,
      "È": 136,
      "É": 137,
      "Ê": 138,
      "Ë": 139,
      "Ì": 140,
      "Í": 141,
      "Î": 142,
      "Ï": 143,
      "Ð": 144,
      "Ñ": 145,
      "Ò": 146,
      "Ó": 147,
      "Ô": 148,
      "Õ": 149,
      "Ö": 150,
      "×": 151,
      "Ø": 152,
      "Ù": 153,
      "Ú": 154,
      "Û": 155,
      "Ü": 156,
      "Ý": 157,
      "Þ": 158,
      "ß": 159,
      "à": 160,
      "á": 161,
      "â": 162,
      "ã": 163,
      "ä": 164,
      "å": 165,
      "æ": 166,
      "ç": 167,
      "è": 168,
      "é": 169,
      "ê": 170,
      "ë": 171,
      "ì": 172,
      "í": 173,
      "î": 174,
      "ï": 175,
      "ð": 176,
      "ñ": 177,
      "ò": 178,
      "ó": 179,
      "ô": 180,
      "õ": 181,
      "ö": 182,
      "÷": 183,
      "ø": 184,
      "ù": 185,
      "ú": 186,
      "û": 187,
      "ü": 188,
      "ý": 189,
      "þ": 190,
      "ÿ": 191,
      "Ā": 192,
      "ā": 193,
      "Ă": 194,
      "ă": 195,
      "Ą": 196,
      "ą": 197,
      "Ć": 198,
      "ć": 199,
      "Ĉ": 200,
      "ĉ": 201,
      "Ċ": 202,
      "ċ": 203,
      "Č": 204,
      "č": 205,
      "Ď": 206,
      "ď": 207,
      "Đ": 208,
      "đ": 209,
      "Ē": 210,
      "ē": 211,
      "Ĕ": 212,
      "ĕ": 213,
      "Ė": 214,
      "ė": 215,
      "Ę": 216,
      "ę": 217,
      "Ě": 218,
      "ě": 219,
      "Ĝ": 220,
      "ĝ": 221,
      "Ğ": 222,
      "ğ": 223,
      "Ġ": 224,
      "ġ": 225,
      "Ģ": 226,
      "ģ": 227,
      "Ĥ": 228,
      "ĥ": 229,
      "Ħ": 230,
      "ħ": 231,
      "Ĩ": 232,
      "ĩ": 233,
      "Ī": 234,
      "ī": 235,
      "Ĭ": 236,
      "ĭ": 237,
      "Į": 238,
      "į": 239,
      "İ": 240,
      "ı": 241,
      "Ĳ": 242,
      "ĳ": 243,
      "Ĵ": 244,
      "ĵ": 245,
      "Ķ": 246,
      "ķ": 247,
      "ĸ": 248,
      "Ĺ": 249,
      "ĺ": 250,
      "Ļ": 251,
      "ļ": 252,
      "Ľ": 253,
      "ľ": 254,
      "Ŀ": 255,
      "ŀ": 256,
      "Ł": 257,
      "ł": 258,
      "Ń": 259,
      "Ġt": 260,
      "he": 261,
      "Ġa": 262,
      "in": 263,
      "re": 264,
      "Ġthe": 265,
      "on": 266,
      "er": 267,
      "nd": 268,
      "Ġs": 269,
      "at": 270,
      "Ġo": 271,
      "is": 272,
      "Ġw": 273,
      "en": 274,
      "Ġc": 275,
      "ed": 276,
      "an": 277,
      "or": 278,
      "ar": 279,
      "it": 280,
      "es": 281,
      "Ġp": 282,
      "Ġf": 283,
      "Ġof": 284,
      "Ġb": 285,
      "Ġin": 286,
      "al": 287,
      "ing": 288,
      "as": 289,
      "Ġto": 290,
      "Ġand": 291,
      "Ġh": 292,
      "ou": 293,
      "ion": 294,
      "ic": 295,
      "Ġd": 296,
      "Ġm": 297,
      "il": 298,
      "ent": 299,
      "ro": 300,
      "le": 301,
      "ĠS": 302,
      "Ġth": 303,
      "id": 304,
      "Ġre": 305,
      "Ġbe": 306,
      "ve": 307,
      "ct": 308,
      "st": 309,
      "ad": 310,
      "ĠM": 311,
      "Ġn": 312,
      "om": 313,
      "Ġis": 314,
      "The": 315,
      "Ġe": 316,
      "Ġl": 317,
      "ĠC": 318,
      "ĠA": 319,
      "am": 320,
      "ur": 321,
      "ĠI": 322,
      "Ġg": 323,
      "ĠP": 324,
      "Ġfor": 325,
      "ol": 326,
      "ation": 327,
      "ay": 328,
      "ot": 329,
      "Ġon": 330,
      "ver": 331,
      "ter": 332,
      "im": 333,
      "ir": 334,
      "el": 335,
      "et": 336,
      "ut": 337,
      "ce": 338,
      "ĠR": 339,
      "ĠB": 340,
      "ill": 341,
      "Ġst": 342,
      "ra": 343,
      "us": 344,
      "ly": 345,
      "ment": 346,
      "ig": 347,
      "Ġal": 348,
      "ow": 349,
      "ch": 350,
      "Ġhe": 351,
      "Ġthat": 352,
      "\"\"": 353,
      "ak": 354,
      "res": 355,
      "ith": 356,
      "ĠD": 357,
      "ri": 358,
      "ist": 359,
      "ul": 360,
      "od": 361,
      "Ġwh": 362,
      "un": 363,
      "ĠG": 364,
      "ĠK": 365,
      "and": 366,
      "ers": 367,
      "ia": 368,
      "Ġwith": 369,
      "Ġy": 370,
      "Ġas": 371,
      "Ġhas": 372,
      "Ġwas": 373,
      "Ġcon": 374,
      "Ġde": 375,
      "Ġpro": 376,
      "ate": 377,
      "Ġ1": 378,
      "Ġha": 379,
      "hi": 380,
      "Ġan": 381,
      "ĠN": 382,
      "ĠInd": 383,
      "os": 384,
      "ere": 385,
      "Ġare": 386,
      "Ġat": 387,
      "est": 388,
      "Ġit": 389,
      "her": 390,
      "th": 391,
      "Ġsa": 392,
      "ab": 393,
      "Ġ2": 394,
      "Ġby": 395,
      "Ġ(": 396,
      "Ġwill": 397,
      "Ġse": 398,
      "ld": 399,
      "ĠH": 400,
      "op": 401,
      "ĠT": 402,
      "ag": 403,
      "ain": 404,
      "our": 405,
      "Ġhave": 406,
      "Ġv": 407,
      "art": 408,
      "um": 409,
      "rom": 410,
      "if": 411,
      "Ġcom": 412,
      "pp": 413,
      "ĠJ": 414,
      "Ġsaid": 415,
      "ice": 416,
      "Ġfrom": 417,
      "Ġnot": 418,
      "ort": 419,
      "ies": 420,
      "ity": 421,
      "nt": 422,
      "ha": 423,
      "em": 424,
      "ess": 425,
      "so": 426,
      "ac": 427,
      "Ġsu": 428,
      "Ġex": 429,
      "pe": 430,
      "iv": 431,
      "Ġthis": 432,
      "ud": 433,
      "ant": 434,
      "Ġu": 435,
      "ht": 436,
      "Ġne": 437,
      "ction": 438,
      "ive": 439,
      "Ġr": 440,
      "ong": 441,
      "se": 442,
      "ister": 443,
      "ore": 444,
      "ĠL": 445,
      "Ġalso": 446,
      "ĠIndia": 447,
      "har": 448,
      "Ġor": 449,
      "ial": 450,
      "qu": 451,
      "Ġbeen": 452,
      "ure": 453,
      "Ġgo": 454,
      "Ġle": 455,
      "ĠF": 456,
      "inister": 457,
      "ard": 458,
      "cc": 459,
      "Ġyou": 460,
      "Ġhis": 461,
      "Ġk": 462,
      "ry": 463,
      "ust": 464,
      "ĠU": 465,
      "ĠW": 466,
      "Ġsh": 467,
      "ould": 468,
      "all": 469,
      "ian": 470,
      "han": 471,
      "oc": 472,
      "ĠE": 473,
      "ress": 474,
      "Ġwere": 475,
      "00": 476,
      "ther": 477,
      "Ġwor": 478,
      "Ġpol": 479,
      "are": 480,
      "ap": 481,
      "vern": 482,
      "ated": 483,
      "Ġag": 484,
      "Ġall": 485,
      "ident": 486,
      "ef": 487,
      "Ġwe": 488,
      "ast": 489,
      "ime": 490,
      "Ġinc": 491,
      "ary": 492,
      "ĠMinister": 493,
      "ric": 494,
      "ok": 495,
      "ep": 496,
      "Ġpl": 497,
      "'s": 498,
      "ire": 499,
      "ge": 500,
      "Ġhad": 501,
      "ous": 502,
      "Ġtheir": 503,
      "ff": 504,
      "ich": 505,
      "ight": 506,
      "ah": 507,
      "ind": 508,
      "He": 509,
      "vernment": 510,
      "ost": 511,
      "ount": 512,
      "rou": 513,
      "ome": 514,
      "ase": 515,
      "Ġ20": 516,
      "Ġper": 517,
      "Ġad": 518,
      "Ġres": 519,
      "ĠV": 520,
      "Ġme": 521,
      "aj": 522,
      "Th": 523,
      "Ġj": 524,
      "ik": 525,
      "Ġab": 526,
      "ear": 527,
      "av": 528,
      "nder": 529,
      "Ġwho": 530,
      "age": 531,
      "Ġwhich": 532,
      "ĠO": 533,
      "Ġcomp": 534,
      "te": 535,
      "Ġpart": 536,
      "li": 537,
      "port": 538,
      "one": 539,
      "Ġoff": 540,
      "ew": 541,
      "Ġpe": 542,
      "Ġthey": 543,
      "Ġthem": 544,
      "out": 545,
      "ru": 546,
      "ĠPr": 547,
      "Ġim": 548,
      "Ġcan": 549,
      "Ġdo": 550,
      "ide": 551,
      "\"\"\"": 552,
      "ations": 553,
      "ber": 554,
      "ell": 555,
      "wo": 556,
      "ect": 557,
      "Ġup": 558,
      "ople": 559,
      ".\"": 560,
      "orm": 561,
      "ĠCh": 562,
      "It": 563,
      "ence": 564,
      "ult": 565,
      "fter": 566,
      "Ġ3": 567,
      "ord": 568,
      "ans": 569,
      "du": 570,
      "og": 571,
      "Ġen": 572,
      "Ġacc": 573,
      "ail": 574,
      "Ġwhe": 575,
      "Ġun": 576,
      "In": 577,
      "ition": 578,
      "Ġdis": 579,
      "Ġus": 580,
      "Ġapp": 581,
      "ance": 582,
      "vel": 583,
      "Ġother": 584,
      "ue": 585,
      "ctor": 586,
      "ile": 587,
      "Ġcont": 588,
      "ake": 589,
      "per": 590,
      "ov": 591,
      "Ġunder": 592,
      "ĠSing": 593,
      "Ġint": 594,
      "pl": 595,
      "Ġman": 596,
      "Ġpeople": 597,
      "Ġ-": 598,
      "ical": 599,
      "gh": 600,
      "ĠSt": 601,
      "ays": 602,
      "Ġagain": 603,
      "pt": 604,
      "ach": 605,
      "very": 606,
      "Ġout": 607,
      "Ġpolice": 608,
      "ine": 609,
      "ll": 610,
      "ĠSingh": 611,
      "Ġar": 612,
      "Ġits": 613,
      "ational": 614,
      "Ġsp": 615,
      "hed": 616,
      "ank": 617,
      "ose": 618,
      "Ġreg": 619,
      "ĠIndian": 620,
      "ĠRs": 621,
      "ish": 622,
      "Ġone": 623,
      "ree": 624,
      "ame": 625,
      "ack": 626,
      "ates": 627,
      "Ġgovernment": 628,
      "Ġte": 629,
      "This": 630,
      "Ġ201": 631,
      "ign": 632,
      "Ġover": 633,
      "ub": 634,
      "Ġcount": 635,
      "ath": 636,
      "Ġcl": 637,
      "iz": 638,
      "ade": 639,
      "able": 640,
      "Ġso": 641,
      "mit": 642,
      "Ġam": 643,
      "Ġstate": 644,
      "ions": 645,
      "Ġsc": 646,
      "ater": 647,
      "ace": 648,
      "Ġthere": 649,
      "ass": 650,
      "esh": 651,
      "ang": 652,
      "day": 653,
      "JP": 654,
      "red": 655,
      "ens": 656,
      "Ġbut": 657,
      "Ġtwo": 658,
      "Ġagainst": 659,
      "Ġfil": 660,
      "hief": 661,
      "Ġwork": 662,
      "form": 663,
      "Ġch": 664,
      "Ġrec": 665,
      "Ġfir": 666,
      "Ġpres": 667,
      "Ġany": 668,
      "Ġafter": 669,
      "Ġabout": 670,
      "ib": 671,
      "Ġhim": 672,
      "Ġtr": 673,
      "me": 674,
      "elhi": 675,
      "Ġ5": 676,
      "aw": 677,
      "erv": 678,
      "Ġ\"\"": 679,
      "ious": 680,
      "Ġwould": 681,
      "ĠSh": 682,
      "Ġno": 683,
      "Ġnew": 684,
      "ted": 685,
      "ip": 686,
      "Ġyear": 687,
      "ĠIn": 688,
      "now": 689,
      "ered": 690,
      "con": 691,
      "odi": 692,
      "ash": 693,
      "Ġqu": 694,
      "we": 695,
      "Ġher": 696,
      "Ġ4": 697,
      "ever": 698,
      "Ġdec": 699,
      "Ġcase": 700,
      "iss": 701,
      "ourt": 702,
      "Ġev": 703,
      "ĠGo": 704,
      "Ġlead": 705,
      "Ġro": 706,
      "ities": 707,
      "old": 708,
      "uring": 709,
      "ings": 710,
      "lic": 711,
      "ĠDelhi": 712,
      "erson": 713,
      "Ġour": 714,
      "Ġfirst": 715,
      "ove": 716,
      "Ġinv": 717,
      "oin": 718,
      "We": 719,
      "Ġtime": 720,
      "ongress": 721,
      "mer": 722,
      "ĠY": 723,
      "Ġyour": 724,
      "lud": 725,
      "ces": 726,
      "ual": 727,
      "ĠBJP": 728,
      "ket": 729,
      "cted": 730,
      "igh": 731,
      "Ġcent": 732,
      "ĠModi": 733,
      "Ġ'": 734,
      "rit": 735,
      "ild": 736,
      "Ġpre": 737,
      "tern": 738,
      "ec": 739,
      "Ġspe": 740,
      "),": 741,
      "Ġfilm": 742,
      "Ġbet": 743,
      "istan": 744,
      "Ġcountry": 745,
      "ob": 746,
      "Ġoffic": 747,
      "oy": 748,
      "ital": 749,
      "ss": 750,
      "ĠCom": 751,
      "oll": 752,
      "Ġpr": 753,
      "Ġra": 754,
      "ook": 755,
      "Ġcro": 756,
      "Ġprov": 757,
      "ied": 758,
      "ĠUn": 759,
      "ced": 760,
      "Ġlik": 761,
      "velop": 762,
      "ents": 763,
      "ased": 764,
      "ĠRaj": 765,
      "Ġinclud": 766,
      "ise": 767,
      "inist": 768,
      "Ġdist": 769,
      "Ġbeing": 770,
      "man": 771,
      "hat": 772,
      "ai": 773,
      "Ġshould": 774,
      "ely": 775,
      "reat": 776,
      "Ġind": 777,
      "Ġmore": 778,
      "ite": 779,
      "Ġbec": 780,
      "Ġadd": 781,
      "cial": 782,
      "ward": 783,
      "rict": 784,
      "ren": 785,
      "ged": 786,
      "ĠCongress": 787,
      "stit": 788,
      "hip": 789,
      "Ġknow": 790,
      "vers": 791,
      "ĠThe": 792,
      "amil": 793,
      "ory": 794,
      "ram": 795,
      "ie": 796,
      "ĠDe": 797,
      "Ġtak": 798,
      "oun": 799,
      "aus": 800,
      "Ġele": 801,
      "Ġmade": 802,
      "ks": 803,
      "Ġwhen": 804,
      "Ġ6": 805,
      "ndra": 806,
      "Ġtra": 807,
      "ya": 808,
      "tain": 809,
      "ife": 810,
      "Ġinto": 811,
      "Ġperson": 812,
      "Ġrel": 813,
      "Ġ19": 814,
      "act": 815,
      "ject": 816,
      "ood": 817,
      "20": 818,
      "akistan": 819,
      "ments": 820,
      "Ġimp": 821,
      "up": 822,
      "Ġrem": 823,
      "emb": 824,
      "Ind": 825,
      "Ġsuch": 826,
      "Ġmar": 827,
      "ound": 828,
      "oth": 829,
      "cy": 830,
      "arn": 831,
      "urn": 832,
      "Ġiss": 833,
      "Ġmat": 834,
      "rib": 835,
      "Ġcomm": 836,
      "adesh": 837,
      "ma": 838,
      "Ġwhat": 839,
      "eng": 840,
      "ution": 841,
      "Ġthese": 842,
      "Ġmy": 843,
      "Ġmed": 844,
      "ral": 845,
      "ana": 846,
      "Ġmeet": 847,
      "Ġsome": 848,
      "Ġact": 849,
      "Ġass": 850,
      "ne": 851,
      "Ġco": 852,
      "Ġatt": 853,
      "ctions": 854,
      "Ġonly": 855,
      "ĠAll": 856,
      "ĠAr": 857,
      "med": 858,
      "ating": 859,
      "Ġcons": 860,
      "der": 861,
      "ci": 862,
      "Ġac": 863,
      "ons": 864,
      "ween": 865,
      "hen": 866,
      "own": 867,
      "resident": 868,
      "olice": 869,
      "Ġreport": 870,
      "fere": 871,
      "oh": 872,
      "Ġduring": 873,
      "eral": 874,
      "ower": 875,
      "Ġif": 876,
      "amp": 877,
      "Ġget": 878,
      "Ġbetween": 879,
      "rough": 880,
      "There": 881,
      "Ġter": 882,
      "But": 883,
      "owever": 884,
      "ict": 885,
      "ug": 886,
      "ission": 887,
      "ĠGod": 888,
      "ting": 889,
      "fore": 890,
      "Ġlike": 891,
      "ision": 892,
      "Ġph": 893,
      "gan": 894,
      "Ġneed": 895,
      "used": 896,
      "ĠHe": 897,
      "end": 898,
      "ures": 899,
      "ked": 900,
      "akh": 901,
      "Ġfar": 902,
      "Ġthose": 903,
      "Ġsupp": 904,
      "Ġthan": 905,
      "Ġinvest": 906,
      "Ġfl": 907,
      "Ġ10": 908,
      "Ġ7": 909,
      "les": 910,
      "ised": 911,
      "Ġthrough": 912,
      "way": 913,
      "Ġday": 914,
      "Ġstud": 915,
      "Ġthen": 916,
      "elf": 917,
      "They": 918,
      "ĠPakistan": 919,
      "alth": 920,
      "Ġent": 921,
      "eh": 922,
      "Ġfe": 923,
      "Ġthree": 924,
      "ally": 925,
      "ĠPrime": 926,
      "Ġplay": 927,
      "Ġsub": 928,
      "ĠGovernment": 929,
      "row": 930,
      "ĠChief": 931,
      "Ġwhile": 932,
      "ured": 933,
      "Ġdevelop": 934,
      "ors": 935,
      "umb": 936,
      "And": 937,
      "ited": 938,
      "Ġpresent": 939,
      "ific": 940,
      "und": 941,
      "ful": 942,
      "Ġgiv": 943,
      "ret": 944,
      "osp": 945,
      "ved": 946,
      "Ġvery": 947,
      "Ġdistrict": 948,
      "Ġshe": 949,
      "ont": 950,
      "inistry": 951,
      "000": 952,
      "ck": 953,
      "ĠPradesh": 954,
      "get": 955,
      "Ġcrore": 956,
      "ases": 957,
      "als": 958,
      "Ġmon": 959,
      "ublic": 960,
      "Ġwom": 961,
      "Ġdid": 962,
      "ĠPresident": 963,
      "umar": 964,
      "Ġem": 965,
      "ause": 966,
      "olog": 967,
      "Ġpos": 968,
      "ax": 969,
      "Ġcap": 970,
      "Ġ8": 971,
      "Ġserv": 972,
      "Ġworld": 973,
      "ness": 974,
      "ĠShri": 975,
      "ars": 976,
      "Ġdire": 977,
      "Ġfin": 978,
      "ĠKhan": 979,
      "arli": 980,
      "Ġofficial": 981,
      "Ġlast": 982,
      "ĠState": 983,
      "oor": 984,
      "As": 985,
      "round": 986,
      "Ġsec": 987,
      "ters": 988,
      "Ġprodu": 989,
      "Ġset": 990,
      "Ġbl": 991,
      "other": 992,
      "ollow": 993,
      "ĠAn": 994,
      "Ġwhere": 995,
      "pect": 996,
      "ata": 997,
      "Ġinform": 998,
      "Ġfamil": 999,
      "Ġhel": 1000,
      "led": 1001,
      "cess": 1002,
      "Ġtake": 1003,
      "ĠMan": 1004,
      "ft": 1005,
      "arendra": 1006,
      "ix": 1007,
      "Ġdif": 1008,
      "ph": 1009,
      "..": 1010,
      "hes": 1011,
      "Ġminister": 1012,
      "Ġtoday": 1013,
      "ible": 1014,
      "ative": 1015,
      "Ġhere": 1016,
      "Ġsoc": 1017,
      ",\"\"": 1018,
      "ĠAs": 1019,
      "uk": 1020,
      "Ġsay": 1021,
      "Ġaccused": 1022,
      "ility": 1023,
      "Ġeff": 1024,
      "ĠGand": 1025,
      "Ġgood": 1026,
      "Ġcall": 1027,
      "Ġwell": 1028,
      "ran": 1029,
      "ats": 1030,
      "rest": 1031,
      "ati": 1032,
      "oint": 1033,
      "ospital": 1034,
      "ices": 1035,
      "vi": 1036,
      "ĠKumar": 1037,
      "wn": 1038,
      "Ġstart": 1039,
      "ues": 1040,
      "eep": 1041,
      "Ġchan": 1042,
      "ĠNarendra": 1043,
      "Ġtaken": 1044,
      "Ġevery": 1045,
      "Ġcourt": 1046,
      "Ġinj": 1047,
      "ody": 1048,
      "Ġsee": 1049,
      "ĠPro": 1050,
      ").": 1051,
      "Ġyears": 1052,
      "ĠAllah": 1053,
      "Ġmany": 1054,
      "Ġhelp": 1055,
      "air": 1056,
      "Ġdem": 1057,
      "uth": 1058,
      "ven": 1059,
      "Ġmay": 1060,
      "ool": 1061,
      "ble": 1062,
      "Ġloc": 1063,
      "ural": 1064,
      "ink": 1065,
      "Ġpost": 1066,
      "ided": 1067,
      "Ġteam": 1068,
      "xt": 1069,
      "Ġla": 1070,
      "Ġexp": 1071,
      "ĠMa": 1072,
      "ries": 1073,
      "ants": 1074,
      "Ġparty": 1075,
      "Ġdes": 1076,
      "ĠCourt": 1077,
      "Ġcould": 1078,
      "Ġincident": 1079,
      "On": 1080,
      "ĠCent": 1081,
      "ives": 1082,
      "ism": 1083,
      "ng": 1084,
      "Ġser": 1085,
      "tend": 1086,
      "Ġbefore": 1087,
      "ĠGandhi": 1088,
      "Ġvar": 1089,
      "Ġnum": 1090,
      "Ġlife": 1091,
      "Ġtrans": 1092,
      "India": 1093,
      "Ġrep": 1094,
      "Ġ&": 1095,
      "Ġshall": 1096,
      "Ġchild": 1097,
      "ather": 1098,
      "ĠComm": 1099,
      "cond": 1100,
      "ared": 1101,
      "Ġright": 1102,
      "Ġsy": 1103,
      "Ġob": 1104,
      "aking": 1105,
      "ning": 1106,
      "Ġann": 1107,
      "ee": 1108,
      "So": 1109,
      "Ġchief": 1110,
      "ond": 1111,
      "ĠAd": 1112,
      "ght": 1113,
      "uss": 1114,
      "Ġvi": 1115,
      "ular": 1116,
      "Ġ9": 1117,
      "Ġmeeting": 1118,
      "Ġarrest": 1119,
      "Ġvis": 1120,
      "Ġocc": 1121,
      "any": 1122,
      "ty": 1123,
      "Ġcur": 1124,
      "its": 1125,
      "Ġfollow": 1126,
      "chn": 1127,
      "ĠShar": 1128,
      "Ġmake": 1129,
      "mir": 1130,
      "Ġ12": 1131,
      "Ġregist": 1132,
      "Ġcor": 1133,
      "ines": 1134,
      "Ġhigh": 1135,
      "However": 1136,
      "Ġjust": 1137,
      "Ġhand": 1138,
      "ĠGu": 1139,
      "Ġnumber": 1140,
      "Ġdisc": 1141,
      "ave": 1142,
      "ms": 1143,
      "Ġsha": 1144,
      "Ġcar": 1145,
      "kar": 1146,
      "Ġhapp": 1147,
      "uc": 1148,
      ".\"\"\"": 1149,
      "Ġdef": 1150,
      "Ġfour": 1151,
      "ouse": 1152,
      "conom": 1153,
      "Ġincre": 1154,
      "uch": 1155,
      "Ġincluding": 1156,
      "ĠNational": 1157,
      "Ġav": 1158,
      "Ġprog": 1159,
      "Ġcome": 1160,
      "Ġmost": 1161,
      "Ġeven": 1162,
      "ember": 1163,
      "hah": 1164,
      "arch": 1165,
      "Ġcol": 1166,
      "read": 1167,
      "amm": 1168,
      "Ġgiven": 1169,
      "cer": 1170,
      "Ġback": 1171,
      "Ġfamily": 1172,
      "Ġbr": 1173,
      "tal": 1174,
      "Ġsm": 1175,
      "ĠUS": 1176,
      "Ġlakh": 1177,
      "Ġpass": 1178,
      "Ġimport": 1179,
      "ivers": 1180,
      "Ġsit": 1181,
      "Wh": 1182,
      "eneral": 1183,
      "Ġinter": 1184,
      "ĠSab": 1185,
      "Ġchar": 1186,
      "Ġlaw": 1187,
      "Ġrele": 1188,
      "stem": 1189,
      "ics": 1190,
      "riv": 1191,
      "Ġdown": 1192,
      "Ġkill": 1193,
      "Ġop": 1194,
      "Ġfac": 1195,
      "Ġmonth": 1196,
      "ording": 1197,
      "Ġcases": 1198,
      "Ġboth": 1199,
      "cept": 1200,
      "Ġamong": 1201,
      "Ġbu": 1202,
      "pur": 1203,
      "ĠPun": 1204,
      "ĠRam": 1205,
      "ĠKash": 1206,
      "Ġinf": 1207,
      "ior": 1208,
      "ĠAct": 1209,
      "ĠWe": 1210,
      "rent": 1211,
      "ĠNew": 1212,
      "Ġhospital": 1213,
      "19": 1214,
      "ĠTh": 1215,
      "Ġsupport": 1216,
      "Ġappro": 1217,
      "Ġgu": 1218,
      "ides": 1219,
      "Ġopp": 1220,
      "ists": 1221,
      "ute": 1222,
      "Ġshow": 1223,
      "ins": 1224,
      "ways": 1225,
      "ĠKap": 1226,
      "urity": 1227,
      "ush": 1228,
      "ĠSec": 1229,
      "Ġsent": 1230,
      "Ġregistered": 1231,
      "Ġcontin": 1232,
      "ges": 1233,
      "ploy": 1234,
      "Ġben": 1235,
      "ror": 1236,
      "chool": 1237,
      "Police": 1238,
      "Ġplace": 1239,
      "ĠKashmir": 1240,
      "ĠMinistry": 1241,
      "jab": 1242,
      "ple": 1243,
      "Ġwater": 1244,
      "ament": 1245,
      "iness": 1246,
      "na": 1247,
      "ince": 1248,
      "retary": 1249,
      "com": 1250,
      "umbai": 1251,
      "Ġdiffere": 1252,
      "Ġformer": 1253,
      "Ġinvestig": 1254,
      "ey": 1255,
      "ĠBh": 1256,
      "roup": 1257,
      "Ġdep": 1258,
      "Ġpartic": 1259,
      "asht": 1260,
      "Ġdeath": 1261,
      "Ġbus": 1262,
      "Ġrun": 1263,
      "Ġresp": 1264,
      "Ġrequ": 1265,
      "Ġret": 1266,
      "Ġorgan": 1267,
      "ĠRe": 1268,
      "Ġbeli": 1269,
      "ĠSabha": 1270,
      "Ġprom": 1271,
      "ina": 1272,
      "Ġway": 1273,
      "ĠIs": 1274,
      "ĠUnion": 1275,
      "Ġcr": 1276,
      "Ġpolit": 1277,
      "andid": 1278,
      "ternational": 1279,
      "ified": 1280,
      "Ġend": 1281,
      "Ġ15": 1282,
      "ency": 1283,
      "Ġheld": 1284,
      "king": 1285,
      "ired": 1286,
      "rong": 1287,
      "What": 1288,
      "Ġ200": 1289,
      "Ġrece": 1290,
      "Ġref": 1291,
      "Ġsign": 1292,
      "Ġsecond": 1293,
      "Ġconf": 1294,
      "Ġlar": 1295,
      "ĠEx": 1296,
      "pend": 1297,
      "She": 1298,
      "tt": 1299,
      "ĠAnd": 1300,
      "ued": 1301,
      "You": 1302,
      "ner": 1303,
      "ĠTr": 1304,
      "embers": 1305,
      "Ġed": 1306,
      "Ġresult": 1307,
      "Ġform": 1308,
      "Ġattack": 1309,
      "ele": 1310,
      "Ġins": 1311,
      "osed": 1312,
      "Ġhow": 1313,
      "Ġlaun": 1314,
      "Ġpower": 1315,
      "Ġpublic": 1316,
      "ale": 1317,
      "oard": 1318,
      "urther": 1319,
      "BI": 1320,
      "Ġdoes": 1321,
      "Ġleaders": 1322,
      "rol": 1323,
      "Ġinjured": 1324,
      "ched": 1325,
      "ology": 1326,
      "Ġspot": 1327,
      "ention": 1328,
      "Ġarrested": 1329,
      "Ġsur": 1330,
      "Ġwant": 1331,
      "Ġmov": 1332,
      "Ġnow": 1333,
      "Ġsocial": 1334,
      "Ġhealth": 1335,
      "pr": 1336,
      "Ġgrow": 1337,
      "Ġdevelopment": 1338,
      "Ġwomen": 1339,
      "Ġavail": 1340,
      "aim": 1341,
      "war": 1342,
      "Ġlook": 1343,
      "Ġmedia": 1344,
      "Ġeach": 1345,
      "outh": 1346,
      "az": 1347,
      "Ġfound": 1348,
      "stru": 1349,
      "Ġsame": 1350,
      "Ġear": 1351,
      "Ġalle": 1352,
      "ently": 1353,
      "jay": 1354,
      "ten": 1355,
      "Ġgl": 1356,
      "Ġproject": 1357,
      "ull": 1358,
      "Ġcre": 1359,
      "ĠBank": 1360,
      "gest": 1361,
      "au": 1362,
      "ĠAss": 1363,
      "Ġstudents": 1364,
      "Ġcomple": 1365,
      "Ġleader": 1366,
      "ĠPunjab": 1367,
      "Ġair": 1368,
      "artment": 1369,
      "Ġoper": 1370,
      "ashtra": 1371,
      "Ġeconom": 1372,
      "Ġexam": 1373,
      "ination": 1374,
      "ĠShah": 1375,
      "Ġcle": 1376,
      "ctors": 1377,
      "wal": 1378,
      "Ġpresident": 1379,
      "ough": 1380,
      "ani": 1381,
      "Ġmatter": 1382,
      "ts": 1383,
      "arat": 1384,
      "Ġvill": 1385,
      "ĠSharma": 1386,
      "Ġcond": 1387,
      "Ġbro": 1388,
      "Ġsystem": 1389,
      "ĠHind": 1390,
      "Ġdue": 1391,
      "Ġdays": 1392,
      "ving": 1393,
      "iet": 1394,
      "ages": 1395,
      "Ġaff": 1396,
      "land": 1397,
      "Ġoccas": 1398,
      "ross": 1399,
      "eration": 1400,
      "ĠCon": 1401,
      "ĠDep": 1402,
      "Ġlong": 1403,
      "mers": 1404,
      "Ġown": 1405,
      "Ġmembers": 1406,
      "ized": 1407,
      "Ġalong": 1408,
      "ock": 1409,
      "Ġorder": 1410,
      "Ġ11": 1411,
      "Ġvarious": 1412,
      "Ġmod": 1413,
      "Ġsays": 1414,
      "Ġcommit": 1415,
      "lim": 1416,
      "eth": 1417,
      "ĠPM": 1418,
      "Ġopen": 1419,
      "Ġtook": 1420,
      "Ġregard": 1421,
      "Ġmain": 1422,
      "ehov": 1423,
      "ehovah": 1424,
      "An": 1425,
      "Ġprocess": 1426,
      "ĠKapoor": 1427,
      "Ġused": 1428,
      "abad": 1429,
      "Ġchildren": 1430,
      "ĠAm": 1431,
      "Ġbecause": 1432,
      "Ġcurrent": 1433,
      "ĠZ": 1434,
      "Ġremain": 1435,
      "Ġadv": 1436,
      "Ġcandid": 1437,
      "gr": 1438,
      "ves": 1439,
      "Ġinformation": 1440,
      "ived": 1441,
      "ahul": 1442,
      "ĠPat": 1443,
      "Ġbank": 1444,
      "Ġoccasion": 1445,
      "Ġdifferent": 1446,
      "wards": 1447,
      "Ġtold": 1448,
      "Ġtal": 1449,
      "els": 1450,
      "Ġsitu": 1451,
      "ote": 1452,
      "Ġnext": 1453,
      "gy": 1454,
      "imes": 1455,
      "ĠMumbai": 1456,
      "Ġhead": 1457,
      "Ġothers": 1458,
      "Ġannoun": 1459,
      "ature": 1460,
      "ĠWor": 1461,
      "Ġsl": 1462,
      "Ġmin": 1463,
      "riend": 1464,
      "ĠLord": 1465,
      "ajor": 1466,
      "nce": 1467,
      "Ġtoo": 1468,
      "Ġfore": 1469,
      "Ġmust": 1470,
      "ished": 1471,
      "uthor": 1472,
      "oot": 1473,
      "Ġquest": 1474,
      "ĠCommission": 1475,
      "Ġwrit": 1476,
      "St": 1477,
      "eld": 1478,
      "Ġwon": 1479,
      "enior": 1480,
      "embly": 1481,
      "Ġland": 1482,
      "ality": 1483,
      "Ġdet": 1484,
      "If": 1485,
      "Ġgreat": 1486,
      "Ġ14": 1487,
      "For": 1488,
      "Ġve": 1489,
      "ĠRes": 1490,
      "Ġwin": 1491,
      "Ġfurther": 1492,
      "All": 1493,
      "Ġgr": 1494,
      "Ġgoing": 1495,
      "Ġpur": 1496,
      "Ġ13": 1497,
      "ttar": 1498,
      "ĠJehovah": 1499,
      "ffic": 1500,
      "ihar": 1501,
      "Ġaround": 1502,
      "Ġterror": 1503,
      "to": 1504,
      "ID": 1505,
      "ling": 1506,
      "After": 1507,
      "erest": 1508,
      "ias": 1509,
      "Ġprogram": 1510,
      "ract": 1511,
      "ration": 1512,
      "Ġfive": 1513,
      "ason": 1514,
      "Ġcountries": 1515,
      "ĠTe": 1516,
      "Ġest": 1517,
      "tee": 1518,
      "ned": 1519,
      "Ġval": 1520,
      "ried": 1521,
      "Ġbelie": 1522,
      "Ġkilled": 1523,
      "Ġclaim": 1524,
      "Ġarea": 1525,
      "Ġtem": 1526,
      "reme": 1527,
      "'t": 1528,
      "Ġstand": 1529,
      "Ġissue": 1530,
      "Ġimportant": 1531,
      "aid": 1532,
      "Ġtechn": 1533,
      "Ġadded": 1534,
      "Ġcommun": 1535,
      "the": 1536,
      "Ġcalled": 1537,
      "Ġstarted": 1538,
      "Ġvide": 1539,
      "ached": 1540,
      "Ġfa": 1541,
      "Ġ18": 1542,
      "Ġtest": 1543,
      "Ġaccount": 1544,
      "harashtra": 1545,
      "Ġequ": 1546,
      "ricket": 1547,
      "Ġprop": 1548,
      "Ġdel": 1549,
      "Ġsecurity": 1550,
      "ering": 1551,
      "ĠAg": 1552,
      "Ġseen": 1553,
      "Ġprev": 1554,
      "Ġreported": 1555,
      "Ġsever": 1556,
      "ys": 1557,
      "ĠPolice": 1558,
      "ilit": 1559,
      "Ġbody": 1560,
      "Ġposs": 1561,
      "CC": 1562,
      "Ġnational": 1563,
      "ield": 1564,
      "Ġavailable": 1565,
      "ined": 1566,
      "Ġlevel": 1567,
      "Ġvisit": 1568,
      "Ġbenef": 1569,
      "ark": 1570,
      "ĠHigh": 1571,
      "Ġacross": 1572,
      "ĠAb": 1573,
      "Ġdecl": 1574,
      "ccess": 1575,
      "Ġseveral": 1576,
      "stitution": 1577,
      "arh": 1578,
      "illion": 1579,
      "por": 1580,
      "Ġplan": 1581,
      "Ġmarket": 1582,
      "arlier": 1583,
      "ump": 1584,
      "Ġschool": 1585,
      "ising": 1586,
      "mber": 1587,
      "Ġsche": 1588,
      "Ġuse": 1589,
      "Ġgroup": 1590,
      "ĠJan": 1591,
      "Ġcondu": 1592,
      "Ġdone": 1593,
      "Ġaction": 1594,
      "Ġanother": 1595,
      "ĠLok": 1596,
      "engal": 1597,
      "io": 1598,
      "Ġtotal": 1599,
      "Ġindust": 1600,
      "Ġche": 1601,
      "ought": 1602,
      "ressed": 1603,
      "Ġgive": 1604,
      "ammu": 1605,
      "ulture": 1606,
      "Ġrespect": 1607,
      "Ġcame": 1608,
      "Ġdecision": 1609,
      "ek": 1610,
      "era": 1611,
      "ick": 1612,
      "Ġread": 1613,
      "iti": 1614,
      "Ġjud": 1615,
      "Ġmajor": 1616,
      "Ġext": 1617,
      "arliament": 1618,
      "my": 1619,
      "ird": 1620,
      "uman": 1621,
      "Ġcolle": 1622,
      "Ġdemand": 1623,
      "Ġnear": 1624,
      "ours": 1625,
      "Ġasked": 1626,
      "Ġmuch": 1627,
      "Ġeduc": 1628,
      "ĠUttar": 1629,
      "Ġinterest": 1630,
      "Ġyet": 1631,
      "Ġ25": 1632,
      "irl": 1633,
      "Ġ16": 1634,
      "Ġhome": 1635,
      "aryana": 1636,
      "Ġlet": 1637,
      "agar": 1638,
      "Ġspecial": 1639,
      "ĠCha": 1640,
      "Ġpay": 1641,
      "bs": 1642,
      "Ġlater": 1643,
      "Ġstates": 1644,
      "Ġpersons": 1645,
      "iod": 1646,
      "ĠSe": 1647,
      "Acc": 1648,
      "ĠShi": 1649,
      "airs": 1650,
      "Ġleg": 1651,
      "arty": 1652,
      "ena": 1653,
      "oss": 1654,
      "ĠSecretary": 1655,
      "Ġcompl": 1656,
      "Ġelections": 1657,
      "ĠSa": 1658,
      "ala": 1659,
      "ession": 1660,
      "jarat": 1661,
      "Ġaway": 1662,
      "Sh": 1663,
      "orth": 1664,
      "Ġsituation": 1665,
      "Ġbest": 1666,
      "Ġhouse": 1667,
      "Ġfarmers": 1668,
      "ĠBengal": 1669,
      "No": 1670,
      "Ġroad": 1671,
      "adh": 1672,
      "Ġcompany": 1673,
      "ĠChand": 1674,
      "Ġson": 1675,
      "ĠDr": 1676,
      "Ġprot": 1677,
      "Ġareas": 1678,
      "Ġbig": 1679,
      "Ġexper": 1680,
      "Ġdiscuss": 1681,
      "ĠRahul": 1682,
      "ĠLe": 1683,
      "icket": 1684,
      "oney": 1685,
      "iversity": 1686,
      "ept": 1687,
      "Ġperiod": 1688,
      "Al": 1689,
      "Ġsuccess": 1690,
      "Ġbecome": 1691,
      "Ġens": 1692,
      "Ġproble": 1693,
      "itiz": 1694,
      "tle": 1695,
      "Ġsk": 1696,
      "Ġrole": 1697,
      "Ġlist": 1698,
      "uty": 1699,
      "chan": 1700,
      "When": 1701,
      "ĠCentral": 1702,
      "ĠEng": 1703,
      "ĠAl": 1704,
      "inal": 1705,
      "ĠWorld": 1706,
      "Ġreturn": 1707,
      "Ġbas": 1708,
      "Ġ0": 1709,
      "ĠChr": 1710,
      "Ġofficials": 1711,
      "ually": 1712,
      "Ġconsid": 1713,
      "Ġpoint": 1714,
      "ĠMus": 1715,
      "Ġlit": 1716,
      "Ġsector": 1717,
      "Pr": 1718,
      "Ġeffect": 1719,
      "ĠCor": 1720,
      "Ġallow": 1721,
      "atch": 1722,
      "Ġattend": 1723,
      "Ġname": 1724,
      "According": 1725,
      "eal": 1726,
      "wood": 1727,
      "New": 1728,
      "ience": 1729,
      "Ġpolitical": 1730,
      "soci": 1731,
      "ready": 1732,
      "Ġconcer": 1733,
      "ĠDay": 1734,
      "Ġident": 1735,
      "Ġactiv": 1736,
      "ĠMaharashtra": 1737,
      "Ġhig": 1738,
      "ĠJammu": 1739,
      "Ġbook": 1740,
      "ĠAf": 1741,
      "rate": 1742,
      "Ġcity": 1743,
      "Ġhappen": 1744,
      "Ġfriend": 1745,
      "stand": 1746,
      "mi": 1747,
      "ames": 1748,
      "Ġmen": 1749,
      "Ġmet": 1750,
      "ources": 1751,
      "Ġprice": 1752,
      "Ġcomplain": 1753,
      "Ġthings": 1754,
      "Ġthink": 1755,
      "Ġbusiness": 1756,
      "99": 1757,
      "Ġcer": 1758,
      "Ġsince": 1759,
      "Ġsoon": 1760,
      "ST": 1761,
      "Ġkeep": 1762,
      "ĠStates": 1763,
      "Ġgot": 1764,
      "not": 1765,
      "Ġfr": 1766,
      "Ġemploy": 1767,
      "Ġnever": 1768,
      "cent": 1769,
      "Ġtop": 1770,
      "olly": 1771,
      "ining": 1772,
      "ĠSan": 1773,
      "Ġvict": 1774,
      "ĠQ": 1775,
      "ĠAir": 1776,
      "Ġheav": 1777,
      "ets": 1778,
      "ĠFor": 1779,
      "Ġbuild": 1780,
      "oad": 1781,
      "ption": 1782,
      "ĠCO": 1783,
      "Ġ30": 1784,
      "ging": 1785,
      "Ġalready": 1786,
      "Ġfun": 1787,
      "Ġseats": 1788,
      "Ġparticip": 1789,
      "Ġrecord": 1790,
      "ĠTest": 1791,
      "upreme": 1792,
      "Ġgen": 1793,
      "Ġ24": 1794,
      "ortun": 1795,
      "Ġput": 1796,
      "Ġsix": 1797,
      "Ġview": 1798,
      "line": 1799,
      "icle": 1800,
      "ĠHaryana": 1801,
      "augh": 1802,
      "wh": 1803,
      "cing": 1804,
      "Ġ2019": 1805,
      "These": 1806,
      "view": 1807,
      "Ġturn": 1808,
      "Ġpop": 1809,
      "ĠGujarat": 1810,
      "Ġvillage": 1811,
      "itness": 1812,
      "Ġfew": 1813,
      "Ġvideo": 1814,
      "cl": 1815,
      "self": 1816,
      "Ġbat": 1817,
      "Ġgre": 1818,
      "Ġsim": 1819,
      "icy": 1820,
      "velopment": 1821,
      "ports": 1822,
      "ruct": 1823,
      "Ġviol": 1824,
      "ĠMP": 1825,
      "iving": 1826,
      "Ġalleged": 1827,
      "Ġcondition": 1828,
      "asth": 1829,
      "Ġ2020": 1830,
      "...": 1831,
      "ustral": 1832,
      "stitut": 1833,
      "Ġcost": 1834,
      "Ġtru": 1835,
      "Ġrest": 1836,
      "ĠML": 1837,
      "ĠBihar": 1838,
      "ork": 1839,
      "Ġeng": 1840,
      "ately": 1841,
      "orts": 1842,
      "Ġcam": 1843,
      "ĠSu": 1844,
      "Ġnews": 1845,
      "obal": 1846,
      "GB": 1847,
      "ĠMe": 1848,
      "ancial": 1849,
      "Ġadm": 1850,
      "Ġcamp": 1851,
      "Ġ50": 1852,
      "ference": 1853,
      "Ġmove": 1854,
      "Ġ[": 1855,
      "Ġ17": 1856,
      "Ġbring": 1857,
      "reng": 1858,
      "Ġprof": 1859,
      "ient": 1860,
      "ke": 1861,
      "aug": 1862,
      "ustice": 1863,
      "agement": 1864,
      "Ġcare": 1865,
      "Ġbased": 1866,
      "Ġhold": 1867,
      "urs": 1868,
      "Ġfire": 1869,
      "lish": 1870,
      "Ġsenior": 1871,
      "Ġupon": 1872,
      "Ġfather": 1873,
      "Ġpric": 1874,
      "Ġprovide": 1875,
      "BJP": 1876,
      "ollywood": 1877,
      "Ġinde": 1878,
      "rid": 1879,
      "angu": 1880,
      "Ġtreat": 1881,
      "ĠFin": 1882,
      "Ġmaking": 1883,
      "sel": 1884,
      "Ġevent": 1885,
      "ĠSc": 1886,
      "Ġstatement": 1887,
      "Ġspok": 1888,
      "ense": 1889,
      "pected": 1890,
      "Ġannounced": 1891,
      "arm": 1892,
      "Ġpoll": 1893,
      "Ġperform": 1894,
      "lement": 1895,
      "Ġinvestigation": 1896,
      "Ġwithout": 1897,
      "Ġlaunched": 1898,
      "here": 1899,
      "Ġdied": 1900,
      "Ġseries": 1901,
      "ĠSupreme": 1902,
      "Ġreached": 1903,
      "Ġbel": 1904,
      "idence": 1905,
      "Ġart": 1906,
      "ily": 1907,
      "Ġsol": 1908,
      "Ġtoget": 1909,
      "iety": 1910,
      "Ġtogether": 1911,
      "VID": 1912,
      "Ġservices": 1913,
      "Ġcha": 1914,
      "itional": 1915,
      "Ġissued": 1916,
      "Ġregion": 1917,
      "Ch": 1918,
      "Ġquestion": 1919,
      "Ġearth": 1920,
      "At": 1921,
      "ĠDevelopment": 1922,
      "Ġapplic": 1923,
      "ises": 1924,
      "be": 1925,
      "ĠWest": 1926,
      "ĠDire": 1927,
      "Ġstreng": 1928,
      "ĠHim": 1929,
      "Ġinst": 1930,
      "ĠRa": 1931,
      "Ġauthor": 1932,
      "asthan": 1933,
      "mitted": 1934,
      "eleb": 1935,
      "ĠRail": 1936,
      "Ġpet": 1937,
      "cil": 1938,
      "ĠChrist": 1939,
      "Ġwife": 1940,
      "ĠAmit": 1941,
      "Ġfield": 1942,
      "less": 1943,
      "Ġplac": 1944,
      "Ġspec": 1945,
      "Ġhist": 1946,
      "ĠBhar": 1947,
      "aka": 1948,
      "pecial": 1949,
      "itive": 1950,
      "Ġiniti": 1951,
      "Ġdri": 1952,
      "Ġdev": 1953,
      "ĠGeneral": 1954,
      "Ġword": 1955,
      "ara": 1956,
      "ĠDepartment": 1957,
      "Ġinternational": 1958,
      "Ġrelations": 1959,
      "Ġstrong": 1960,
      "Ġgrowth": 1961,
      "ury": 1962,
      "Ġstor": 1963,
      "Ġknown": 1964,
      "Ġimpro": 1965,
      "une": 1966,
      "Ġpriv": 1967,
      "How": 1968,
      "Ġgirl": 1969,
      "Ġtax": 1970,
      "aring": 1971,
      "of": 1972,
      "ones": 1973,
      "Ġur": 1974,
      "Ġprep": 1975,
      "Ġgra": 1976,
      "mend": 1977,
      "irus": 1978,
      "Ġreceived": 1979,
      "aram": 1980,
      "Ġsing": 1981,
      "Ġmoney": 1982,
      "Ġfind": 1983,
      "thing": 1984,
      "ĠChina": 1985,
      "Ġhowever": 1986,
      "Ġlove": 1987,
      "Ġchall": 1988,
      "Ġfund": 1989,
      "Ġdaugh": 1990,
      "inder": 1991,
      "ĠCOVID": 1992,
      "Ġaddress": 1993,
      "Ġinclude": 1994,
      "Ġtill": 1995,
      "arent": 1996,
      "Ġrespons": 1997,
      "Ġprote": 1998,
      "Ġrelig": 1999,
      "ĠMal": 2000,
      "Ġheart": 2001,
      "ivil": 2002,
      "ĠMay": 2003,
      "ĠAff": 2004,
      "Me": 2005,
      "ners": 2006,
      "Ġeducation": 2007,
      "Ġbeg": 2008,
      "Ġinformed": 2009,
      "Ġclear": 2010,
      "Ġple": 2011,
      "ches": 2012,
      "ony": 2013,
      "SP": 2014,
      "Ġworking": 2015,
      "Ġphone": 2016,
      "chie": 2017,
      "Ġlarge": 2018,
      "Ġstill": 2019,
      "ari": 2020,
      "Ġissues": 2021,
      "Ġcust": 2022,
      "sh": 2023,
      "resent": 2024,
      "Ġcurrently": 2025,
      "Ġthird": 2026,
      "idd": 2027,
      "ected": 2028,
      "ĠParliament": 2029,
      "anka": 2030,
      "Ġbetter": 2031,
      "Ġceleb": 2032,
      "Ġcannot": 2033,
      "Ġbo": 2034,
      "Ġsaying": 2035,
      "ternal": 2036,
      "Ġfollowing": 2037,
      "isation": 2038,
      "rought": 2039,
      "ĠParty": 2040,
      "adav": 2041,
      "amb": 2042,
      "app": 2043,
      "Ġfood": 2044,
      "IC": 2045,
      "nel": 2046,
      "ĠSat": 2047,
      "Ġlocal": 2048,
      "Ġ2018": 2049,
      "Ġjoin": 2050,
      "Ġtrad": 2051,
      "ĠShiv": 2052,
      "Ġimplement": 2053,
      "Ġcandidates": 2054,
      "Ġwoman": 2055,
      "rat": 2056,
      "Ġrul": 2057,
      "Ġtimes": 2058,
      "iance": 2059,
      "rying": 2060,
      "ĠAffairs": 2061,
      "itizens": 2062,
      "PM": 2063,
      "medi": 2064,
      "ential": 2065,
      "His": 2066,
      "ences": 2067,
      "ouncil": 2068,
      "Ġtowards": 2069,
      "reed": 2070,
      "Ġcricket": 2071,
      "ĠMed": 2072,
      "Ġwithin": 2073,
      "ĠSouth": 2074,
      "Ġdiv": 2075,
      "Ġtaking": 2076,
      "Ġbeh": 2077,
      "ards": 2078,
      "ĠAustral": 2079,
      "ically": 2080,
      "Ġreal": 2081,
      "Ġ2017": 2082,
      "ification": 2083,
      "ait": 2084,
      "Ġhuman": 2085,
      "Ġchange": 2086,
      "Ġprotest": 2087,
      "ulation": 2088,
      "Ġnation": 2089,
      "Ġ100": 2090,
      "Ġclass": 2091,
      "Ġbrother": 2092,
      "Ġdetail": 2093,
      "ĠBoard": 2094,
      "Ġachie": 2095,
      "oura": 2096,
      "Ġdata": 2097,
      "atives": 2098,
      "Ġfut": 2099,
      "Ġlot": 2100,
      "Ġsaf": 2101,
      "ium": 2102,
      "Ġdeb": 2103,
      "Ġcomes": 2104,
      "Ġweek": 2105,
      "Ġruns": 2106,
      "ilities": 2107,
      "Ġmovie": 2108,
      "adu": 2109,
      "hav": 2110,
      "Ġfight": 2111,
      "go": 2112,
      "ĠPl": 2113,
      "DI": 2114,
      "inet": 2115,
      "Ġru": 2116,
      "Ġfiled": 2117,
      "Ġreleased": 2118,
      "dd": 2119,
      "osition": 2120,
      "ively": 2121,
      "Ġbelieve": 2122,
      "201": 2123,
      "ti": 2124,
      "ĠMah": 2125,
      "iron": 2126,
      "Ġopportun": 2127,
      "Ġdead": 2128,
      "overed": 2129,
      "ĠYadav": 2130,
      "ructure": 2131,
      "ĠIndias": 2132,
      "Ġgeneral": 2133,
      "irit": 2134,
      "ĠJustice": 2135,
      "Ġactor": 2136,
      "ither": 2137,
      "Ġshared": 2138,
      "Ġyoung": 2139,
      "ibility": 2140,
      "Ġmatch": 2141,
      "Ġalways": 2142,
      "Ġproper": 2143,
      "TI": 2144,
      "ians": 2145,
      "Ġpeace": 2146,
      "Ġinvol": 2147,
      "ware": 2148,
      "Ġincrease": 2149,
      "ron": 2150,
      "Ġcamera": 2151,
      "ĠHome": 2152,
      "over": 2153,
      "esus": 2154,
      "while": 2155,
      "ĠRajasthan": 2156,
      "Its": 2157,
      "Ġexpl": 2158,
      "ĠDirector": 2159,
      "aff": 2160,
      "Ġfull": 2161,
      "ĠPar": 2162,
      "rial": 2163,
      "weet": 2164,
      "One": 2165,
      "ĠUniversity": 2166,
      "ĠMuslim": 2167,
      "ĠCol": 2168,
      "iver": 2169,
      "Ġstep": 2170,
      "ung": 2171,
      "arnat": 2172,
      "Ġproduct": 2173,
      "Ġwhy": 2174,
      "iding": 2175,
      "ĠRan": 2176,
      "Ġentire": 2177,
      "ps": 2178,
      "Ġ/": 2179,
      "Ġfinal": 2180,
      "mes": 2181,
      "Ġvot": 2182,
      "That": 2183,
      "Ġaccident": 2184,
      "To": 2185,
      "ĠAh": 2186,
      "rab": 2187,
      "ples": 2188,
      "Ġservice": 2189,
      "ained": 2190,
      "hatt": 2191,
      "Ġredu": 2192,
      "Ġsus": 2193,
      "ĠMo": 2194,
      "Ġtre": 2195,
      "Ġfinancial": 2196,
      "ĠCommit": 2197,
      "Prime": 2198,
      "ams": 2199,
      "Ġconstru": 2200,
      "abinet": 2201,
      "Ġprovided": 2202,
      "ĠCentre": 2203,
      "arnataka": 2204,
      "pril": 2205,
      "Ġdeal": 2206,
      "Ġveh": 2207,
      "int": 2208,
      "ify": 2209,
      "ances": 2210,
      "ali": 2211,
      "50": 2212,
      "Ġbrought": 2213,
      "Ġdecided": 2214,
      "Ġserious": 2215,
      "Ġsmall": 2216,
      "Ġmother": 2217,
      "Ġoffice": 2218,
      "Ġpati": 2219,
      "Ġold": 2220,
      "selves": 2221,
      "fic": 2222,
      "meric": 2223,
      "band": 2224,
      "ohli": 2225,
      "Ġes": 2226,
      "ĠIP": 2227,
      "Ġdate": 2228,
      "\"\".\"": 2229,
      "irman": 2230,
      "ĠBang": 2231,
      "Ġ21": 2232,
      "ĠAssembly": 2233,
      "ĠHealth": 2234,
      "eb": 2235,
      "Ġcrit": 2236,
      "aged": 2237,
      "Ġfeat": 2238,
      "Ġestab": 2239,
      "rug": 2240,
      "Ġleft": 2241,
      "Ġwent": 2242,
      "Ġpri": 2243,
      "men": 2244,
      "pped": 2245,
      "ĠMar": 2246,
      "Ġenc": 2247,
      "Ġcertain": 2248,
      "Ġord": 2249,
      "Ġelection": 2250,
      "aries": 2251,
      "ilar": 2252,
      "rah": 2253,
      "Ġstorage": 2254,
      "kh": 2255,
      "Ġmonths": 2256,
      "Ġinn": 2257,
      "put": 2258,
      "ĠSon": 2259,
      "Ġri": 2260,
      "Ġet": 2261,
      "Ġtreatment": 2262,
      "mp": 2263,
      "Ġglobal": 2264,
      "jee": 2265,
      "Ġearlier": 2266,
      "ultural": 2267,
      "Un": 2268,
      "ointed": 2269,
      "Ġimmedi": 2270,
      "inc": 2271,
      "anwhile": 2272,
      "ĠMadh": 2273,
      "ope": 2274,
      "part": 2275,
      "rast": 2276,
      "Ġcontrib": 2277,
      "Ġeconomic": 2278,
      "Ġfree": 2279,
      "Ġlive": 2280,
      "cies": 2281,
      "Ġpolicy": 2282,
      "SE": 2283,
      "Ġpress": 2284,
      "ĠApril": 2285,
      "Ġsug": 2286,
      "Ġcontinue": 2287,
      "Ġelect": 2288,
      "iqu": 2289,
      "Ġensure": 2290,
      "Ġcomplaint": 2291,
      "IR": 2292,
      "isions": 2293,
      "anies": 2294,
      "la": 2295,
      "Ġrate": 2296,
      "irth": 2297,
      "ert": 2298,
      "Ġspirit": 2299,
      "ev": 2300,
      "ĠMr": 2301,
      "Ġbre": 2302,
      "lect": 2303,
      "raft": 2304,
      "Ġmess": 2305,
      "Ġunderstand": 2306,
      "Ġetc": 2307,
      "ban": 2308,
      "ka": 2309,
      "Ġkind": 2310,
      "Ġfuture": 2311,
      "Ġindustry": 2312,
      "Congress": 2313,
      "wit": 2314,
      "reen": 2315,
      "ĠCommittee": 2316,
      "eople": 2317,
      "With": 2318,
      "Ġsom": 2319,
      "lished": 2320,
      "esides": 2321,
      "Ġaccept": 2322,
      "Ġfeel": 2323,
      "Ġ22": 2324,
      "Ġdont": 2325,
      "Ġfront": 2326,
      "hra": 2327,
      "Ġprices": 2328,
      "Ġscheme": 2329,
      "ability": 2330,
      "ship": 2331,
      "Ġlo": 2332,
      "ĠServ": 2333,
      "Ġmight": 2334,
      "Ġfaith": 2335,
      "Ġfunction": 2336,
      "Ġmis": 2337,
      "ĠCouncil": 2338,
      "ike": 2339,
      "ĠAli": 2340,
      "Ġplayed": 2341,
      "Ġlangu": 2342,
      "hu": 2343,
      "Ġfact": 2344,
      "Ġwebs": 2345,
      "cell": 2346,
      "stitute": 2347,
      "hold": 2348,
      "Ġpar": 2349,
      "Ġdest": 2350,
      "ĠCM": 2351,
      "Ġamount": 2352,
      "imum": 2353,
      "Ġhaving": 2354,
      "lam": 2355,
      "ley": 2356,
      "irc": 2357,
      "ĠCo": 2358,
      "wan": 2359,
      "Ġefforts": 2360,
      "alf": 2361,
      "Ġrecently": 2362,
      "Ġdirected": 2363,
      "ĠInternational": 2364,
      "ĠMarch": 2365,
      "orn": 2366,
      "ees": 2367,
      "Ġ.": 2368,
      "Ġeas": 2369,
      "ization": 2370,
      "Ġtweet": 2371,
      "Ġresults": 2372,
      "ĠCBI": 2373,
      "Ġrepresent": 2374,
      "Ġtar": 2375,
      "oj": 2376,
      "Ġworkers": 2377,
      "Ġdaughter": 2378,
      "AN": 2379,
      "Ġmillion": 2380,
      "AM": 2381,
      "Ġmeans": 2382,
      "ober": 2383,
      "Ġadminist": 2384,
      "ude": 2385,
      "Ġhon": 2386,
      "Ġyouth": 2387,
      "erred": 2388,
      "Ġwicket": 2389,
      "Ġlight": 2390,
      "Ġsection": 2391,
      "Meanwhile": 2392,
      "nes": 2393,
      "uf": 2394,
      "Ġface": 2395,
      "Ġconne": 2396,
      "side": 2397,
      "ĠTamil": 2398,
      "Ġmeas": 2399,
      "Ġshare": 2400,
      "Ġdou": 2401,
      "amed": 2402,
      "operation": 2403,
      "Ġcontrol": 2404,
      "ĠVi": 2405,
      "Both": 2406,
      "Ġshort": 2407,
      "ample": 2408,
      "ger": 2409,
      "uary": 2410,
      "Ġmilit": 2411,
      "Ġgave": 2412,
      "Ġexpected": 2413,
      "crib": 2414,
      "Ġparties": 2415,
      "ĠArmy": 2416,
      "ĠDh": 2417,
      "Ġpercent": 2418,
      "ize": 2419,
      "Ġcapital": 2420,
      "Ġpast": 2421,
      "ĠRep": 2422,
      "Ġfail": 2423,
      "ĠKohli": 2424,
      "ored": 2425,
      "erala": 2426,
      "Ġrese": 2427,
      "Ġlearn": 2428,
      "Ġself": 2429,
      "Ġport": 2430,
      "irat": 2431,
      "Ġaward": 2432,
      "Ġdoing": 2433,
      "Ġpict": 2434,
      "Ġlikely": 2435,
      "af": 2436,
      "viron": 2437,
      "Ġless": 2438,
      "Ġide": 2439,
      "person": 2440,
      "Ġprivate": 2441,
      "leg": 2442,
      "IM": 2443,
      "aster": 2444,
      "ĠMon": 2445,
      "ĠUnited": 2446,
      "Ġofficers": 2447,
      "Ġjob": 2448,
      "ĠShe": 2449,
      "ead": 2450,
      "duc": 2451,
      "isl": 2452,
      "Ġlost": 2453,
      "ipal": 2454,
      "Ġsmart": 2455,
      "ĠHis": 2456,
      "ator": 2457,
      "Ġdon": 2458,
      "ension": 2459,
      "Ġstat": 2460,
      "aran": 2461,
      "Ġforeign": 2462,
      "AR": 2463,
      "ĠJesus": 2464,
      "Ġden": 2465,
      "Ġprogramme": 2466,
      "ode": 2467,
      "Ġbecame": 2468,
      "Ġnon": 2469,
      "itor": 2470,
      "ceed": 2471,
      "Ġcause": 2472,
      "Ġfall": 2473,
      "rodu": 2474,
      "ring": 2475,
      "ĠOr": 2476,
      "vironment": 2477,
      "Ġver": 2478,
      "Ġmind": 2479,
      "Ġrelease": 2480,
      "Ġaccording": 2481,
      "Ġdirect": 2482,
      "erc": 2483,
      "ĠFinance": 2484,
      "Ġsens": 2485,
      "uly": 2486,
      "Ġassoci": 2487,
      "ledge": 2488,
      "While": 2489,
      "ĠPh": 2490,
      "Ġprojects": 2491,
      "hers": 2492,
      "Ġphot": 2493,
      "Ġcelebr": 2494,
      "Ġpract": 2495,
      "Ġreason": 2496,
      "Ġoil": 2497,
      "edd": 2498,
      "ĠEn": 2499,
      "ĠKarnataka": 2500,
      "Ġwritten": 2501,
      "10": 2502,
      "ada": 2503,
      "riy": 2504,
      "ĠNav": 2505,
      "Ġcompet": 2506,
      "stitu": 2507,
      "Ġwar": 2508,
      "ival": 2509,
      "usband": 2510,
      "Ġmur": 2511,
      "Ġnet": 2512,
      "Ġstation": 2513,
      "Ġener": 2514,
      "riculture": 2515,
      "Ġposition": 2516,
      "Ġtour": 2517,
      "Ġhard": 2518,
      "ĠX": 2519,
      "ika": 2520,
      "Ġtravel": 2521,
      "Ġtechnology": 2522,
      "Ġdesign": 2523,
      "Ġpossible": 2524,
      "IT": 2525,
      "Ġvictim": 2526,
      "Ġparts": 2527,
      "then": 2528,
      "Ġcontest": 2529,
      "head": 2530,
      "Ġful": 2531,
      "ĠAustralia": 2532,
      "Ġstop": 2533,
      "Ġbasis": 2534,
      "asing": 2535,
      "Ġsal": 2536,
      "Ġ23": 2537,
      "Two": 2538,
      "ern": 2539,
      "Ġable": 2540,
      "Ġfear": 2541,
      "eptember": 2542,
      "ĠGur": 2543,
      "ĠWh": 2544,
      "Ġcompanies": 2545,
      "ukh": 2546,
      "Ġclose": 2547,
      "During": 2548,
      "Ġcaus": 2549,
      "Ġsuff": 2550,
      "aign": 2551,
      "Ġbirth": 2552,
      "Ġdom": 2553,
      "Ġlim": 2554,
      "ipur": 2555,
      "Ġwebsite": 2556,
      "Ġside": 2557,
      "Ġwrong": 2558,
      "Ġmult": 2559,
      "otion": 2560,
      "ĠAsh": 2561,
      "mar": 2562,
      "Ġmedical": 2563,
      "aker": 2564,
      "ovember": 2565,
      "Ġstudy": 2566,
      "Shri": 2567,
      "ĠJune": 2568,
      "Ġclaimed": 2569,
      "Ġlives": 2570,
      "oses": 2571,
      "ains": 2572,
      "vernor": 2573,
      "Do": 2574,
      "aur": 2575,
      "Why": 2576,
      "Ġmor": 2577,
      "Ġmob": 2578,
      "Ġunt": 2579,
      "Ġpan": 2580,
      "ĠAmeric": 2581,
      "efence": 2582,
      "Ġrelated": 2583,
      "Ġconv": 2584,
      "avirus": 2585,
      "Ġterm": 2586,
      "ĠTrump": 2587,
      "Ġrev": 2588,
      "Ġjour": 2589,
      "ogn": 2590,
      "Ġtruth": 2591,
      "ection": 2592,
      "Ġcaptain": 2593,
      "Ġhigher": 2594,
      "Ġbow": 2595,
      "Ġel": 2596,
      "CP": 2597,
      "ĠBollywood": 2598,
      "Ġneeds": 2599,
      "ĠPan": 2600,
      "ĠOct": 2601,
      "ugust": 2602,
      "order": 2603,
      "Ġproduction": 2604,
      "Is": 2605,
      "dom": 2606,
      "onavirus": 2607,
      "icles": 2608,
      "Ġled": 2609,
      "hest": 2610,
      "Ġcard": 2611,
      "Ġresol": 2612,
      "akes": 2613,
      "abor": 2614,
      "Ġobs": 2615,
      "ĠSam": 2616,
      "Ġgold": 2617,
      "Ġ2016": 2618,
      "Ġreve": 2619,
      "ĠSal": 2620,
      "Ġ28": 2621,
      "ĠNorth": 2622,
      "Ġconducted": 2623,
      "Ġstated": 2624,
      "uge": 2625,
      "Ġparent": 2626,
      "Ġrain": 2627,
      "Ġwitness": 2628,
      "Ġfoc": 2629,
      "Ġtarget": 2630,
      "Ġcitizens": 2631,
      "ĠHar": 2632,
      "Ġincreased": 2633,
      "ĠTechn": 2634,
      "Ġdeclared": 2635,
      "hing": 2636,
      "Ġcommunity": 2637,
      "ama": 2638,
      "ĠIm": 2639,
      "Ġenergy": 2640,
      "ĠKh": 2641,
      "acity": 2642,
      "Ġsociety": 2643,
      "coming": 2644,
      "for": 2645,
      "ĠSy": 2646,
      "ushed": 2647,
      "ivid": 2648,
      "ĠCl": 2649,
      "udd": 2650,
      "engers": 2651,
      "Ġsw": 2652,
      "Ġever": 2653,
      "sw": 2654,
      "aks": 2655,
      "Ġexist": 2656,
      "Ġtrade": 2657,
      "rastructure": 2658,
      "Ġparticular": 2659,
      "Ġconnection": 2660,
      "Ġdisp": 2661,
      "uted": 2662,
      "Ġgetting": 2663,
      "Ġdistricts": 2664,
      "by": 2665,
      "rem": 2666,
      "Ġforward": 2667,
      "Ġcoming": 2668,
      "Ġexample": 2669,
      "adi": 2670,
      "ĠMadhya": 2671,
      "Ġsure": 2672,
      "Ġusing": 2673,
      "Ġprevious": 2674,
      "Ġplaces": 2675,
      "ĠSw": 2676,
      "Ġactivities": 2677,
      "ficult": 2678,
      "Ġnight": 2679,
      "Ġextend": 2680,
      "ĠBible": 2681,
      "uro": 2682,
      "empt": 2683,
      "aul": 2684,
      "Ġwhom": 2685,
      "Then": 2686,
      "ormer": 2687,
      "Ġkey": 2688,
      "aled": 2689,
      "ĠMoh": 2690,
      "Ġbuilding": 2691,
      "Ġofficer": 2692,
      "ĠIndust": 2693,
      "Ġcoll": 2694,
      "bel": 2695,
      "Ġcoun": 2696,
      "SS": 2697,
      "ĠSm": 2698,
      "ĠSeptember": 2699,
      "ĠMuk": 2700,
      "Ġnecess": 2701,
      "come": 2702,
      "cember": 2703,
      "Ġstar": 2704,
      "ĠDist": 2705,
      "Pakistan": 2706,
      "Ġloss": 2707,
      "Ġ31": 2708,
      "Some": 2709,
      "ison": 2710,
      "Ġconstitu": 2711,
      "ourse": 2712,
      "ĠNovember": 2713,
      "ĠNo": 2714,
      "Ġprogress": 2715,
      "aut": 2716,
      "rote": 2717,
      "ufact": 2718,
      "Ġsold": 2719,
      "Ġassist": 2720,
      "Ġdifficult": 2721,
      "Ġhusband": 2722,
      "ĠJanuary": 2723,
      "Ġaut": 2724,
      "Ġfeatures": 2725,
      "Ġcommon": 2726,
      "Ġdra": 2727,
      "Ġforces": 2728,
      "Ġappear": 2729,
      "Ġenter": 2730,
      "lu": 2731,
      "Ġinstitut": 2732,
      "ĠAfric": 2733,
      "Ġcampaign": 2734,
      "Ġmember": 2735,
      "Indian": 2736,
      "Ġdetails": 2737,
      "Ġcirc": 2738,
      "udget": 2739,
      "Ġstri": 2740,
      "play": 2741,
      "Ġvir": 2742,
      "elfare": 2743,
      "Ġmer": 2744,
      "Ġreports": 2745,
      "lection": 2746,
      "ething": 2747,
      "encies": 2748,
      "vest": 2749,
      "ĠSur": 2750,
      "ĠUP": 2751,
      "Ġty": 2752,
      "12": 2753,
      "atory": 2754,
      "itation": 2755,
      "People": 2756,
      "Ġi": 2757,
      "Ġspread": 2758,
      "ducation": 2759,
      "ĠKerala": 2760,
      "ĠReg": 2761,
      "30": 2762,
      "Ġpurp": 2763,
      "Ġsum": 2764,
      "Ġ26": 2765,
      "Ġeconomy": 2766,
      "Ġattended": 2767,
      "Go": 2768,
      "garh": 2769,
      "Ġhit": 2770,
      "Ġcentral": 2771,
      "Ġconn": 2772,
      "ĠHy": 2773,
      "phone": 2774,
      "Ġhost": 2775,
      "ĠAugust": 2776,
      "ogra": 2777,
      "ots": 2778,
      "Ġdirector": 2779,
      "Ġcreated": 2780,
      "olk": 2781,
      "ateg": 2782,
      "Ġnor": 2783,
      "Ġground": 2784,
      "Ġpray": 2785,
      "Ġseven": 2786,
      "MP": 2787,
      "hib": 2788,
      "ĠSp": 2789,
      "ĠBill": 2790,
      "Ġstars": 2791,
      "Ġhimself": 2792,
      "Ġtrib": 2793,
      "ery": 2794,
      "Ġ40": 2795,
      "Ġ,": 2796,
      "Ġtemple": 2797,
      "Ġpo": 2798,
      "Ġtrue": 2799,
      "Ġbenefit": 2800,
      "Ġsingle": 2801,
      "ividual": 2802,
      "gre": 2803,
      "Ġnothing": 2804,
      "ĠHouse": 2805,
      "Ġknowledge": 2806,
      "ĠOctober": 2807,
      "ĠAndhra": 2808,
      "Ġproblems": 2809,
      "Ġbehind": 2810,
      "Ġlaunch": 2811,
      "ami": 2812,
      "ĠJuly": 2813,
      "Ġmanagement": 2814,
      "Ġrecom": 2815,
      "Ġquality": 2816,
      "ource": 2817,
      "Ġexpressed": 2818,
      "Ġsil": 2819,
      "ĠMu": 2820,
      "Ġreach": 2821,
      "Ġreview": 2822,
      "Ġabove": 2823,
      "Ġcapacity": 2824,
      "Ġhours": 2825,
      "Ġleast": 2826,
      "ights": 2827,
      "Ġidentified": 2828,
      "ops": 2829,
      "Ġreally": 2830,
      "US": 2831,
      "Ġpoor": 2832,
      "Ġproblem": 2833,
      "ĠSci": 2834,
      "Ġsuper": 2835,
      "Ġdies": 2836,
      "Ġage": 2837,
      "Ġrail": 2838,
      "Ġpoints": 2839,
      "witter": 2840,
      "Ġfilms": 2841,
      "ladesh": 2842,
      "par": 2843,
      "Ex": 2844,
      "Ġemer": 2845,
      "ĠCorpor": 2846,
      "rs": 2847,
      "Ġstrengthen": 2848,
      "21": 2849,
      "ĠDecember": 2850,
      "Ġsuggest": 2851,
      "AP": 2852,
      "eed": 2853,
      "Ġonline": 2854,
      "Ġresearch": 2855,
      "isha": 2856,
      "Ġtown": 2857,
      "jit": 2858,
      "ĠHindi": 2859,
      "ication": 2860,
      "Ġtell": 2861,
      "ĠFeb": 2862,
      "Ġtraining": 2863,
      "Ġmus": 2864,
      "wa": 2865,
      "ier": 2866,
      "Ġboard": 2867,
      "Ġmiss": 2868,
      "Ġrequired": 2869,
      "Ġcommittee": 2870,
      "aya": 2871,
      "Ġassembly": 2872,
      "year": 2873,
      "Ġfav": 2874,
      "Ġ27": 2875,
      "ilt": 2876,
      "Ġobject": 2877,
      "ĠJa": 2878,
      "Ġagree": 2879,
      "ĠSri": 2880,
      "Ġbra": 2881,
      "emic": 2882,
      "Ġspokes": 2883,
      "My": 2884,
      "ĠCup": 2885,
      "Ġlargest": 2886,
      "bed": 2887,
      "Ġhistory": 2888,
      "nding": 2889,
      "Ġcheck": 2890,
      "Ġrelationship": 2891,
      "Pro": 2892,
      "jan": 2893,
      "ruary": 2894,
      "rael": 2895,
      "Ġindividual": 2896,
      "Ġhappened": 2897,
      "Many": 2898,
      "eg": 2899,
      "ousand": 2900,
      "Ġpositive": 2901,
      "ĠTel": 2902,
      "Ġpun": 2903,
      "ocu": 2904,
      "uries": 2905,
      "Ġsomething": 2906,
      "Ġincome": 2907,
      "ĠHindu": 2908,
      "Ġdise": 2909,
      "Ġrecovered": 2910,
      "Ġsignific": 2911,
      "ton": 2912,
      "Ġmurder": 2913,
      "uck": 2914,
      "ĠDefence": 2915,
      "Ġ199": 2916,
      "Ġlow": 2917,
      "ĠFore": 2918,
      "Ġcivil": 2919,
      "Ġstay": 2920,
      "Ġwhether": 2921,
      "ĠConstitution": 2922,
      "Ġconduct": 2923,
      "ĠBharat": 2924,
      "erve": 2925,
      "char": 2926,
      "Our": 2927,
      "nath": 2928,
      "vey": 2929,
      "omes": 2930,
      "Ġinaug": 2931,
      "Ġansw": 2932,
      "Ġparents": 2933,
      "ĠVice": 2934,
      "ammad": 2935,
      "Ġball": 2936,
      "Ġonce": 2937,
      "abh": 2938,
      "ĠIslam": 2939,
      "Ġpot": 2940,
      "SC": 2941,
      "Ġwrote": 2942,
      "Ġsecretary": 2943,
      "ĠSub": 2944,
      "Ġthought": 2945,
      "ĠKe": 2946,
      "Ġmaintain": 2947,
      "Ġcred": 2948,
      "Ġgrant": 2949,
      "Ġcast": 2950,
      "Ġpassed": 2951,
      "nal": 2952,
      "ators": 2953,
      "Also": 2954,
      "igarh": 2955,
      "Ġ37": 2956,
      "add": 2957,
      "Ġ2014": 2958,
      "ĠNadu": 2959,
      "ped": 2960,
      "Ġviolence": 2961,
      "sequ": 2962,
      "achal": 2963,
      "Ġhappy": 2964,
      "oon": 2965,
      "ĠEducation": 2966,
      "AT": 2967,
      "Ġhous": 2968,
      "ĠSena": 2969,
      "ĠInstitute": 2970,
      "Ġapplication": 2971,
      "Ġimprove": 2972,
      "rish": 2973,
      "Ġsan": 2974,
      "Ġthemselves": 2975,
      "ĠVijay": 2976,
      "Ġcandidate": 2977,
      "Ġsuccessful": 2978,
      "erman": 2979,
      "Ġcover": 2980,
      "ĠMLA": 2981,
      "Ġwords": 2982,
      "ĠKan": 2983,
      "Ġachieve": 2984,
      "Ġap": 2985,
      "ĠKing": 2986,
      "Ġcooperation": 2987,
      "ĠArt": 2988,
      "irm": 2989,
      "Ġdriver": 2990,
      "ohit": 2991,
      "Ġrequest": 2992,
      "ns": 2993,
      "ta": 2994,
      "earch": 2995,
      "Ġabs": 2996,
      "Ġpersonnel": 2997,
      "ĠComp": 2998,
      "ĠRuss": 2999,
      "ortem": 3000,
      "Ġexcept": 3001,
      "term": 3002,
      "Ġpetition": 3003,
      "Ġfast": 3004,
      "Ġmot": 3005,
      "Ġmater": 3006,
      "ream": 3007,
      "Ġthreat": 3008,
      "ĠPublic": 3009,
      "Ġwhole": 3010,
      "ĠOffic": 3011,
      "Ġteams": 3012,
      "Ġcateg": 3013,
      "Ġdam": 3014,
      "Ġdepartment": 3015,
      "Ġearly": 3016,
      "Ġthough": 3017,
      "Ġvac": 3018,
      "formation": 3019,
      "Ġbegin": 3020,
      "ĠIsrael": 3021,
      "ĠAhmed": 3022,
      "Ġsources": 3023,
      "ĠPand": 3024,
      "ji": 3025,
      "Ġey": 3026,
      "Ġadmitted": 3027,
      "ĠFebruary": 3028,
      "Ġmanufact": 3029,
      "Ġpatients": 3030,
      "Ġmean": 3031,
      "odies": 3032,
      "ici": 3033,
      "ety": 3034,
      "ĠLal": 3035,
      "ĠPatel": 3036,
      "Ġimmediately": 3037,
      "acy": 3038,
      "ills": 3039,
      "Ġforce": 3040,
      "ĠCabinet": 3041,
      "Ġrecommend": 3042,
      "Ġworks": 3043,
      "yan": 3044,
      "Ġoften": 3045,
      "angana": 3046,
      "Ġseat": 3047,
      "Ġaim": 3048,
      "ĠGods": 3049,
      "Ġanything": 3050,
      "Ġallowed": 3051,
      "Former": 3052,
      "uled": 3053,
      "ĠTwitter": 3054,
      "Ġ2015": 3055,
      "ney": 3056,
      "dra": 3057,
      "Ġsearch": 3058,
      "Ġpersonal": 3059,
      "het": 3060,
      "apan": 3061,
      "ĠAdv": 3062,
      "Ġthing": 3063,
      "rop": 3064,
      "emor": 3065,
      "Ġshoot": 3066,
      "IP": 3067,
      "ler": 3068,
      "henn": 3069,
      "pir": 3070,
      "oul": 3071,
      "Ġplayers": 3072,
      "Ġcommand": 3073,
      "Ġopt": 3074,
      "Ġlat": 3075,
      "Ġdeep": 3076,
      "ĠYou": 3077,
      "Ġz": 3078,
      "Ġsat": 3079,
      "Ġlod": 3080,
      "ems": 3081,
      "Ġengine": 3082,
      "Ġnorm": 3083,
      "ivity": 3084,
      "DA": 3085,
      "most": 3086,
      "Ġgame": 3087,
      "ga": 3088,
      "ĠBal": 3089,
      "derabad": 3090,
      "Ġinvestment": 3091,
      "ids": 3092,
      "ĠEngland": 3093,
      "ĠSun": 3094,
      "Ġfriends": 3095,
      "Ġdr": 3096,
      "ĠHospital": 3097,
      "ĠPras": 3098,
      "Ġcharge": 3099,
      "IS": 3100,
      "Ġ29": 3101,
      "Ġexamination": 3102,
      "ech": 3103,
      "Ġinfrastructure": 3104,
      "riyanka": 3105,
      "Ġnecessary": 3106,
      "ĠDistrict": 3107,
      "Ġban": 3108,
      "icial": 3109,
      "Ġrushed": 3110,
      "ĠDev": 3111,
      "atural": 3112,
      "Ġaccess": 3113,
      "11": 3114,
      "Ġconsum": 3115,
      "onse": 3116,
      "Ġgener": 3117,
      "cri": 3118,
      "mission": 3119,
      "Ġincludes": 3120,
      "Ġcharges": 3121,
      "Ġdocu": 3122,
      "omb": 3123,
      "Ġfollowed": 3124,
      "Ġunto": 3125,
      "Ġrecogn": 3126,
      "ĠBangladesh": 3127,
      "Ġtrying": 3128,
      "Every": 3129,
      "Ġtele": 3130,
      "Ġbanks": 3131,
      "Ġproducts": 3132,
      "Ġshi": 3133,
      "Ġdisplay": 3134,
      "resh": 3135,
      "Ġ\"\"\"\"": 3136,
      "Ġbelong": 3137,
      "Ġkm": 3138,
      "Ġsimilar": 3139,
      "Ġmention": 3140,
      "Ġoffer": 3141,
      "Ġinte": 3142,
      "Ġye": 3143,
      "ĠRajya": 3144,
      "hennai": 3145,
      "ĠApp": 3146,
      "ĠPra": 3147,
      "Ġterms": 3148,
      "Ġpolls": 3149,
      "80": 3150,
      "oice": 3151,
      "Delhi": 3152,
      "Ġdeveloped": 3153,
      "Earlier": 3154,
      "Ġaware": 3155,
      "Ġstrate": 3156,
      "ological": 3157,
      "Ġdemoc": 3158,
      "Ġvalue": 3159,
      "urance": 3160,
      "Ġpartners": 3161,
      "Ġgovernments": 3162,
      "ĠSche": 3163,
      "down": 3164,
      "Ġcourse": 3165,
      "estic": 3166,
      "Ġjoint": 3167,
      "oms": 3168,
      "Ġresident": 3169,
      "Ġprim": 3170,
      "Ġrights": 3171,
      "ĠMinisters": 3172,
      "Ġconstruction": 3173,
      "Ġimm": 3174,
      "pecially": 3175,
      "Ġfamilies": 3176,
      "Ġchalleng": 3177,
      "ilater": 3178,
      "Ġworth": 3179,
      "Ġwarn": 3180,
      "Ġupcoming": 3181,
      "Ġincluded": 3182,
      "Ġfocus": 3183,
      "ghan": 3184,
      "Ġang": 3185,
      "ĠNit": 3186,
      "Ġlanguage": 3187,
      "Ġbegan": 3188,
      "ĠAy": 3189,
      "Ġten": 3190,
      "Ġpaid": 3191,
      "DP": 3192,
      "Ġministry": 3193,
      "Ġsust": 3194,
      "Ġexec": 3195,
      "Ġteac": 3196,
      "Ġmag": 3197,
      "Ġneg": 3198,
      "ĠVirat": 3199,
      "ĠODI": 3200,
      "Ġscreen": 3201,
      "Ġsubject": 3202,
      "going": 3203,
      "Ġcou": 3204,
      "ĠSar": 3205,
      "ĠYog": 3206,
      "Ġraised": 3207,
      "ulated": 3208,
      "Ġcoronavirus": 3209,
      "Ġmom": 3210,
      "Ġaccom": 3211,
      "work": 3212,
      "Ġenvironment": 3213,
      "Ġhands": 3214,
      "Ġsister": 3215,
      "Ġline": 3216,
      "ĠBl": 3217,
      "Ġprobe": 3218,
      "Ġintrodu": 3219,
      "Ġpopular": 3220,
      "Ġfell": 3221,
      "ĠAk": 3222,
      "igation": 3223,
      "Ġheavy": 3224,
      "Ġuntil": 3225,
      "ĠTechnology": 3226,
      "ald": 3227,
      "Ġdig": 3228,
      "ĠJud": 3229,
      "erved": 3230,
      "utive": 3231,
      "ĠLt": 3232,
      "Ġpub": 3233,
      "ĠSush": 3234,
      "Ġstory": 3235,
      "arsh": 3236,
      "Ġcities": 3237,
      "Ġbad": 3238,
      "Ġschools": 3239,
      "Ġris": 3240,
      "jri": 3241,
      "bit": 3242,
      "Ġresign": 3243,
      "iah": 3244,
      "ĠWhat": 3245,
      "Am": 3246,
      "Ġdoub": 3247,
      "Ġmaterial": 3248,
      "17": 3249,
      "rance": 3250,
      "aper": 3251,
      "ĠSanjay": 3252,
      "ograph": 3253,
      "ĠGovernor": 3254,
      "Ġinaugur": 3255,
      "ĠBrit": 3256,
      "Ġactive": 3257,
      "Ġthousand": 3258,
      "Ġlab": 3259,
      "joy": 3260,
      "val": 3261,
      "Ġappre": 3262,
      "evers": 3263,
      "Ġletter": 3264,
      "Ġrank": 3265,
      "quir": 3266,
      "Ġcontro": 3267,
      "Ġproduced": 3268,
      "Ġcreate": 3269,
      "15": 3270,
      "Ġpopulation": 3271,
      "NE": 3272,
      "ĠSchool": 3273,
      "Ġorig": 3274,
      "Ġappointed": 3275,
      "enger": 3276,
      "atform": 3277,
      "eds": 3278,
      "ĠBar": 3279,
      "Ġhighest": 3280,
      "iers": 3281,
      "Ġrecent": 3282,
      "Add": 3283,
      "Ġsmartphone": 3284,
      "ĠPad": 3285,
      "Ġleave": 3286,
      "ĠAfrica": 3287,
      "ilateral": 3288,
      "Ġtri": 3289,
      "ites": 3290,
      "Ġpow": 3291,
      "Ġinstru": 3292,
      "Ġgone": 3293,
      "range": 3294,
      "Ġinstitutions": 3295,
      "ories": 3296,
      "hood": 3297,
      "App": 3298,
      "omen": 3299,
      "Ġliving": 3300,
      "Ġbench": 3301,
      "Ġopportunity": 3302,
      "ĠMLAs": 3303,
      "Ġahead": 3304,
      "Ġseason": 3305,
      "Ġhuge": 3306,
      "AI": 3307,
      "Ġthank": 3308,
      "Ġrequire": 3309,
      "change": 3310,
      "reet": 3311,
      "Ġ32": 3312,
      "iple": 3313,
      "Ġded": 3314,
      "Ġquar": 3315,
      "inese": 3316,
      "ened": 3317,
      "ĠArun": 3318,
      "ĠJos": 3319,
      "Ġtransf": 3320,
      "Ġespecially": 3321,
      "Ġtweeted": 3322,
      "ying": 3323,
      "Ġhope": 3324,
      "icated": 3325,
      "erem": 3326,
      "Ġinvolved": 3327,
      "Ġwickets": 3328,
      "Ġtrain": 3329,
      "Ġactress": 3330,
      "Ġsignificant": 3331,
      "Ġmass": 3332,
      "Ġplaying": 3333,
      "orters": 3334,
      "Ġreject": 3335,
      "action": 3336,
      "unic": 3337,
      "estival": 3338,
      "Ġlegisl": 3339,
      "ĠPrasad": 3340,
      "Ġcal": 3341,
      "Now": 3342,
      "ĠResearch": 3343,
      "MC": 3344,
      "ex": 3345,
      "ĠEast": 3346,
      "Ġcharact": 3347,
      "ĠSuper": 3348,
      "jriwal": 3349,
      "vent": 3350,
      "Ġcut": 3351,
      "Ġcreat": 3352,
      "ita": 3353,
      "CCI": 3354,
      "ĠRailways": 3355,
      "ĠColle": 3356,
      "ĠJag": 3357,
      "ĠCorporation": 3358,
      "gation": 3359,
      "Ġbodies": 3360,
      "stant": 3361,
      "ĠGroup": 3362,
      "Ġguid": 3363,
      "ĠJehovahs": 3364,
      "ja": 3365,
      "Ġill": 3366,
      "ksh": 3367,
      "ĠCommissioner": 3368,
      "Ġresponsibility": 3369,
      "Ġsteps": 3370,
      "ĠForce": 3371,
      "Ġnamed": 3372,
      "ane": 3373,
      "Ġproviding": 3374,
      "Ġfoot": 3375,
      "Ġcomplet": 3376,
      "Ġaffected": 3377,
      "raj": 3378,
      "Ġanti": 3379,
      "ikh": 3380,
      "Ġeight": 3381,
      "ĠTrans": 3382,
      "Ġmeasures": 3383,
      "Ġexperience": 3384,
      "ohan": 3385,
      "pper": 3386,
      "Ġoutside": 3387,
      "Ġprior": 3388,
      "olkata": 3389,
      "Ġclean": 3390,
      "ĠBab": 3391,
      "let": 3392,
      "Ġconcerned": 3393,
      "Ġmessage": 3394,
      "Ġjail": 3395,
      "Ġpolitics": 3396,
      "Ġmobile": 3397,
      "Ġeither": 3398,
      "urope": 3399,
      "Ġlodged": 3400,
      "Ar": 3401,
      "cle": 3402,
      "Ġemployees": 3403,
      "Ġcomb": 3404,
      "Ġencoura": 3405,
      "vision": 3406,
      "Ġsupply": 3407,
      "Ġsession": 3408,
      "fall": 3409,
      "aging": 3410,
      "Ġdefe": 3411,
      "Besides": 3412,
      "Ġenhan": 3413,
      "based": 3414,
      "mortem": 3415,
      "uru": 3416,
      "Ġregarding": 3417,
      "new": 3418,
      "18": 3419,
      "Spe": 3420,
      "atic": 3421,
      "ruption": 3422,
      "Ġjudge": 3423,
      "ĠAz": 3424,
      "Ġones": 3425,
      "Ġministers": 3426,
      "Ġcompleted": 3427,
      "riday": 3428,
      "Ġer": 3429,
      "Ġpain": 3430,
      "Ġborder": 3431,
      "pite": 3432,
      "Ġwind": 3433,
      "ĠGST": 3434,
      "Ġsubs": 3435,
      "Ġdece": 3436,
      "Ġapproved": 3437,
      "Ġmorning": 3438,
      "Ġvol": 3439,
      "iant": 3440,
      "Ġhearing": 3441,
      "Ġappeal": 3442,
      "Ġexpress": 3443,
      "Ġindeed": 3444,
      "reedom": 3445,
      "16": 3446,
      "Ġboy": 3447,
      "Ġleading": 3448,
      "Ġoperation": 3449,
      "Com": 3450,
      "Ġaver": 3451,
      "Ġbar": 3452,
      "oved": 3453,
      "ED": 3454,
      "cement": 3455,
      "Ġrural": 3456,
      "aily": 3457,
      "ĠDeep": 3458,
      "ohar": 3459,
      "Ġsong": 3460,
      "Ġpat": 3461,
      "vere": 3462,
      "ĠIndians": 3463,
      "Ġpresented": 3464,
      "oid": 3465,
      "Ġexc": 3466,
      "khand": 3467,
      "iber": 3468,
      "pendent": 3469,
      "ĠAssam": 3470,
      "Ġperformance": 3471,
      "ĠHyderabad": 3472,
      "Ġresponse": 3473,
      "ĠChairman": 3474,
      "ĠSund": 3475,
      "imate": 3476,
      "Ġtrust": 3477,
      "ĠInst": 3478,
      "ĠAfghan": 3479,
      "craft": 3480,
      "gn": 3481,
      "ĠRav": 3482,
      "ĠTra": 3483,
      "ague": 3484,
      "Ġvehicles": 3485,
      "ĠMonday": 3486,
      "Ġpunish": 3487,
      "Ġsought": 3488,
      "ĠSP": 3489,
      "ĠFIR": 3490,
      "Ġcash": 3491,
      "Ġspace": 3492,
      "hips": 3493,
      "body": 3494,
      "ĠTV": 3495,
      "Ġadministration": 3496,
      "ĠIran": 3497,
      "\"\",": 3498,
      "Ġplatform": 3499,
      "bir": 3500,
      "ĠSo": 3501,
      "ĠChennai": 3502,
      "Ġess": 3503,
      "ĠOff": 3504,
      "Ġenjoy": 3505,
      "ĠSoc": 3506,
      "illed": 3507,
      "ably": 3508,
      "Ġdistrib": 3509,
      "Ġ60": 3510,
      "Ġchallen": 3511,
      "Ġcustom": 3512,
      "Ġestablish": 3513,
      "Ġpropos": 3514,
      "rief": 3515,
      "Ġconditions": 3516,
      "ĠIt": 3517,
      "Ġconference": 3518,
      "agram": 3519,
      "AS": 3520,
      "ĠCont": 3521,
      "iminal": 3522,
      "ĠLaw": 3523,
      "icro": 3524,
      "Ġsex": 3525,
      "Ġroles": 3526,
      "Ġincreasing": 3527,
      "Ġauthorities": 3528,
      "Ġreli": 3529,
      "Ġqual": 3530,
      "Ġreligion": 3531,
      "CT": 3532,
      "Ġelectric": 3533,
      "Ġmilitary": 3534,
      "orrow": 3535,
      "ĠJapan": 3536,
      "Ġcommitted": 3537,
      "inated": 3538,
      "Ġnom": 3539,
      "Ġblood": 3540,
      "ris": 3541,
      "Ġ$": 3542,
      "Ġsqu": 3543,
      "utes": 3544,
      "ĠFar": 3545,
      "Ġfacilities": 3546,
      "Ministry": 3547,
      "oni": 3548,
      "iting": 3549,
      "Ġtransport": 3550,
      "Ġlooking": 3551,
      "22": 3552,
      "Raj": 3553,
      "riage": 3554,
      "Ġacqu": 3555,
      "ĠBan": 3556,
      "Ġfel": 3557,
      "Ġclos": 3558,
      "Ġrecorded": 3559,
      "ĠPol": 3560,
      "ĠRoy": 3561,
      "Ġjoined": 3562,
      "Ġmovement": 3563,
      "Ġhol": 3564,
      "Ġlower": 3565,
      "ĠRAM": 3566,
      "ĠAssoci": 3567,
      "ĠDeputy": 3568,
      "Ġlittle": 3569,
      "ĠPal": 3570,
      "iful": 3571,
      "Ġtherefore": 3572,
      "Ġgiving": 3573,
      "Ġrevealed": 3574,
      "road": 3575,
      "ows": 3576,
      "Ġexerc": 3577,
      "Ġapply": 3578,
      "ĠMand": 3579,
      "ĠCap": 3580,
      "Ġlocated": 3581,
      "Ġready": 3582,
      "Ġattempt": 3583,
      "ĠDal": 3584,
      "ĠNar": 3585,
      "Ġconsider": 3586,
      "Union": 3587,
      "ervation": 3588,
      "ĠDav": 3589,
      "ĠEurope": 3590,
      "ĠPakistani": 3591,
      "load": 3592,
      "rin": 3593,
      "Ġaud": 3594,
      "ĠChinese": 3595,
      "Ġwhose": 3596,
      "Ġstrength": 3597,
      "ze": 3598,
      "ĠCan": 3599,
      "Ġsepar": 3600,
      "Ġreligious": 3601,
      "ĠGerman": 3602,
      "Ġpurpose": 3603,
      "Ġtit": 3604,
      "ously": 3605,
      "Ġwanted": 3606,
      "ĠAmb": 3607,
      "irst": 3608,
      "Ġ35": 3609,
      "cribed": 3610,
      "ĠRed": 3611,
      "Ġphys": 3612,
      "Ġcomplete": 3613,
      "Ġconsidered": 3614,
      "ĠInstagram": 3615,
      "isc": 3616,
      "Ġstra": 3617,
      "Ġscient": 3618,
      "Ġevidence": 3619,
      "Ġtw": 3620,
      "Ġ--": 3621,
      "Ġdefence": 3622,
      "ĠEnglish": 3623,
      "Ġconnect": 3624,
      "Chief": 3625,
      "jun": 3626,
      "ray": 3627,
      "Ġadditional": 3628,
      "Ġdiesel": 3629,
      "ĠBach": 3630,
      "Ġcompr": 3631,
      "Ġtemper": 3632,
      "dict": 3633,
      "ĠNath": 3634,
      "Ġquestions": 3635,
      "Ġhalf": 3636,
      "ĠRoad": 3637,
      "opal": 3638,
      "lied": 3639,
      "Ġprovisions": 3640,
      "RD": 3641,
      "ira": 3642,
      "ĠFriday": 3643,
      "Ġregular": 3644,
      "14": 3645,
      "after": 3646,
      "Ġvers": 3647,
      "hel": 3648,
      "Ġquite": 3649,
      "Ġprime": 3650,
      "Ġopposition": 3651,
      "FC": 3652,
      "Ġneeded": 3653,
      "quiry": 3654,
      "ĠRailway": 3655,
      "nam": 3656,
      "Ġut": 3657,
      "book": 3658,
      "uel": 3659,
      "Ġearn": 3660,
      "oting": 3661,
      "aching": 3662,
      "Ġcarried": 3663,
      "Ġprepared": 3664,
      "Follow": 3665,
      "Ġrupe": 3666,
      "Ġmoment": 3667,
      "rant": 3668,
      "ĠDo": 3669,
      "Ġoperations": 3670,
      "grat": 3671,
      "Ġlegal": 3672,
      "Im": 3673,
      "Ġimpact": 3674,
      "Ġgroups": 3675,
      "Ġhistor": 3676,
      "Ġcustody": 3677,
      "ĠPre": 3678,
      "oted": 3679,
      "sec": 3680,
      "Ġking": 3681,
      "ĠKejriwal": 3682,
      "Ġshar": 3683,
      "ĠPe": 3684,
      "etro": 3685,
      "Ġcultural": 3686,
      "ĠTha": 3687,
      "ruit": 3688,
      "Ġcentury": 3689,
      "Ph": 3690,
      "Ġworked": 3691,
      "Ġaddition": 3692,
      "icide": 3693,
      "ĠKal": 3694,
      "Ġchanges": 3695,
      "ĠRajnath": 3696,
      "ĠAsia": 3697,
      "enced": 3698,
      "Ġexpect": 3699,
      "Ġimplementation": 3700,
      "incipal": 3701,
      "II": 3702,
      "anda": 3703,
      "ĠJoh": 3704,
      "Ġproposed": 3705,
      "Ġwal": 3706,
      "Apart": 3707,
      "ĠIC": 3708,
      "ĠSalman": 3709,
      "Ġwis": 3710,
      "harkhand": 3711,
      "Ġagency": 3712,
      "yal": 3713,
      "iab": 3714,
      "light": 3715,
      "inary": 3716,
      "Ġdeaths": 3717,
      "sc": 3718,
      "Ġsaw": 3719,
      "Ġworship": 3720,
      "ĠIN": 3721,
      "irmed": 3722,
      "disha": 3723,
      "Ġhy": 3724,
      "ĠKolkata": 3725,
      "Ġanyone": 3726,
      "Ġprotect": 3727,
      "Ġmakes": 3728,
      "ĠSha": 3729,
      "adha": 3730,
      "apur": 3731,
      "Ġdoctors": 3732,
      "Ġspeed": 3733,
      "Ġrespectively": 3734,
      "Ġsafety": 3735,
      "Ġconstituency": 3736,
      "25": 3737,
      "his": 3738,
      "Ġpen": 3739,
      "ĠMy": 3740,
      "ĠCricket": 3741,
      "Ġclosed": 3742,
      "Ġtalk": 3743,
      "Ġcerem": 3744,
      "Ġphase": 3745,
      "Man": 3746,
      "Ġrise": 3747,
      "Ġjustice": 3748,
      "ER": 3749,
      "cast": 3750,
      "Ġkept": 3751,
      "Ġdeploy": 3752,
      "ighb": 3753,
      "Ġcross": 3754,
      "aught": 3755,
      "ĠServices": 3756,
      "ene": 3757,
      "Ġformed": 3758,
      "racy": 3759,
      "Ġalliance": 3760,
      "Ġmodern": 3761,
      "Ġtalks": 3762,
      "ĠIPL": 3763,
      "Ġinnov": 3764,
      "Ġdomestic": 3765,
      "Ġhouses": 3766,
      "know": 3767,
      "ras": 3768,
      "Ġbats": 3769,
      "Ġround": 3770,
      "Ġpassengers": 3771,
      "Ġsports": 3772,
      "Ġdrug": 3773,
      "igg": 3774,
      "Ġwel": 3775,
      "Ġopportunities": 3776,
      "urt": 3777,
      "att": 3778,
      "lected": 3779,
      "chay": 3780,
      "Ġitself": 3781,
      "itude": 3782,
      "Ġpotential": 3783,
      "Those": 3784,
      "Ġfulf": 3785,
      "mb": 3786,
      "ĠSte": 3787,
      "Ġinjuries": 3788,
      "back": 3789,
      "ires": 3790,
      "Ġunderway": 3791,
      "Ġ2013": 3792,
      "Ġtakes": 3793,
      "Ġmodel": 3794,
      "Ġgets": 3795,
      "ĠAnil": 3796,
      "Ġprevent": 3797,
      "ĠSection": 3798,
      "ĠGl": 3799,
      "Ġask": 3800,
      "Ġ198": 3801,
      "ursday": 3802,
      "Ġspokesperson": 3803,
      "Ġdeceased": 3804,
      "iles": 3805,
      "ĠMess": 3806,
      "achin": 3807,
      "Ġcredit": 3808,
      "Ġbillion": 3809,
      "ĠAt": 3810,
      "Ġforg": 3811,
      "Ġsend": 3812,
      "Ġseeking": 3813,
      "Ġcongrat": 3814,
      "Ġstake": 3815,
      "Ġcy": 3816,
      "ĠUr": 3817,
      "Ġfreedom": 3818,
      "Ġlate": 3819,
      "PF": 3820,
      "Ġharm": 3821,
      "oday": 3822,
      "Ġbelow": 3823,
      "Ab": 3824,
      "Ġfunds": 3825,
      "ĠKar": 3826,
      "ĠUN": 3827,
      "Ġlaws": 3828,
      "Ġrules": 3829,
      "pan": 3830,
      "Ġculture": 3831,
      "Ġhar": 3832,
      "Ġstage": 3833,
      "Ġcompared": 3834,
      "press": 3835,
      "where": 3836,
      "ĠBut": 3837,
      "Ġbuilt": 3838,
      "Ġstatus": 3839,
      "ĠLtd": 3840,
      "More": 3841,
      "Ġwait": 3842,
      "Ġbur": 3843,
      "Ġred": 3844,
      "tery": 3845,
      "Ġanim": 3846,
      "ĠDes": 3847,
      "Three": 3848,
      "elling": 3849,
      "Who": 3850,
      "ĠThursday": 3851,
      "Ġdi": 3852,
      "Ġinvestigating": 3853,
      "Ġpil": 3854,
      "Ġdaily": 3855,
      "ĠKore": 3856,
      "Ġconc": 3857,
      "ĠAdity": 3858,
      "Ġsigned": 3859,
      "udents": 3860,
      "Ġamend": 3861,
      "ĠRepublic": 3862,
      "ening": 3863,
      "ĠIT": 3864,
      "Ġorganised": 3865,
      "Ġdestro": 3866,
      "asons": 3867,
      "Ġviral": 3868,
      "Ġappreci": 3869,
      "kshay": 3870,
      "Ġwatch": 3871,
      "Ġran": 3872,
      "ampions": 3873,
      "Ġdirection": 3874,
      "Ġlock": 3875,
      "Ġvehicle": 3876,
      "AL": 3877,
      "Ġfile": 3878,
      "ĠScheme": 3879,
      "EL": 3880,
      "ednes": 3881,
      "Ġnotice": 3882,
      "Ġcontinu": 3883,
      "IN": 3884,
      "Ġminor": 3885,
      "Ġprofession": 3886,
      "Ġdisease": 3887,
      "Following": 3888,
      "Ġundert": 3889,
      "Ġprovision": 3890,
      "ealand": 3891,
      "Ġpicture": 3892,
      "Speaking": 3893,
      "inent": 3894,
      "elines": 3895,
      "ĠRel": 3896,
      "Ġproceed": 3897,
      "ector": 3898,
      "ĠMuslims": 3899,
      "40": 3900,
      "isgarh": 3901,
      "ĠMot": 3902,
      "ĠBen": 3903,
      "odh": 3904,
      "uesday": 3905,
      "opra": 3906,
      "Ġfirm": 3907,
      "Ġdemanded": 3908,
      "Ġbi": 3909,
      "ables": 3910,
      "Ġ197": 3911,
      "gations": 3912,
      "onald": 3913,
      "ades": 3914,
      "CB": 3915,
      "Ġleav": 3916,
      "Ġhanded": 3917,
      "Ġfourth": 3918,
      "Ġterrorists": 3919,
      "EO": 3920,
      "bar": 3921,
      "Ġ70": 3922,
      "ĠZealand": 3923,
      "Ġwants": 3924,
      "Ġnames": 3925,
      "Ġmanner": 3926,
      "ĠMedical": 3927,
      "Ġexisting": 3928,
      "ods": 3929,
      "atever": 3930,
      "ĠWednes": 3931,
      "Ġshows": 3932,
      "ĠMad": 3933,
      "Ġrape": 3934,
      "Ġterrorism": 3935,
      "Ġintegr": 3936,
      "Under": 3937,
      "Ġir": 3938,
      "Ġneighb": 3939,
      "Ġdiscussed": 3940,
      "Ġrepl": 3941,
      "pta": 3942,
      "ĠThis": 3943,
      "urday": 3944,
      "ĠRohit": 3945,
      "ĠTri": 3946,
      "Ġblack": 3947,
      "Ġaverage": 3948,
      "ĠPaul": 3949,
      "Ġestablished": 3950,
      "Ġcaused": 3951,
      "ora": 3952,
      "Ġmax": 3953,
      "ĠBe": 3954,
      "Ġstaff": 3955,
      "ĠChandigarh": 3956,
      "Ġbail": 3957,
      "estern": 3958,
      "ĠHD": 3959,
      "Ġsuicide": 3960,
      "Ġadop": 3961,
      "Ġassess": 3962,
      "Ġinflu": 3963,
      "Ġrespond": 3964,
      "Ġspecific": 3965,
      "RO": 3966,
      "ĠSC": 3967,
      "conomic": 3968,
      "Ġcontinued": 3969,
      "Ġproperty": 3970,
      "ĠPaw": 3971,
      "Ġmarried": 3972,
      "ixed": 3973,
      "Modi": 3974,
      "Ġton": 3975,
      "Ġpack": 3976,
      "ĠTuesday": 3977,
      "hawan": 3978,
      "Ġpresence": 3979,
      "venue": 3980,
      "Ġschemes": 3981,
      "ĠWednesday": 3982,
      "pond": 3983,
      "Ġthou": 3984,
      "ĠLanka": 3985,
      "Ġleadership": 3986,
      "Ġrates": 3987,
      "ĠFil": 3988,
      "ask": 3989,
      "pping": 3990,
      "hai": 3991,
      "Ġjournal": 3992,
      "Ġmentioned": 3993,
      "ĠAssociation": 3994,
      "60": 3995,
      "ĠMod": 3996,
      "ĠOdisha": 3997,
      "Later": 3998,
      "ĠSaturday": 3999,
      "Ġcharacter": 4000,
      "ĠNe": 4001,
      "Ġvs": 4002,
      "Ġcommission": 4003,
      "Ġpurch": 4004,
      "ĠArticle": 4005,
      "che": 4006,
      "istic": 4007,
      "Ġplant": 4008,
      "Ġappe": 4009,
      "ĠBachchan": 4010,
      "CA": 4011,
      "Other": 4012,
      "gu": 4013,
      "ini": 4014,
      "Ġinternal": 4015,
      "lear": 4016,
      "que": 4017,
      "Ġtraffic": 4018,
      "uter": 4019,
      "ĠGang": 4020,
      "indra": 4021,
      "ĠSunday": 4022,
      "Since": 4023,
      "Ġreform": 4024,
      "Ġestim": 4025,
      "Mumbai": 4026,
      "Ġnorth": 4027,
      "ĠIS": 4028,
      "usion": 4029,
      "Ġpros": 4030,
      "ager": 4031,
      "merce": 4032,
      "Ġspeak": 4033,
      "Ġvictory": 4034,
      "Ġways": 4035,
      "Ġanal": 4036,
      "umbers": 4037,
      "Ġallegedly": 4038,
      "Ġpath": 4039,
      "Ġdidnt": 4040,
      "Ġemployment": 4041,
      "ĠMission": 4042,
      "Ġresc": 4043,
      "Ġhot": 4044,
      "ĠSpecial": 4045,
      "Ġflood": 4046,
      "ĠService": 4047,
      "Ġlink": 4048,
      "Ġste": 4049,
      "mercial": 4050,
      "Ġrule": 4051,
      "Ġbill": 4052,
      "Ġ2011": 4053,
      "phas": 4054,
      "Ġchanged": 4055,
      "Ġpromote": 4056,
      "ĠChristian": 4057,
      "Ġlatest": 4058,
      "Ġplans": 4059,
      "Ġmatches": 4060,
      "aidu": 4061,
      "Ġeffective": 4062,
      "ĠScience": 4063,
      "miss": 4064,
      "osh": 4065,
      "ĠJharkhand": 4066,
      "ĠOne": 4067,
      "Ġarrange": 4068,
      "Ġ500": 4069,
      "rad": 4070,
      "vind": 4071,
      "Ġconfirmed": 4072,
      "Ġplea": 4073,
      "Dr": 4074,
      "ĠArab": 4075,
      "epal": 4076,
      "Ġarri": 4077,
      "everal": 4078,
      "ternet": 4079,
      "Ġeveryone": 4080,
      "Ġaircraft": 4081,
      "lymp": 4082,
      "Ġdeterm": 4083,
      "alled": 4084,
      "ĠChopra": 4085,
      "Ġunit": 4086,
      "hattisgarh": 4087,
      "Ġfailed": 4088,
      "Ġgas": 4089,
      "Ġseized": 4090,
      "ricke": 4091,
      "ovid": 4092,
      "Ġreferred": 4093,
      "ĠInformation": 4094,
      "ĠRao": 4095,
      "Ġanswer": 4096,
      "Ġrelief": 4097,
      "By": 4098,
      "Ġsite": 4099,
      "Ġmarriage": 4100,
      "Ġmusic": 4101,
      "Ġsched": 4102,
      "Ġusers": 4103,
      "ift": 4104,
      "ĠLim": 4105,
      "akhand": 4106,
      "ES": 4107,
      "Ġgives": 4108,
      "Ġdemon": 4109,
      "Ġsides": 4110,
      "ĠDis": 4111,
      "Ġevil": 4112,
      "Ġ80": 4113,
      "Ġexpand": 4114,
      "ĠBritish": 4115,
      "ault": 4116,
      "Ġmand": 4117,
      "ĠSin": 4118,
      "ique": 4119,
      "Ġsurely": 4120,
      "vention": 4121,
      "Ġbilateral": 4122,
      "Ġduty": 4123,
      "ĠOn": 4124,
      "Ġprin": 4125,
      "ixel": 4126,
      "ĠCollege": 4127,
      "Ġsoul": 4128,
      "ĠCivil": 4129,
      "ĠTax": 4130,
      "Ġrally": 4131,
      "Ġnations": 4132,
      "pects": 4133,
      "Ġoccur": 4134,
      "Ġmajority": 4135,
      "Ġassistance": 4136,
      "ĠAuthor": 4137,
      "MS": 4138,
      "ĠNag": 4139,
      "osing": 4140,
      "Ġcontain": 4141,
      "Ġprimary": 4142,
      "Ġceremony": 4143,
      "Ġsource": 4144,
      "Ġprovides": 4145,
      "Ġcoal": 4146,
      "ondon": 4147,
      "Ġremained": 4148,
      "Ma": 4149,
      "ĠThak": 4150,
      "Ġmoved": 4151,
      "Ġpublished": 4152,
      "Ġdisbel": 4153,
      "Ġbenefits": 4154,
      "Ġpetrol": 4155,
      "utions": 4156,
      "Ġvisited": 4157,
      "ammed": 4158,
      "ĠDiv": 4159,
      "Ġresources": 4160,
      "ĠAfghanistan": 4161,
      "oo": 4162,
      "ayan": 4163,
      "ĠKrish": 4164,
      "Ġago": 4165,
      "Ġimportance": 4166,
      "Ġaccounts": 4167,
      "Ġbiggest": 4168,
      "Ġvotes": 4169,
      "Ġnatural": 4170,
      "Even": 4171,
      "Not": 4172,
      "RC": 4173,
      "gment": 4174,
      "ester": 4175,
      "uri": 4176,
      "ott": 4177,
      "Ġshot": 4178,
      "undred": 4179,
      "pendence": 4180,
      "Ġfacing": 4181,
      "Ġequal": 4182,
      "Ġpressure": 4183,
      "gram": 4184,
      "use": 4185,
      "Ġcompetition": 4186,
      "rep": 4187,
      "itial": 4188,
      "Several": 4189,
      "gree": 4190,
      "Ġforth": 4191,
      "ĠJay": 4192,
      "ĠOlymp": 4193,
      "rew": 4194,
      "ĠShan": 4195,
      "ĠAmerican": 4196,
      "Ġpers": 4197,
      "oud": 4198,
      "Ġheard": 4199,
      "Ġvia": 4200,
      "ĠVer": 4201,
      "Ġreceive": 4202,
      "Ġbox": 4203,
      "ental": 4204,
      "Ġalmost": 4205,
      "ĠTer": 4206,
      "Ġvote": 4207,
      "Ġagriculture": 4208,
      "Ġoffered": 4209,
      "Ġsoldiers": 4210,
      "ĠForeign": 4211,
      "Ġrisk": 4212,
      "chi": 4213,
      "Ġseek": 4214,
      "ĠNaidu": 4215,
      "Ġ2012": 4216,
      "Ġmark": 4217,
      "Ġprogrammes": 4218,
      "Ġdenied": 4219,
      "13": 4220,
      "udi": 4221,
      "tained": 4222,
      "Ġcrime": 4223,
      "Ġriver": 4224,
      "JD": 4225,
      "uv": 4226,
      "ĠHimachal": 4227,
      "Ġfig": 4228,
      "Ġelected": 4229,
      "stitutional": 4230,
      "Ġturned": 4231,
      "Ġtried": 4232,
      "Ġalone": 4233,
      "ovind": 4234,
      "Ġresponsible": 4235,
      "Ġpictures": 4236,
      "Ġfans": 4237,
      "eness": 4238,
      "Ġcop": 4239,
      "ĠSector": 4240,
      "ĠGe": 4241,
      "de": 4242,
      "ĠPriyanka": 4243,
      "ĠTrib": 4244,
      "Ġcorruption": 4245,
      "Ġextended": 4246,
      "Ġmaximum": 4247,
      "ME": 4248,
      "ĠCons": 4249,
      "ĠElection": 4250,
      "ĠSecurity": 4251,
      "Ġeyes": 4252,
      "Ġdestroy": 4253,
      "Ġscheduled": 4254,
      "spe": 4255,
      "Ġbudget": 4256,
      "ĠDi": 4257,
      "Ġeasy": 4258,
      "ĠWelfare": 4259,
      "Ġnearly": 4260,
      "AD": 4261,
      "Ġ64": 4262,
      "ranch": 4263,
      "Ġlevels": 4264,
      "unt": 4265,
      "ĠNeh": 4266,
      "Ġappoint": 4267,
      "Ġknows": 4268,
      "Ġpunishment": 4269,
      "ĠSol": 4270,
      "Ġnature": 4271,
      "ĠGB": 4272,
      "Ġ48": 4273,
      "Ġstudent": 4274,
      "Sim": 4275,
      "ĠInt": 4276,
      "Ġ33": 4277,
      "Ġapproach": 4278,
      "Ġremains": 4279,
      "Ġfre": 4280,
      "Ġbeat": 4281,
      "ĠOur": 4282,
      "Ġattention": 4283,
      "Ġeverything": 4284,
      "Ġreply": 4285,
      "ĠMukher": 4286,
      "mohan": 4287,
      "ĠRukh": 4288,
      "ript": 4289,
      "Ġdeleg": 4290,
      "ĠOrgan": 4291,
      "Ġcouple": 4292,
      "Ġchallenge": 4293,
      "gic": 4294,
      "Ġregul": 4295,
      "Ġevening": 4296,
      "Ġdepart": 4297,
      "Ġsuspend": 4298,
      "Ġnetwork": 4299,
      "Ġcriminal": 4300,
      "Ġopened": 4301,
      "Ġextrem": 4302,
      "ĠDavid": 4303,
      "Ġtourn": 4304,
      "ĠGoa": 4305,
      "Ġmarkets": 4306,
      "Ġspiritual": 4307,
      "Ġsale": 4308,
      "Ġinside": 4309,
      "Ġnumbers": 4310,
      "ĠPower": 4311,
      "ĠNagar": 4312,
      "Ġroads": 4313,
      "Ġdemocracy": 4314,
      "Ġessential": 4315,
      "'.": 4316,
      "PC": 4317,
      "Ġcritical": 4318,
      "Ġhum": 4319,
      "ĠBhatt": 4320,
      "Ġbless": 4321,
      "Ġbrothers": 4322,
      "Ġsilver": 4323,
      "ĠOfficer": 4324,
      "Ġdigital": 4325,
      "ĠNet": 4326,
      "Ġfavour": 4327,
      "Ġagreement": 4328,
      "Ġcategory": 4329,
      "Ġtro": 4330,
      "Ġcell": 4331,
      "Ġbound": 4332,
      "ĠKam": 4333,
      "arc": 4334,
      "Ġpand": 4335,
      "though": 4336,
      "Ġemphas": 4337,
      "Ġcricke": 4338,
      "Ġallegations": 4339,
      "Ġindustrial": 4340,
      "ĠDhoni": 4341,
      "Ġwid": 4342,
      "ili": 4343,
      "aches": 4344,
      "Ġmatters": 4345,
      "Ġtry": 4346,
      "ĠBook": 4347,
      "ĠBCCI": 4348,
      "igence": 4349,
      "Ġsave": 4350,
      "Ġarmy": 4351,
      "ĠManagement": 4352,
      "iddle": 4353,
      "Ġbal": 4354,
      "Ġprotection": 4355,
      "gap": 4356,
      "Ġgrowing": 4357,
      "Ġparticipated": 4358,
      "Ġcollabor": 4359,
      "Ġreasons": 4360,
      "Ġtext": 4361,
      "Ġcentre": 4362,
      "Ġmonitor": 4363,
      "ĠUttarakhand": 4364,
      "Ġsons": 4365,
      "Ġsouth": 4366,
      "veer": 4367,
      "otal": 4368,
      "anger": 4369,
      "ĠTelangana": 4370,
      "Her": 4371,
      "Of": 4372,
      "iy": 4373,
      "icked": 4374,
      "ĠBas": 4375,
      "Ġcomment": 4376,
      "Ġemp": 4377,
      "Ġurged": 4378,
      "Ġrejected": 4379,
      "ĠKul": 4380,
      "Ġtrains": 4381,
      "Ġgoods": 4382,
      "ĠAbd": 4383,
      "Ġrailway": 4384,
      "Ġchallenges": 4385,
      "off": 4386,
      "Ġunits": 4387,
      "cap": 4388,
      "hem": 4389,
      "Ġposted": 4390,
      "Ġpayment": 4391,
      "Ġsensor": 4392,
      "uls": 4393,
      "Ġurban": 4394,
      "ratic": 4395,
      "Ġcontrovers": 4396,
      "mon": 4397,
      "ming": 4398,
      "Ġscience": 4399,
      "Ġopening": 4400,
      "hap": 4401,
      "ĠThey": 4402,
      "ĠGupta": 4403,
      "oe": 4404,
      "Ġpra": 4405,
      "ĠMS": 4406,
      ",\"\"\"\"": 4407,
      "999": 4408,
      "kash": 4409,
      "Ġcelebrated": 4410,
      "eddy": 4411,
      "Ġwithdra": 4412,
      "ĠChhattisgarh": 4413,
      "Ġgreater": 4414,
      "Ġ|": 4415,
      "Ġsectors": 4416,
      "rupt": 4417,
      "Ġlockdown": 4418,
      "oured": 4419,
      "Ġmount": 4420,
      "irs": 4421,
      "Ġflow": 4422,
      "Ġproposal": 4423,
      "Ġtrial": 4424,
      "Ġbesides": 4425,
      "ĠBhav": 4426,
      "acebook": 4427,
      "Ġvillages": 4428,
      "ĠPlan": 4429,
      "Ġfine": 4430,
      "Ġlin": 4431,
      "ĠChar": 4432,
      "\"\"\"\"": 4433,
      "ĠArvind": 4434,
      "Ġcareer": 4435,
      "Ġteachers": 4436,
      "deep": 4437,
      "ĠSonia": 4438,
      "ĠSpe": 4439,
      "Ġinquiry": 4440,
      "Ġlay": 4441,
      "ĠNa": 4442,
      "oper": 4443,
      "Ġgoes": 4444,
      "Ġ2010": 4445,
      "Ġfacilit": 4446,
      "co": 4447,
      "Ġfestival": 4448,
      "ĠConference": 4449,
      "Ġinitiative": 4450,
      "ĠThakur": 4451,
      "pro": 4452,
      "Ġgirls": 4453,
      "Ġsafe": 4454,
      "pen": 4455,
      "Ġnote": 4456,
      "standing": 4457,
      "uddin": 4458,
      "Ġcounter": 4459,
      "ĠMukherjee": 4460,
      "Con": 4461,
      "Ġstations": 4462,
      "Ġspeech": 4463,
      "Ġactually": 4464,
      "ĠChandra": 4465,
      "Ġchairman": 4466,
      "Ġordered": 4467,
      "Ġshooting": 4468,
      "ox": 4469,
      "Ġsin": 4470,
      "ressing": 4471,
      "iversary": 4472,
      "Ġminimum": 4473,
      "mendment": 4474,
      "ties": 4475,
      "anth": 4476,
      "Ġhear": 4477,
      "Ġsections": 4478,
      "ĠOffice": 4479,
      "Ġfresh": 4480,
      "Ġapproval": 4481,
      "Ġattacks": 4482,
      "Ġplaced": 4483,
      "eous": 4484,
      "gency": 4485,
      "erjee": 4486,
      "ĠSum": 4487,
      "ĠCr": 4488,
      "ĠCovid": 4489,
      "ela": 4490,
      "aken": 4491,
      "Ġdegree": 4492,
      "Ġscored": 4493,
      "Ġcert": 4494,
      "Ġvictims": 4495,
      "adhan": 4496,
      "ĠCEO": 4497,
      "ifest": 4498,
      "ĠInvest": 4499,
      "Ġevents": 4500,
      "Ġtemperature": 4501,
      "HI": 4502,
      "Ġthus": 4503,
      "Ġprob": 4504,
      "ĠWater": 4505,
      "Ġinterview": 4506,
      "Ġpandemic": 4507,
      "ĠFund": 4508,
      "ĠWitness": 4509,
      "emy": 4510,
      "lip": 4511,
      "Ġ196": 4512,
      "Ġstrike": 4513,
      "alse": 4514,
      "ĠEm": 4515,
      "Ġwish": 4516,
      "anced": 4517,
      "ented": 4518,
      "ĠNepal": 4519,
      "President": 4520,
      "ĠExpress": 4521,
      "ĠAgriculture": 4522,
      "Ġbreak": 4523,
      "Ġdrink": 4524,
      "ĠBad": 4525,
      "Ġunf": 4526,
      "Ġspoke": 4527,
      "Ġdraw": 4528,
      "overy": 4529,
      "ĠJanata": 4530,
      "Let": 4531,
      "ball": 4532,
      "Ġadj": 4533,
      "Ġenough": 4534,
      "ĠAuthority": 4535,
      "Rs": 4536,
      "inch": 4537,
      "Ġhop": 4538,
      "Ġannual": 4539,
      "cient": 4540,
      "Ġnormal": 4541,
      "Their": 4542,
      "aitley": 4543,
      "Ġgovern": 4544,
      "Ġplayer": 4545,
      "Ġfacility": 4546,
      "Ġdevice": 4547,
      "ĠAshok": 4548,
      "ĠSinha": 4549,
      "ĠLimited": 4550,
      "Ġcontact": 4551,
      "acted": 4552,
      "pri": 4553,
      "wide": 4554,
      "Ġfif": 4555,
      "Ġfem": 4556,
      "ĠWar": 4557,
      "ricultural": 4558,
      "Ġhospitals": 4559,
      "Ġcritic": 4560,
      "Rahul": 4561,
      "ĠChan": 4562,
      "ĠPart": 4563,
      "ĠNCP": 4564,
      "Ġoffers": 4565,
      "Ġ36": 4566,
      "ping": 4567,
      "Ġrear": 4568,
      "Ġconsult": 4569,
      "Ġfled": 4570,
      "Ġfeature": 4571,
      "Ġdeployed": 4572,
      "areena": 4573,
      "Ġprec": 4574,
      "gapixel": 4575,
      "asi": 4576,
      "ĠTo": 4577,
      "ĠInf": 4578,
      "Ġsetting": 4579,
      "Ġsystems": 4580,
      "ĠJohn": 4581,
      "500": 4582,
      "Bollywood": 4583,
      "EC": 4584,
      "yer": 4585,
      "ĠPTI": 4586,
      "Ġmeetings": 4587,
      "Ġreturned": 4588,
      "ĠKingdom": 4589,
      "ĠAI": 4590,
      "ema": 4591,
      "Ġthee": 4592,
      "respond": 4593,
      "Ġcris": 4594,
      "ĠRussia": 4595,
      "ole": 4596,
      "ĠMat": 4597,
      "ĠIf": 4598,
      "ĠKaur": 4599,
      "ĠTour": 4600,
      "Ġdisci": 4601,
      "Ġcalls": 4602,
      "Ġserve": 4603,
      "Ġcontribution": 4604,
      "Ġseparate": 4605,
      "Most": 4606,
      "anath": 4607,
      "ĠSports": 4608,
      "ĠDonald": 4609,
      "Ġvision": 4610,
      "Ġneither": 4611,
      "Ġexercise": 4612,
      "va": 4613,
      "ero": 4614,
      "Ġmission": 4615,
      "ĠLad": 4616,
      "Ġheavens": 4617,
      "Ġinitiatives": 4618,
      "sequently": 4619,
      "je": 4620,
      "under": 4621,
      "isf": 4622,
      "Ġmeth": 4623,
      "ĠICC": 4624,
      "Ġcommercial": 4625,
      "Ġrich": 4626,
      "Ġ90": 4627,
      "Ġcorpor": 4628,
      "minist": 4629,
      "vt": 4630,
      "Ġreceiving": 4631,
      "ĠChristians": 4632,
      "ĠRBI": 4633,
      "andeep": 4634,
      "Ġfelt": 4635,
      "AC": 4636,
      "Ġticket": 4637,
      "nds": 4638,
      "Ġexchange": 4639,
      "Ġcompletely": 4640,
      "fted": 4641,
      "Ġcant": 4642,
      "Ġtom": 4643,
      "iled": 4644,
      "oman": 4645,
      "Ġsevere": 4646,
      "ishra": 4647,
      "Ġcarry": 4648,
      "Ġcontinues": 4649,
      "ĠClass": 4650,
      "Ġrange": 4651,
      "Ġeld": 4652,
      "Ġgreen": 4653,
      "law": 4654,
      "ĠAward": 4655,
      "Ġge": 4656,
      "ĠLondon": 4657,
      "Ġagreed": 4658,
      "ensive": 4659,
      "Ġcapt": 4660,
      "ĠAdd": 4661,
      "Ġconcern": 4662,
      "Ġinitiated": 4663,
      "Te": 4664,
      "vant": 4665,
      "Ġbag": 4666,
      "ilk": 4667,
      "Ġcolour": 4668,
      "ON": 4669,
      "Rec": 4670,
      "Ġcrisis": 4671,
      "ila": 4672,
      "Ġnine": 4673,
      "Ġdiscussion": 4674,
      "Pl": 4675,
      "astern": 4676,
      "rog": 4677,
      "rene": 4678,
      "Ġflag": 4679,
      "ĠAnand": 4680,
      "Ġjudicial": 4681,
      "oming": 4682,
      "Ġgather": 4683,
      "ĠVik": 4684,
      "Ġcoach": 4685,
      "Ġloan": 4686,
      "Ġparliament": 4687,
      "Ġhundred": 4688,
      "Ġlog": 4689,
      "Ġvice": 4690,
      "ĠLeg": 4691,
      "ĠBharati": 4692,
      "Ġfully": 4693,
      "atma": 4694,
      "ĠGovernments": 4695,
      "nergy": 4696,
      "Ġaccepted": 4697,
      "Ġcrores": 4698,
      "ĠRajput": 4699,
      "amily": 4700,
      "Ġserved": 4701,
      "Ġheaded": 4702,
      "Ġreduce": 4703,
      "200": 4704,
      "rated": 4705,
      "Ġairport": 4706,
      "Ġgranted": 4707,
      "Ġbase": 4708,
      "agh": 4709,
      "ĠVid": 4710,
      "uclear": 4711,
      ".,": 4712,
      "unicipal": 4713,
      "ĠHow": 4714,
      "ume": 4715,
      "ĠOpp": 4716,
      "Ġscore": 4717,
      "Ġterrit": 4718,
      "Ġdepos": 4719,
      "Ġtournament": 4720,
      "hammad": 4721,
      "ores": 4722,
      "icit": 4723,
      "olution": 4724,
      "ĠTata": 4725,
      "Government": 4726,
      "Ġsuspended": 4727,
      "utt": 4728,
      "Ġremember": 4729,
      "ny": 4730,
      "rel": 4731,
      "Ġ45": 4732,
      "Ġsubmitted": 4733,
      "Ġorders": 4734,
      "Ġ2009": 4735,
      "Ġpartnership": 4736,
      "ĠBanerjee": 4737,
      "Ġwelfare": 4738,
      "arti": 4739,
      "Ġhelped": 4740,
      "Ġdespite": 4741,
      "ĠCommand": 4742,
      "Shah": 4743,
      "Ġsense": 4744,
      "ols": 4745,
      "Ġposts": 4746,
      "Ġcertainly": 4747,
      "edding": 4748,
      "PS": 4749,
      "inate": 4750,
      "Ġshown": 4751,
      "hens": 4752,
      "Ġsurv": 4753,
      "Re": 4754,
      "inations": 4755,
      "Ġpred": 4756,
      "ĠAjay": 4757,
      "ĠKa": 4758,
      "Ġproc": 4759,
      "Ġsacri": 4760,
      "Ġselected": 4761,
      "megapixel": 4762,
      "ĠManmohan": 4763,
      "Ġbelieved": 4764,
      "Ġphoto": 4765,
      "Ġ:": 4766,
      "ĠPran": 4767,
      "Ġbecomes": 4768,
      "Ġmedic": 4769,
      "IA": 4770,
      "time": 4771,
      "ils": 4772,
      "Ġagencies": 4773,
      "Ġelse": 4774,
      "pid": 4775,
      "Ġpage": 4776,
      "ĠCity": 4777,
      "Ġongoing": 4778,
      "Ġbroad": 4779,
      "Ġinnings": 4780,
      "Ġcru": 4781,
      "roid": 4782,
      "ĠMishra": 4783,
      "ĠUK": 4784,
      "Ġappeared": 4785,
      "CR": 4786,
      "rative": 4787,
      "illeg": 4788,
      "ĠSid": 4789,
      "ĠSrin": 4790,
      "apt": 4791,
      "Ġ75": 4792,
      "cker": 4793,
      "Ġgeneration": 4794,
      "Further": 4795,
      "Where": 4796,
      "bl": 4797,
      "iture": 4798,
      "ĠVish": 4799,
      "Ġcorrespond": 4800,
      "Ġterrorist": 4801,
      "Ġliter": 4802,
      "Ġrepe": 4803,
      "fully": 4804,
      "Ġpurs": 4805,
      "Ġtradition": 4806,
      "Ah": 4807,
      "Such": 4808,
      "vendra": 4809,
      "Ġwhatever": 4810,
      "ĠLeague": 4811,
      "Ġauthority": 4812,
      "charge": 4813,
      "Over": 4814,
      "ocked": 4815,
      "ologies": 4816,
      "Ġlaid": 4817,
      "Ġappropri": 4818,
      "Ġparticularly": 4819,
      "Ġinitial": 4820,
      "Similar": 4821,
      "Here": 4822,
      "ape": 4823,
      "Ġsea": 4824,
      "Ġindic": 4825,
      "Ġrighteous": 4826,
      "Ġdocuments": 4827,
      "Ġfalse": 4828,
      "ashi": 4829,
      "ĠDhar": 4830,
      "Ġexperi": 4831,
      "Ġdebut": 4832,
      "Ġmotor": 4833,
      "pati": 4834,
      "alore": 4835,
      "idamb": 4836,
      "ĠGh": 4837,
      "Ġgoal": 4838,
      "eful": 4839,
      "ashing": 4840,
      "ĠYork": 4841,
      "ĠTransport": 4842,
      "Sal": 4843,
      "tty": 4844,
      "ĠAcc": 4845,
      "ĠPort": 4846,
      "Ġvirus": 4847,
      "Ġsigns": 4848,
      "ĠCP": 4849,
      "ĠFrance": 4850,
      "Thats": 4851,
      "ĠChampions": 4852,
      "Ġdeliver": 4853,
      "Ġjourney": 4854,
      "Ġapost": 4855,
      "Ġmut": 4856,
      "Ġreward": 4857,
      "ushka": 4858,
      "Ġregional": 4859,
      "Ġintroduced": 4860,
      "ĠAsian": 4861,
      "Ġcarrying": 4862,
      "lands": 4863,
      "ĠAc": 4864,
      "ĠChild": 4865,
      "ĠInter": 4866,
      "ura": 4867,
      "ĠGal": 4868,
      "izing": 4869,
      "ounter": 4870,
      "Ġtruck": 4871,
      "Today": 4872,
      "een": 4873,
      "Ġmicro": 4874,
      "star": 4875,
      "Ġquick": 4876,
      "Ġremar": 4877,
      "Ġwinning": 4878,
      "Ġquarter": 4879,
      "Ġcustomers": 4880,
      "eks": 4881,
      "ĠFood": 4882,
      "Ġdeveloping": 4883,
      "Ġbooks": 4884,
      "reprene": 4885,
      "35": 4886,
      "ĠMor": 4887,
      "Ġ34": 4888,
      "Ġeffort": 4889,
      "ĠSystem": 4890,
      "ishan": 4891,
      "DR": 4892,
      "ju": 4893,
      "Ġassociated": 4894,
      "Among": 4895,
      "Res": 4896,
      "Ġilleg": 4897,
      "Ġsle": 4898,
      "Ġdecisions": 4899,
      "pes": 4900,
      "ĠFed": 4901,
      "roud": 4902,
      "Ġcondem": 4903,
      "Ġarrived": 4904,
      "ĠSwar": 4905,
      "quar": 4906,
      "Ġ195": 4907,
      "andidates": 4908,
      "Ġchaired": 4909,
      "Ġmanufacturing": 4910,
      "Tr": 4911,
      "Ġoption": 4912,
      "itable": 4913,
      "vert": 4914,
      "ĠProgram": 4915,
      "Ġconfidence": 4916,
      "Ġboost": 4917,
      "equ": 4918,
      "set": 4919,
      "ĠBoss": 4920,
      "usiness": 4921,
      "Ġbasic": 4922,
      "Ġinstead": 4923,
      "yle": 4924,
      "lled": 4925,
      "ĠBhag": 4926,
      "Ġclaims": 4927,
      "Ġimmediate": 4928,
      "Ġawarded": 4929,
      "Us": 4930,
      "Your": 4931,
      "rang": 4932,
      "arily": 4933,
      "ulate": 4934,
      "hary": 4935,
      "Ġshares": 4936,
      "Ġruling": 4937,
      "Ġoptions": 4938,
      "ĠFilm": 4939,
      "rd": 4940,
      "ĠMin": 4941,
      "ĠGad": 4942,
      "Ġsoft": 4943,
      "ĠProject": 4944,
      "pay": 4945,
      "ocation": 4946,
      "Ġroom": 4947,
      "Ġtype": 4948,
      "pic": 4949,
      "alty": 4950,
      "ĠAdminist": 4951,
      "Ġpractice": 4952,
      "ĠControl": 4953,
      "Ġphysical": 4954,
      "ĠKrishna": 4955,
      "HO": 4956,
      "pal": 4957,
      "ocks": 4958,
      "ĠVal": 4959,
      "Ġsuffered": 4960,
      "Ġsatisf": 4961,
      "Ġsustain": 4962,
      "Ġestimated": 4963,
      "elligence": 4964,
      "Ġhearts": 4965,
      "ĠWitnesses": 4966,
      "CS": 4967,
      "face": 4968,
      "ĠAkshay": 4969,
      "Ġplays": 4970,
      "Ġji": 4971,
      "eshwar": 4972,
      "awa": 4973,
      "Ġincidents": 4974,
      "Ġhousehold": 4975,
      "Ġobserved": 4976,
      "esterday": 4977,
      "Ġsound": 4978,
      "stances": 4979,
      "Ġrunning": 4980,
      "Ġorganized": 4981,
      "NT": 4982,
      "ĠMant": 4983,
      "usive": 4984,
      "ĠWomen": 4985,
      "ĠEconomic": 4986,
      "Ġincl": 4987,
      "Ġanniversary": 4988,
      "kari": 4989,
      "ĠYogi": 4990,
      "bh": 4991,
      "ievers": 4992,
      "ni": 4993,
      "ĠAam": 4994,
      "Ġorganis": 4995,
      "Ġbattery": 4996,
      "riya": 4997,
      "Ġcongre": 4998,
      "ĠWill": 4999,
      "ĠPatna": 5000,
      "ĠBhavan": 5001,
      "aman": 5002,
      "Ġgod": 5003,
      "Ġstone": 5004,
      "akers": 5005,
      "riving": 5006,
      "Ġresolution": 5007,
      "Ġinaugurated": 5008,
      "rim": 5009,
      "Ġlack": 5010,
      "Ġstock": 5011,
      "ardhan": 5012,
      "Ġproduce": 5013,
      "Ġavoid": 5014,
      "Ġbuy": 5015,
      "ĠRegion": 5016,
      "gress": 5017,
      "with": 5018,
      "iter": 5019,
      "Ġfra": 5020,
      "pex": 5021,
      "Ġweap": 5022,
      "Ġreporters": 5023,
      "Ġopin": 5024,
      "Ġ370": 5025,
      "Mr": 5026,
      "ese": 5027,
      "leum": 5028,
      "ĠCode": 5029,
      "ĠKat": 5030,
      "Ġant": 5031,
      "Ġvalues": 5032,
      "Ġseriously": 5033,
      "holders": 5034,
      "ĠAdityanath": 5035,
      "ashed": 5036,
      "ĠReddy": 5037,
      "iger": 5038,
      "Ġshifted": 5039,
      "fect": 5040,
      "sp": 5041,
      "ĠEd": 5042,
      "Ġrob": 5043,
      "Ġforest": 5044,
      "Ġcircum": 5045,
      "24": 5046,
      "well": 5047,
      "Ġtouch": 5048,
      "ĠRaw": 5049,
      "Ġslow": 5050,
      "hab": 5051,
      "Ġfair": 5052,
      "ules": 5053,
      "Ġcontract": 5054,
      "Ġhealthy": 5055,
      "China": 5056,
      "ĠBS": 5057,
      "chol": 5058,
      "ĠJaitley": 5059,
      "ĠFacebook": 5060,
      "Ġsomeone": 5061,
      "Ġcoast": 5062,
      "Ġski": 5063,
      "Ġlitre": 5064,
      "ĠPrakash": 5065,
      "Ġextremely": 5066,
      "actions": 5067,
      "Ġguest": 5068,
      "Ġlanguages": 5069,
      "idambaram": 5070,
      "'re": 5071,
      "IL": 5072,
      "oph": 5073,
      "hara": 5074,
      "Ġpolic": 5075,
      "ĠRajiv": 5076,
      "State": 5077,
      "Ġtesting": 5078,
      "Ġgrand": 5079,
      "Ġverdict": 5080,
      "Ġbirthday": 5081,
      "ĠPawar": 5082,
      "Ġproud": 5083,
      "ĠCar": 5084,
      "Ġdismiss": 5085,
      "Ġaddressed": 5086,
      "Ġmarks": 5087,
      "Ġinsurance": 5088,
      "ĠImran": 5089,
      "ĠIndustry": 5090,
      "icted": 5091,
      "Ġdanger": 5092,
      "omet": 5093,
      "ĠRec": 5094,
      "Ġdepend": 5095,
      "Ġsubmit": 5096,
      "Students": 5097,
      "Ġequip": 5098,
      "Ġimplemented": 5099,
      "rugg": 5100,
      "Ġhonour": 5101,
      "wise": 5102,
      "Ġeat": 5103,
      "Ġupd": 5104,
      "Ġsecret": 5105,
      "Ġsitting": 5106,
      "ĠAmar": 5107,
      "Ġremaining": 5108,
      "Ġjobs": 5109,
      "Ġdirectly": 5110,
      "omi": 5111,
      "Ġconstant": 5112,
      "Ġweeks": 5113,
      "Ġarticle": 5114,
      "Ġidea": 5115,
      "Ġawareness": 5116,
      "Ġ+": 5117,
      "rect": 5118,
      "eries": 5119,
      "ĠBSP": 5120,
      "aji": 5121,
      "Ġloans": 5122,
      "Ġgain": 5123,
      "Ġvoice": 5124,
      "Ġamb": 5125,
      "Ġcentres": 5126,
      "Ġthroughout": 5127,
      "Ġcourts": 5128,
      "Ġextra": 5129,
      "Ġheaven": 5130,
      "Ġbattle": 5131,
      "ojana": 5132,
      "Ġdouble": 5133,
      "Ġindividuals": 5134,
      "Ġbeginning": 5135,
      "Ġbatsman": 5136,
      "Ġmid": 5137,
      "ĠMam": 5138,
      "ĠPune": 5139,
      "Ġtechnical": 5140,
      "ucknow": 5141,
      "Ġdoubt": 5142,
      "23": 5143,
      "lers": 5144,
      "rain": 5145,
      "lying": 5146,
      "Ġviews": 5147,
      "Ġgreet": 5148,
      "Ġborn": 5149,
      "ĠSidd": 5150,
      "ula": 5151,
      "Ġspeaking": 5152,
      "endul": 5153,
      "ĠGermany": 5154,
      "oples": 5155,
      "Ġrefused": 5156,
      "Another": 5157,
      "From": 5158,
      "oned": 5159,
      "Ġfram": 5160,
      "oti": 5161,
      "Ġaffect": 5162,
      "Ġholding": 5163,
      "Ġaddressing": 5164,
      "Ġautom": 5165,
      "ĠAhmedabad": 5166,
      "Ġtonnes": 5167,
      "):": 5168,
      "Ġmig": 5169,
      "ĠKovind": 5170,
      "ĠPradhan": 5171,
      "dule": 5172,
      "ĠEnter": 5173,
      "Ġconclud": 5174,
      "lation": 5175,
      "ĠProf": 5176,
      "Ġtested": 5177,
      "ĠKorea": 5178,
      "ĠMas": 5179,
      "Ġproced": 5180,
      "Ġnoted": 5181,
      "Ġfee": 5182,
      "min": 5183,
      "Ġfat": 5184,
      "ida": 5185,
      "ĠBi": 5186,
      "Ġconsist": 5187,
      "Ġfighting": 5188,
      "Ad": 5189,
      "Ġ%": 5190,
      "Ġlic": 5191,
      "ĠArjun": 5192,
      "viation": 5193,
      "Ġmeaning": 5194,
      "Ġdedicated": 5195,
      "Ġwedding": 5196,
      "Ġbeha": 5197,
      "ĠHon": 5198,
      "agers": 5199,
      "ĠJD": 5200,
      "Ġund": 5201,
      "Ġfinance": 5202,
      "Ġrainfall": 5203,
      "Ġdispute": 5204,
      "ĠNitish": 5205,
      "Ġsubsid": 5206,
      "Ġbrief": 5207,
      "ĠIndies": 5208,
      "hern": 5209,
      "apers": 5210,
      "Ġadmit": 5211,
      "Ġreserv": 5212,
      "Ġunivers": 5213,
      "ĠAndroid": 5214,
      "nap": 5215,
      "arth": 5216,
      "Ġthy": 5217,
      "ĠTal": 5218,
      "Ġkeeping": 5219,
      "Ġunderstanding": 5220,
      "Ġresidents": 5221,
      "70": 5222,
      "ĠBudget": 5223,
      "Ġstrugg": 5224,
      "haps": 5225,
      "ogle": 5226,
      "Ġpostmortem": 5227,
      "Ġ2008": 5228,
      "Ġdial": 5229,
      "ĠGold": 5230,
      "Ġconstitut": 5231,
      "ĠEnergy": 5232,
      "Ġcreation": 5233,
      "Ġvacc": 5234,
      "Ġpriority": 5235,
      "Ġbey": 5236,
      "ĠBah": 5237,
      "Ġseem": 5238,
      "ensation": 5239,
      "ĠBengaluru": 5240,
      "Ġlimited": 5241,
      "Ġtransfer": 5242,
      "EE": 5243,
      "Ġwide": 5244,
      "Ġdie": 5245,
      "ĠMet": 5246,
      "Ġvariant": 5247,
      "Ġfactor": 5248,
      "'m": 5249,
      "45": 5250,
      "run": 5251,
      "urrent": 5252,
      "Ġmechan": 5253,
      "Ġlimit": 5254,
      "ugh": 5255,
      "van": 5256,
      "Ġactors": 5257,
      "Ġfam": 5258,
      "Ġfaced": 5259,
      "Ġbeyond": 5260,
      "wor": 5261,
      "Ġtor": 5262,
      "Ġgri": 5263,
      "Ġpollution": 5264,
      "chayat": 5265,
      "Ġbit": 5266,
      "Ġyesterday": 5267,
      "oving": 5268,
      "ĠSunil": 5269,
      "ĠPaduk": 5270,
      "Ġpolicies": 5271,
      "75": 5272,
      "Ġpm": 5273,
      "Ġsurpr": 5274,
      "Ġstands": 5275,
      "ĠMahatma": 5276,
      "adra": 5277,
      "ĠDig": 5278,
      "ĠDEL": 5279,
      "orthern": 5280,
      "ogue": 5281,
      "Ġtrack": 5282,
      "araman": 5283,
      "ĠAmerica": 5284,
      "Ġdocument": 5285,
      "oi": 5286,
      "Ġpaper": 5287,
      "Ġnotification": 5288,
      "Ġtrading": 5289,
      "Ġmultiple": 5290,
      "Ġcreating": 5291,
      "ĠNehru": 5292,
      "fort": 5293,
      "kind": 5294,
      "ĠBest": 5295,
      "istics": 5296,
      "arya": 5297,
      "Ġcontent": 5298,
      "endulkar": 5299,
      "Sub": 5300,
      "Ġapex": 5301,
      "Ġbeaut": 5302,
      "ĠPak": 5303,
      "Ġforms": 5304,
      "ĠKaran": 5305,
      "Ġassured": 5306,
      "ĠManohar": 5307,
      "ĠMohan": 5308,
      "Ġsquad": 5309,
      "Ġwishes": 5310,
      "Ġtomorrow": 5311,
      "sy": 5312,
      "Ġast": 5313,
      "Ġthr": 5314,
      "Ġnuclear": 5315,
      "plom": 5316,
      "Ġshowed": 5317,
      "ĠBharatiya": 5318,
      "Ġce": 5319,
      "Ġbond": 5320,
      "iling": 5321,
      "ĠAnt": 5322,
      "ĠAAP": 5323,
      "Ġplanning": 5324,
      "NEW": 5325,
      "ckeray": 5326,
      "Ġcat": 5327,
      "Ġmanaged": 5328,
      "Ġappropriate": 5329,
      "ĠPadukone": 5330,
      "BC": 5331,
      "Ġdoll": 5332,
      "ĠSk": 5333,
      "ĠDhawan": 5334,
      "ĠNaw": 5335,
      "Ġexcell": 5336,
      "ĠOpen": 5337,
      "rits": 5338,
      "Ġ150": 5339,
      "ĠPranab": 5340,
      "vious": 5341,
      "oring": 5342,
      "ĠPer": 5343,
      "ima": 5344,
      "ĠGen": 5345,
      "Ġconvers": 5346,
      "Ġsexual": 5347,
      "uction": 5348,
      "Ġmill": 5349,
      "Ġwaste": 5350,
      "Ġ2021": 5351,
      "Ġdelay": 5352,
      "adhaar": 5353,
      "Ġfemale": 5354,
      "ĠDELHI": 5355,
      "nces": 5356,
      "ĠMag": 5357,
      "ĠMeh": 5358,
      "Ġarch": 5359,
      "Ġcho": 5360,
      "Ġlearning": 5361,
      "Ġrescue": 5362,
      "za": 5363,
      "Ġnam": 5364,
      "essor": 5365,
      "Ġrains": 5366,
      "Therefore": 5367,
      "Ġhighlight": 5368,
      "grees": 5369,
      "inals": 5370,
      "Ġmach": 5371,
      "ĠGames": 5372,
      "uresh": 5373,
      "Ġregistration": 5374,
      "ĠOpposition": 5375,
      "90": 5376,
      "ĠBra": 5377,
      "Ġ44": 5378,
      "Ġdifference": 5379,
      "',": 5380,
      "ider": 5381,
      "ĠAN": 5382,
      "ĠProdu": 5383,
      "Ġbehalf": 5384,
      "ĠPolicy": 5385,
      "Ġarrangements": 5386,
      "khar": 5387,
      "ecause": 5388,
      "Ġentered": 5389,
      "Ġmercy": 5390,
      "Ġobjective": 5391,
      "rore": 5392,
      "ĠCitizens": 5393,
      "olit": 5394,
      "imately": 5395,
      "ĠVen": 5396,
      "Ġraise": 5397,
      "ĠHead": 5398,
      "efore": 5399,
      "Ġweak": 5400,
      "ullah": 5401,
      "Ġnone": 5402,
      "Ġpermission": 5403,
      "Ġdescribed": 5404,
      "Ġpanel": 5405,
      "Act": 5406,
      "nic": 5407,
      "arb": 5408,
      "ĠRai": 5409,
      "Thus": 5410,
      "Ġregister": 5411,
      "Ġinvited": 5412,
      "Ġfoundation": 5413,
      "Ġguidelines": 5414,
      "Ġelectricity": 5415,
      "known": 5416,
      "Ġcricketer": 5417,
      "AF": 5418,
      "da": 5419,
      "ule": 5420,
      "Ġrevenue": 5421,
      "iable": 5422,
      "Ġcommitment": 5423,
      "Ġrepresentatives": 5424,
      "Ġholy": 5425,
      "ĠRana": 5426,
      "Ġstood": 5427,
      "ĠUs": 5428,
      "Ġpartner": 5429,
      "Ġcoord": 5430,
      "Ġentry": 5431,
      "NG": 5432,
      "Ġcards": 5433,
      "Ġreality": 5434,
      "ĠRashtra": 5435,
      "Ġdisapp": 5436,
      "Ġspent": 5437,
      "Ġcollect": 5438,
      "ĠQual": 5439,
      "Ġprofit": 5440,
      "Ġpoet": 5441,
      "Ġrupees": 5442,
      "NU": 5443,
      "wd": 5444,
      "win": 5445,
      "ona": 5446,
      "Ġfle": 5447,
      "Ġdro": 5448,
      "urk": 5449,
      "Ġblast": 5450,
      ".)": 5451,
      "urb": 5452,
      "itharaman": 5453,
      "Ġdegrees": 5454,
      "ĠLa": 5455,
      "Ġmarg": 5456,
      "Ġflight": 5457,
      "Ġsupported": 5458,
      "Ġorganisation": 5459,
      "De": 5460,
      "Ts": 5461,
      "Ġtrou": 5462,
      "Ġaccord": 5463,
      "Ġbrid": 5464,
      "Ġactivity": 5465,
      "ĠThere": 5466,
      "Ġimposed": 5467,
      "Ġassets": 5468,
      "Ġended": 5469,
      "Ġencounter": 5470,
      "ĠIndustries": 5471,
      "ĠSocial": 5472,
      "panied": 5473,
      "Ġskipper": 5474,
      "Ġbul": 5475,
      "adium": 5476,
      "Ġstructure": 5477,
      "alls": 5478,
      "Ġcancell": 5479,
      "Ġpriced": 5480,
      "ĠNavy": 5481,
      "Ġdamage": 5482,
      "nav": 5483,
      "Ġkg": 5484,
      "ĠVar": 5485,
      "Ġbecoming": 5486,
      "Ġaffairs": 5487,
      "Ġremarks": 5488,
      "aland": 5489,
      "ĠMir": 5490,
      "ĠYojana": 5491,
      "iction": 5492,
      "penditure": 5493,
      "BS": 5494,
      "Ġtim": 5495,
      "enty": 5496,
      "Ġcollege": 5497,
      "Ġsharing": 5498,
      "Ġdemonst": 5499,
      "care": 5500,
      "lies": 5501,
      "vis": 5502,
      "inance": 5503,
      "asure": 5504,
      "ĠCR": 5505,
      "urch": 5506,
      "unal": 5507,
      "Ġ38": 5508,
      "ĠGoyal": 5509,
      "Ġtalking": 5510,
      "Ġbringing": 5511,
      "odhya": 5512,
      "cks": 5513,
      "ĠCA": 5514,
      "avy": 5515,
      "Ġkilling": 5516,
      "Ġadvoc": 5517,
      "Ġcommunication": 5518,
      "Ġesc": 5519,
      "ĠWho": 5520,
      "ombay": 5521,
      "Ġillegal": 5522,
      "ĠJav": 5523,
      "aps": 5524,
      "astic": 5525,
      "Ġresidence": 5526,
      "text": 5527,
      "ĠKapil": 5528,
      "Ġtreated": 5529,
      "Ġfixed": 5530,
      "Ġancient": 5531,
      "aced": 5532,
      "ĠEngine": 5533,
      "Ġdrive": 5534,
      "Ġmissing": 5535,
      "ĠThackeray": 5536,
      "Ġmonitoring": 5537,
      "Ġwarm": 5538,
      "Ġhurt": 5539,
      "ĠPerson": 5540,
      "ĠPark": 5541,
      "ota": 5542,
      "Ġattacked": 5543,
      "ronic": 5544,
      "Similarly": 5545,
      "ĠDem": 5546,
      "iff": 5547,
      "Ġ300": 5548,
      "Ġovers": 5549,
      "rench": 5550,
      "Ġrelevant": 5551,
      "Ġprotests": 5552,
      "Ġbeautiful": 5553,
      "Des": 5554,
      "ius": 5555,
      "ivery": 5556,
      "ĠSik": 5557,
      "ĠTom": 5558,
      "ĠMohammad": 5559,
      "ĠTourism": 5560,
      "PP": 5561,
      "Ġder": 5562,
      "ĠFl": 5563,
      "Ġscale": 5564,
      "Ġdefin": 5565,
      "Ġindependent": 5566,
      "ĠDeepika": 5567,
      "ĠLegisl": 5568,
      "ĠGadkari": 5569,
      "ply": 5570,
      "Ġlies": 5571,
      "ĠCCT": 5572,
      "ĠTem": 5573,
      "Ġprison": 5574,
      "Ġinsp": 5575,
      "Ġexams": 5576,
      "Ġtitle": 5577,
      "Ġcorresponding": 5578,
      "ĠMantri": 5579,
      "arpur": 5580,
      "Ġfuel": 5581,
      "asw": 5582,
      "Ġhath": 5583,
      "amy": 5584,
      "ĠPost": 5585,
      "ushan": 5586,
      "ĠChidambaram": 5587,
      "Ġremoved": 5588,
      "Ġapplications": 5589,
      "Ġtraditional": 5590,
      "Ġencourage": 5591,
      "Say": 5592,
      "ooth": 5593,
      "Ġties": 5594,
      "alm": 5595,
      "Ġtoll": 5596,
      "ĠFamily": 5597,
      "ĠUnder": 5598,
      "ĠVin": 5599,
      "Ġdiss": 5600,
      "taining": 5601,
      "Ġmedal": 5602,
      "Ġblock": 5603,
      "Ġconfident": 5604,
      "Ġstandards": 5605,
      "Ġparticipate": 5606,
      "Ġrequested": 5607,
      "Candidates": 5608,
      "Far": 5609,
      "Four": 5610,
      "Ġtable": 5611,
      "Ġargu": 5612,
      "Ġstarting": 5613,
      "Ġlooked": 5614,
      "wali": 5615,
      "Ġparticipation": 5616,
      "Ġreduced": 5617,
      "Ġcertific": 5618,
      "Pun": 5619,
      "Ġcabinet": 5620,
      "ulations": 5621,
      "essions": 5622,
      "itage": 5623,
      "Ġbab": 5624,
      "ĠAadhaar": 5625,
      "Ġstrict": 5626,
      "Ġmanifest": 5627,
      "ensions": 5628,
      "Ġsimple": 5629,
      "Ġnegative": 5630,
      "Ġaccompanied": 5631,
      "repreneurs": 5632,
      "Can": 5633,
      "ĠSind": 5634,
      "Ġvent": 5635,
      "Ġrather": 5636,
      "Ġoffering": 5637,
      "ĠExternal": 5638,
      "Ġsolution": 5639,
      "Ġtourism": 5640,
      "Ġprosper": 5641,
      "quarters": 5642,
      "26": 5643,
      "gon": 5644,
      "Ġsam": 5645,
      "Ġsell": 5646,
      "ĠSachin": 5647,
      "ĠTendulkar": 5648,
      "Ġexport": 5649,
      "aste": 5650,
      "Ġdecide": 5651,
      "Ġemb": 5652,
      "pura": 5653,
      "ployment": 5654,
      "Ġvalid": 5655,
      "ĠNitin": 5656,
      "Ġdelegation": 5657,
      "Gu": 5658,
      "RB": 5659,
      "ĠPrab": 5660,
      "ĠInde": 5661,
      "hta": 5662,
      "ĠNews": 5663,
      "Ġguard": 5664,
      "Ġdetained": 5665,
      "Ġbooked": 5666,
      "ĠGanga": 5667,
      "Ms": 5668,
      "enn": 5669,
      "alu": 5670,
      "Ġknew": 5671,
      "ĠOF": 5672,
      "ĠCommerce": 5673,
      "Ġservants": 5674,
      "Ġstandard": 5675,
      "HE": 5676,
      "Ġcomments": 5677,
      "ĠVis": 5678,
      "wari": 5679,
      "Ġholds": 5680,
      "ĠSamaj": 5681,
      "Ġoriginal": 5682,
      "Ġproceedings": 5683,
      "Ġfifth": 5684,
      "ares": 5685,
      "alt": 5686,
      "Ġmiddle": 5687,
      "ilty": 5688,
      "Ġthrow": 5689,
      "ĠRural": 5690,
      "Ġclar": 5691,
      "Ġpremi": 5692,
      "Ġrapid": 5693,
      "Ġacad": 5694,
      "Ġstudies": 5695,
      "Ġadvised": 5696,
      "Ġcollection": 5697,
      "Ġinterests": 5698,
      "ertil": 5699,
      "Ġmulti": 5700,
      "Ġdistribution": 5701,
      "ĠUrban": 5702,
      "Ġcircumstances": 5703,
      "ken": 5704,
      "Ġuniversity": 5705,
      "Ġrelating": 5706,
      "Ġachieved": 5707,
      "Ġsuffering": 5708,
      "ĠIslamic": 5709,
      "Ġmassive": 5710,
      "OR": 5711,
      "ĠJon": 5712,
      "Ġweather": 5713,
      "ovt": 5714,
      "lict": 5715,
      "Ġhappiness": 5716,
      "Ġlakhs": 5717,
      "Ġidentify": 5718,
      "Ġcosts": 5719,
      "ĠAmitabh": 5720,
      "Ġstopped": 5721,
      "Ġsales": 5722,
      "Ġstrategy": 5723,
      "Ġguidance": 5724,
      "mark": 5725,
      "intend": 5726,
      "ĠMit": 5727,
      "ĠKo": 5728,
      "Ġ49": 5729,
      "axy": 5730,
      "comm": 5731,
      "ĠCCTV": 5732,
      "47": 5733,
      "ront": 5734,
      "aration": 5735,
      "ouhan": 5736,
      "Ġgames": 5737,
      "ube": 5738,
      "Ġcrowd": 5739,
      "Ġworlds": 5740,
      "wara": 5741,
      "Ġdiscussions": 5742,
      "Ġopinion": 5743,
      "atra": 5744,
      "Ġgun": 5745,
      "Ġpending": 5746,
      "Ġassign": 5747,
      "Ġguilty": 5748,
      "Step": 5749,
      "Be": 5750,
      "Ġburn": 5751,
      "ĠRSS": 5752,
      "ĠKart": 5753,
      "urement": 5754,
      "hana": 5755,
      "ugu": 5756,
      "Ġbelievers": 5757,
      "Ġcondol": 5758,
      "ĠQu": 5759,
      "Ġexecutive": 5760,
      "wadi": 5761,
      "ĠSikh": 5762,
      "Ġisol": 5763,
      "ĠBaj": 5764,
      "Ġimage": 5765,
      "aksh": 5766,
      "ishing": 5767,
      "Ġmoving": 5768,
      "ĠIPC": 5769,
      "Ġvirt": 5770,
      "ĠMuhammad": 5771,
      "Ġorigin": 5772,
      "ĠRedmi": 5773,
      "ĠSrinagar": 5774,
      "Or": 5775,
      "Senior": 5776,
      "iya": 5777,
      "Ġign": 5778,
      "ancy": 5779,
      "Ġlif": 5780,
      "Ġliqu": 5781,
      "Ġpolling": 5782,
      "Only": 5783,
      "Ġslog": 5784,
      "Ġdaughters": 5785,
      "hibition": 5786,
      "ĠEuropean": 5787,
      "hered": 5788,
      "Ġhomes": 5789,
      "Ġmem": 5790,
      "ĠBusiness": 5791,
      "Ġdidn": 5792,
      "Ġpromise": 5793,
      "Ġsurvey": 5794,
      "36": 5795,
      "inger": 5796,
      "ĠNirm": 5797,
      "Ġabroad": 5798,
      "Ġclimate": 5799,
      "ĠRamesh": 5800,
      "Ġdream": 5801,
      "ĠPul": 5802,
      "Ġmankind": 5803,
      "GP": 5804,
      "rary": 5805,
      "nded": 5806,
      "ĠRat": 5807,
      "ĠPandey": 5808,
      "ĠAdvis": 5809,
      "ĠAdditional": 5810,
      "erted": 5811,
      "ĠSitharaman": 5812,
      "hik": 5813,
      "Ġrad": 5814,
      "ĠLucknow": 5815,
      "Ġexperts": 5816,
      "ĠBangalore": 5817,
      "ĠMamata": 5818,
      "Ġwhite": 5819,
      "ĠHard": 5820,
      "ĠElect": 5821,
      "rival": 5822,
      "ĠMPs": 5823,
      "Ġrestrict": 5824,
      "Ġweight": 5825,
      "Ġchance": 5826,
      "Ġhappening": 5827,
      "Addressing": 5828,
      "Ġreforms": 5829,
      "Tal": 5830,
      "Ġfort": 5831,
      "ults": 5832,
      "Ġpromoting": 5833,
      "ĠMessenger": 5834,
      "Se": 5835,
      "oli": 5836,
      "Ġrising": 5837,
      "Ġinvestors": 5838,
      "Ġvideos": 5839,
      "Ġnearby": 5840,
      "Ġeducational": 5841,
      "About": 5842,
      "Pre": 5843,
      "has": 5844,
      "ĠJew": 5845,
      "Ġunique": 5846,
      "ĠStand": 5847,
      "Ġadvis": 5848,
      "God": 5849,
      "Ġtask": 5850,
      "ĠMoses": 5851,
      "hesh": 5852,
      "Ġtransp": 5853,
      "Ġballs": 5854,
      "Ġversion": 5855,
      "Ġx": 5856,
      "oto": 5857,
      "ĠJoint": 5858,
      "Ġfiring": 5859,
      "Ġdownload": 5860,
      "Ġsacrif": 5861,
      "Actor": 5862,
      "Ġoverall": 5863,
      "Ġcountrys": 5864,
      "Ġhelps": 5865,
      "Ġhistoric": 5866,
      "\\\"\"": 5867,
      "ingh": 5868,
      "iders": 5869,
      "verse": 5870,
      "Ġ128": 5871,
      "Ġcomplex": 5872,
      "Ġtests": 5873,
      "Ġthinking": 5874,
      "Ġorganisations": 5875,
      "Ġequipment": 5876,
      "Ne": 5877,
      "Ġcold": 5878,
      "ĠRo": 5879,
      "abled": 5880,
      "oke": 5881,
      "Ġ39": 5882,
      "assad": 5883,
      "Ġpowerful": 5884,
      "Ġdoesnt": 5885,
      "Salman": 5886,
      "Ġsun": 5887,
      "Ġcovered": 5888,
      "ĠBombay": 5889,
      "ĠTele": 5890,
      "iveness": 5891,
      "Ġskill": 5892,
      "Ġdebt": 5893,
      "overty": 5894,
      "Phone": 5895,
      "Maharashtra": 5896,
      "SD": 5897,
      "ĠPetro": 5898,
      "Ġconvey": 5899,
      "ĠNations": 5900,
      "Ġseems": 5901,
      "urely": 5902,
      "Ġkil": 5903,
      "Ġrose": 5904,
      "Ġassault": 5905,
      "Ġcolleges": 5906,
      "ĠChaud": 5907,
      "Su": 5908,
      "bre": 5909,
      "Ġwealth": 5910,
      "Ġcomputer": 5911,
      "Ġwriting": 5912,
      "ĠReserve": 5913,
      "ysis": 5914,
      "Ġrespective": 5915,
      "ĠAyodhya": 5916,
      "Ġcongratulated": 5917,
      "ĠVerma": 5918,
      "ĠLadakh": 5919,
      "ĠRashtrapati": 5920,
      "yn": 5921,
      "rehens": 5922,
      "enant": 5923,
      "Ġdign": 5924,
      "ĠSuresh": 5925,
      "ĠAnn": 5926,
      "ĠSecret": 5927,
      "Ġdemands": 5928,
      "Punjab": 5929,
      "National": 5930,
      "Sec": 5931,
      "Ġawards": 5932,
      "Ġmist": 5933,
      "Ġmemor": 5934,
      "Ġlines": 5935,
      "ĠCal": 5936,
      "Ġcancer": 5937,
      "Ġdestroyed": 5938,
      "En": 5939,
      "pat": 5940,
      "ĠHous": 5941,
      "Ġrecovery": 5942,
      "Ġinjury": 5943,
      "Ġsymb": 5944,
      "ĠHindus": 5945,
      "Ġdivision": 5946,
      "Ġsanction": 5947,
      "ĠII": 5948,
      "Ġmanufacture": 5949,
      "Ġpowers": 5950,
      "May": 5951,
      "uild": 5952,
      "ĠGra": 5953,
      "Ġdelivery": 5954,
      "Ġpractices": 5955,
      "Ġcongregation": 5956,
      "Ġconstituted": 5957,
      "65": 5958,
      "Yes": 5959,
      "gra": 5960,
      "Ġfigh": 5961,
      "Ġbear": 5962,
      "phy": 5963,
      "Ġcalling": 5964,
      "Ġoccup": 5965,
      "Ġanimals": 5966,
      "Ġleaving": 5967,
      "Ġfamous": 5968,
      "OS": 5969,
      "ground": 5970,
      "keep": 5971,
      "Ġaf": 5972,
      "ĠSharif": 5973,
      "Ġoperational": 5974,
      "Ġnewsp": 5975,
      "ĠRanveer": 5976,
      "Ġcomprising": 5977,
      "Ġbalance": 5978,
      "Ġwat": 5979,
      "ounder": 5980,
      "Ġ2007": 5981,
      "Ġbroke": 5982,
      "Ġsuggested": 5983,
      "Ġsize": 5984,
      "Ġconst": 5985,
      "Ġgovt": 5986,
      "ĠAnushka": 5987,
      "Ġbenefici": 5988,
      "ourage": 5989,
      "San": 5990,
      "athan": 5991,
      "ales": 5992,
      "ĠItal": 5993,
      "ĠGul": 5994,
      "Ġpatient": 5995,
      "Ġprayer": 5996,
      "ĠTelugu": 5997,
      "Ġdepartments": 5998,
      "Rel": 5999,
      "Ġoath": 6000,
      "ĠBrah": 6001,
      "ĠKings": 6002,
      "Ġaspects": 6003,
      "Ġcomfort": 6004,
      "ĠEastern": 6005,
      "obile": 6006,
      "Ġbanking": 6007,
      "Ġsisters": 6008,
      "Ġwaiting": 6009,
      "48": 6010,
      "member": 6011,
      "shi": 6012,
      "ĠManipur": 6013,
      "Ġdeclined": 6014,
      "Ġdiplom": 6015,
      "Ġinstitution": 6016,
      "ĠAT": 6017,
      "Ġamid": 6018,
      "ĠDevi": 6019,
      "Ġchem": 6020,
      "Ġwitnessed": 6021,
      "ĠSwaraj": 6022,
      "Ġbehavi": 6023,
      "Ġsn": 6024,
      "asan": 6025,
      "Ġdeeds": 6026,
      "ĠFound": 6027,
      "Ġagricultural": 6028,
      "ĠIncome": 6029,
      "tainment": 6030,
      "Ġfeed": 6031,
      "Ġannouncement": 6032,
      "ĠSecond": 6033,
      "Ġrecommended": 6034,
      "Ġpurchase": 6035,
      "aq": 6036,
      "Ġult": 6037,
      "Ġapart": 6038,
      "Ġpa": 6039,
      "urre": 6040,
      "Ġconcept": 6041,
      "ĠNote": 6042,
      "Ġsup": 6043,
      "Ġdoctor": 6044,
      "Ġspend": 6045,
      "ĠGlobal": 6046,
      "Ġstakeholders": 6047,
      "Ġdisbelie": 6048,
      "maker": 6049,
      "Ġdark": 6050,
      "Ġmilk": 6051,
      "Ġitems": 6052,
      "Ġquoted": 6053,
      "Ġphones": 6054,
      "ĠEnvironment": 6055,
      "Ġresolve": 6056,
      "Ġstrategic": 6057,
      "Ġfellow": 6058,
      "Ġtroops": 6059,
      "Ġsleep": 6060,
      "ĠIns": 6061,
      "Ġadding": 6062,
      "ĠCommun": 6063,
      "Ġconcerns": 6064,
      "aranasi": 6065,
      "Ġdefeat": 6066,
      "ĠCB": 6067,
      "izations": 6068,
      "Ġ55": 6069,
      "Minister": 6070,
      "nov": 6071,
      "yl": 6072,
      "ĠSud": 6073,
      "Ġkn": 6074,
      "Ġdesire": 6075,
      "fficient": 6076,
      "ĠYoga": 6077,
      "ĠSushant": 6078,
      "ĠSpeaker": 6079,
      "ĠProgramme": 6080,
      "RE": 6081,
      "mosp": 6082,
      "reg": 6083,
      "Ġnar": 6084,
      "ĠFire": 6085,
      "Ġcompensation": 6086,
      "Ġtherein": 6087,
      "Ġ42": 6088,
      "ĠManoj": 6089,
      "ĠTemple": 6090,
      "West": 6091,
      "Ġtree": 6092,
      "Ġfit": 6093,
      "hans": 6094,
      "ression": 6095,
      "Ġjoy": 6096,
      "Ġunion": 6097,
      "Ġattract": 6098,
      "Ġwrite": 6099,
      "Ġsustained": 6100,
      "Ġwelcome": 6101,
      "37": 6102,
      "Because": 6103,
      "Eng": 6104,
      "RI": 6105,
      "Ġseed": 6106,
      "anta": 6107,
      "ĠEle": 6108,
      "Ġroll": 6109,
      "Ġlooks": 6110,
      "Ġprocessor": 6111,
      "grim": 6112,
      "Ġplanned": 6113,
      "ĠMedia": 6114,
      "Ġvoters": 6115,
      "Ġideas": 6116,
      "Ġinfluence": 6117,
      "Ġappointment": 6118,
      "Ġinternet": 6119,
      "Ġmere": 6120,
      "ĠNDA": 6121,
      "owerment": 6122,
      "Ġsett": 6123,
      "Ġdefend": 6124,
      "Ġpolitic": 6125,
      "Ġadvance": 6126,
      "ĠJoshi": 6127,
      "Ġschol": 6128,
      "Ġstre": 6129,
      "ĠWith": 6130,
      "apore": 6131,
      "Ġtechnologies": 6132,
      "Ġsolar": 6133,
      "inton": 6134,
      "Ġemergency": 6135,
      "Ġdrugs": 6136,
      "ĠDas": 6137,
      "Ġacting": 6138,
      "Ġfinally": 6139,
      "Ġcurren": 6140,
      "Ġveget": 6141,
      "Ġreportedly": 6142,
      "Ġindustries": 6143,
      "Ġassociation": 6144,
      "hal": 6145,
      "ĠMi": 6146,
      "ĠPay": 6147,
      "earing": 6148,
      "ĠSaf": 6149,
      "Ġsomet": 6150,
      "forcement": 6151,
      "Ġconstituencies": 6152,
      "Current": 6153,
      "UP": 6154,
      "lal": 6155,
      "uj": 6156,
      "uit": 6157,
      "Ġec": 6158,
      "uti": 6159,
      "Ġcontext": 6160,
      "Ġenable": 6161,
      "Ġuser": 6162,
      "Ġprem": 6163,
      "ĠRead": 6164,
      "Ġensuring": 6165,
      "ĠReport": 6166,
      "Ġabsol": 6167,
      "ography": 6168,
      "ĠCapital": 6169,
      "hir": 6170,
      "oute": 6171,
      "Ġrout": 6172,
      "ureau": 6173,
      "grad": 6174,
      "Ġidentity": 6175,
      "Ġelig": 6176,
      "Ġcounsel": 6177,
      "ashington": 6178,
      "Cl": 6179,
      "Dire": 6180,
      "ĠMemor": 6181,
      "ĠRak": 6182,
      "Ġasking": 6183,
      "osite": 6184,
      "ĠHuman": 6185,
      "ĠLab": 6186,
      "elled": 6187,
      "icals": 6188,
      "Ġscen": 6189,
      "Ġoperating": 6190,
      "Ġlonger": 6191,
      "Ġadvant": 6192,
      "itizen": 6193,
      "raham": 6194,
      "Ass": 6195,
      "lease": 6196,
      "ĠAjit": 6197,
      "ĠKareena": 6198,
      "Ġafford": 6199,
      "Ġenhance": 6200,
      "Ġutil": 6201,
      "hek": 6202,
      "Ġdual": 6203,
      "aina": 6204,
      "section": 6205,
      "ocal": 6206,
      "ĠED": 6207,
      "Ġoverse": 6208,
      "Ġdecades": 6209,
      "Ġminutes": 6210,
      "Ġrecords": 6211,
      "Ġbatting": 6212,
      "ĠRussian": 6213,
      "Ġprofessional": 6214,
      "CM": 6215,
      "arwal": 6216,
      "ster": 6217,
      "Ġexports": 6218,
      "Ġusually": 6219,
      "ĠGovern": 6220,
      "ength": 6221,
      "Ġorganization": 6222,
      "Ġengaged": 6223,
      "Ġfields": 6224,
      "ĠModis": 6225,
      "Ġdiscipl": 6226,
      "Out": 6227,
      "fer": 6228,
      "rants": 6229,
      "Ġactions": 6230,
      "arant": 6231,
      "ĠSnap": 6232,
      "ĠMember": 6233,
      "ifty": 6234,
      "Ġadequ": 6235,
      "Ġfeet": 6236,
      "Ġhighly": 6237,
      "Ġcrude": 6238,
      "Ġmilitants": 6239,
      "Shi": 6240,
      "Ġpit": 6241,
      "Ġdiver": 6242,
      "unch": 6243,
      "ĠGan": 6244,
      "Ġscam": 6245,
      "Ġfarm": 6246,
      "Ġglob": 6247,
      "ĠTeam": 6248,
      "Ġjudges": 6249,
      "Ġquestioned": 6250,
      "ĠAustralian": 6251,
      "Ġcontesting": 6252,
      "Ġdiseases": 6253,
      "intendent": 6254,
      "ĠPetroleum": 6255,
      "CO": 6256,
      "preet": 6257,
      "ĠFirst": 6258,
      "Ġshut": 6259,
      "Ġclearly": 6260,
      "Ġharass": 6261,
      "ĠShankar": 6262,
      "Will": 6263,
      "rina": 6264,
      "Ġmos": 6265,
      "Ġnotes": 6266,
      "Ġbelief": 6267,
      "ockey": 6268,
      "Ġindex": 6269,
      "Ġdefeated": 6270,
      "isher": 6271,
      "ĠSA": 6272,
      "Ġnab": 6273,
      "uting": 6274,
      "Ġaltern": 6275,
      "abilities": 6276,
      "ĠUp": 6277,
      "thern": 6278,
      "Ġscene": 6279,
      "lick": 6280,
      "ĠRaf": 6281,
      "ĠKamal": 6282,
      "Ġfacilitate": 6283,
      "Priyanka": 6284,
      "like": 6285,
      "esters": 6286,
      "ĠSay": 6287,
      "ĠBudd": 6288,
      "Ġsuc": 6289,
      "Ġstatements": 6290,
      "ĠProp": 6291,
      "Ġamongst": 6292,
      "Ġinfection": 6293,
      "ICI": 6294,
      "Ġrecommendations": 6295,
      "Ġtelevision": 6296,
      "Ġsteel": 6297,
      "ĠDivision": 6298,
      "ĠAcad": 6299,
      "Rep": 6300,
      "nagar": 6301,
      "right": 6302,
      "Ġcult": 6303,
      "ĠIndira": 6304,
      "Ġexact": 6305,
      "htar": 6306,
      "ciples": 6307,
      "Ġwindow": 6308,
      "ĠSteel": 6309,
      "28": 6310,
      "bal": 6311,
      "pet": 6312,
      "uz": 6313,
      "irperson": 6314,
      "ĠWestern": 6315,
      "ĠCourts": 6316,
      "Ġdeputy": 6317,
      "Ġpromised": 6318,
      "Ġimproved": 6319,
      "IPL": 6320,
      "ĠRavi": 6321,
      "Ġrupee": 6322,
      "ĠSummit": 6323,
      "navis": 6324,
      "Ġ#": 6325,
      "ancing": 6326,
      "level": 6327,
      "Ġrenew": 6328,
      "Ġrelatives": 6329,
      "Ġskills": 6330,
      "ĠAlia": 6331,
      "Ġreturns": 6332,
      "Ġperformed": 6333,
      "ĠTerrit": 6334,
      "ĠGalaxy": 6335,
      "Home": 6336,
      "NA": 6337,
      "gen": 6338,
      "Ġintend": 6339,
      "adnavis": 6340,
      "Ġplants": 6341,
      "Ġjaw": 6342,
      "Ġmedium": 6343,
      "Allah": 6344,
      "Ġcommunities": 6345,
      "Ġbegun": 6346,
      "akshi": 6347,
      "ruitment": 6348,
      "Ġinnovation": 6349,
      "Ġnamely": 6350,
      "Austral": 6351,
      "cious": 6352,
      "heast": 6353,
      "outhern": 6354,
      "usal": 6355,
      "Ġexpenditure": 6356,
      "ĠYear": 6357,
      "Ġserving": 6358,
      "Chand": 6359,
      "ĠJudge": 6360,
      "Ġconnectivity": 6361,
      "Ġmemory": 6362,
      "09": 6363,
      "uing": 6364,
      "Ġgram": 6365,
      "ĠNir": 6366,
      "ĠTi": 6367,
      "ĠAng": 6368,
      "ĠBharti": 6369,
      "Ġprominent": 6370,
      "prises": 6371,
      "Ġdelive": 6372,
      "idden": 6373,
      "Ġcollaboration": 6374,
      "Ġcas": 6375,
      "ĠSenior": 6376,
      "Ġatmosp": 6377,
      "Ġcompon": 6378,
      "oval": 6379,
      "ĠRanbir": 6380,
      "Ġdamaged": 6381,
      "Ġtransferred": 6382,
      "Ġstraight": 6383,
      "Ġoccurred": 6384,
      "55": 6385,
      "mal": 6386,
      "Ġid": 6387,
      "isition": 6388,
      "Ġdu": 6389,
      "Ġreference": 6390,
      "Ġprove": 6391,
      "Ġdetailed": 6392,
      "Ġconnected": 6393,
      "hishek": 6394,
      "29": 6395,
      "33": 6396,
      "night": 6397,
      "ĠAM": 6398,
      "eless": 6399,
      "etic": 6400,
      "ĠChouhan": 6401,
      "ĠGoogle": 6402,
      "ĠMahe": 6403,
      "ĠSaudi": 6404,
      "ĠForest": 6405,
      "gaon": 6406,
      "Ġthousands": 6407,
      "Ġsucceed": 6408,
      "49": 6409,
      "board": 6410,
      "Ġeth": 6411,
      "ĠPen": 6412,
      "Ġconstructed": 6413,
      "was": 6414,
      "amin": 6415,
      "ĠMalik": 6416,
      "Ġscientists": 6417,
      "Ġgathering": 6418,
      "Bh": 6419,
      "ĠAmendment": 6420,
      "istans": 6421,
      "Ġroute": 6422,
      "Ġ400": 6423,
      "ception": 6424,
      "Ġmode": 6425,
      "Ġmeasure": 6426,
      "Ġchallenging": 6427,
      "Ġwelcom": 6428,
      "Before": 6429,
      "den": 6430,
      "Ġlie": 6431,
      "rap": 6432,
      "ework": 6433,
      "Ġprincipal": 6434,
      "inistries": 6435,
      "maz": 6436,
      "Ġfollows": 6437,
      "Ġprevail": 6438,
      "Ġdesigned": 6439,
      "Ġspokesman": 6440,
      "Ġdelivered": 6441,
      "do": 6442,
      "wing": 6443,
      "inema": 6444,
      "ilos": 6445,
      "Ġgang": 6446,
      "harth": 6447,
      "ĠFa": 6448,
      "ava": 6449,
      "Ġcorrect": 6450,
      "Ġpossess": 6451,
      "IMS": 6452,
      "Ġrequirements": 6453,
      "Ġweapons": 6454,
      "ĠFoundation": 6455,
      "27": 6456,
      "Ġwise": 6457,
      "ĠSen": 6458,
      "ĠRiver": 6459,
      "using": 6460,
      "chang": 6461,
      "gend": 6462,
      "Ġflights": 6463,
      "ĠMahar": 6464,
      "ĠAssist": 6465,
      "Ġvisiting": 6466,
      "ĠFinancial": 6467,
      "ĠCompany": 6468,
      "Ġpowered": 6469,
      "Ġneighbour": 6470,
      "ET": 6471,
      "Ġmental": 6472,
      "ĠAre": 6473,
      "cha": 6474,
      "ĠPrincipal": 6475,
      "ĠStation": 6476,
      "Ġarm": 6477,
      "Ġregions": 6478,
      "Ġteach": 6479,
      "Ġbusy": 6480,
      "gypt": 6481,
      "ĠRawat": 6482,
      "ĠNawaz": 6483,
      "son": 6484,
      "Ġdram": 6485,
      "Ġmas": 6486,
      "ĠBa": 6487,
      "Ġkids": 6488,
      "hank": 6489,
      "eph": 6490,
      "ĠVaranasi": 6491,
      "Ġdoor": 6492,
      "Ġ65": 6493,
      "Ġsubstant": 6494,
      "Ġcharged": 6495,
      "Ġlawyer": 6496,
      "Ġpromotion": 6497,
      "ensex": 6498,
      "Ġinvolve": 6499,
      "Ġconducting": 6500,
      "Ġcontroversy": 6501,
      "Hence": 6502,
      "Mar": 6503,
      "mod": 6504,
      "atures": 6505,
      "Ġfill": 6506,
      "Ġhor": 6507,
      "ĠBel": 6508,
      "umer": 6509,
      "ĠWord": 6510,
      "ctoral": 6511,
      "ĠYour": 6512,
      "Ġmechanism": 6513,
      "?\"\"\"": 6514,
      "PR": 6515,
      "Ġcaught": 6516,
      "Ġ47": 6517,
      "riti": 6518,
      "Ġopposed": 6519,
      "Ġreflect": 6520,
      "Ġimproving": 6521,
      "Ġmutual": 6522,
      "rehensive": 6523,
      "Last": 6524,
      "match": 6525,
      "sApp": 6526,
      "Ġaid": 6527,
      "arian": 6528,
      "Theres": 6529,
      "imal": 6530,
      "ĠDub": 6531,
      "Ġstanding": 6532,
      "Ġdebate": 6533,
      "ĠWhite": 6534,
      "Ġresignation": 6535,
      "Ġfraud": 6536,
      "DS": 6537,
      "First": 6538,
      "friend": 6539,
      "Ġmarty": 6540,
      "ests": 6541,
      "ĠJer": 6542,
      "Ġclause": 6543,
      "Ġfiling": 6544,
      "Ġdiscl": 6545,
      "Ġfaces": 6546,
      "ĠExam": 6547,
      "Ġheadquarters": 6548,
      "Ġfalls": 6549,
      "assador": 6550,
      "DM": 6551,
      "Son": 6552,
      "mad": 6553,
      "Ġ>": 6554,
      "ashes": 6555,
      "icate": 6556,
      "ĠAwards": 6557,
      "ĠIIT": 6558,
      "ĠPS": 6559,
      "ĠNot": 6560,
      "ĠFrench": 6561,
      "ruits": 6562,
      "ĠSingapore": 6563,
      "Ġyourself": 6564,
      "khil": 6565,
      "38": 6566,
      "wama": 6567,
      "ĠSaif": 6568,
      "Ġsolid": 6569,
      "dden": 6570,
      "Ġcaste": 6571,
      "ĠReliance": 6572,
      "Ġelder": 6573,
      "Ġfruit": 6574,
      "ĠSant": 6575,
      "Ġeast": 6576,
      "Ġconven": 6577,
      "Ġselection": 6578,
      "Ġmeant": 6579,
      "Ġhealthcare": 6580,
      "Ġadvice": 6581,
      "Ġskin": 6582,
      "Ġstrongly": 6583,
      "ĠMahindra": 6584,
      "ĠShetty": 6585,
      "Ġadopted": 6586,
      "awahar": 6587,
      "Ġsamples": 6588,
      "'ve": 6589,
      "Air": 6590,
      "Hind": 6591,
      "Ġlived": 6592,
      "Ġload": 6593,
      "ĠDil": 6594,
      "Ġjudgment": 6595,
      "ĠShivraj": 6596,
      "Ġfaithful": 6597,
      "Ġphotos": 6598,
      "dragon": 6599,
      "Ġscientific": 6600,
      "Dep": 6601,
      "Ġfake": 6602,
      "ĠBureau": 6603,
      "raq": 6604,
      "Ġalert": 6605,
      "ĠTurk": 6606,
      "ĠWhen": 6607,
      "ĠShak": 6608,
      "Ġremove": 6609,
      "Ġsecure": 6610,
      "pective": 6611,
      "Ġhappens": 6612,
      "amsung": 6613,
      "ĠSmith": 6614,
      "Ġengineering": 6615,
      "ĠDemoc": 6616,
      "ĠSnapdragon": 6617,
      "Ġatmosphere": 6618,
      "Cor": 6619,
      "Dont": 6620,
      "zil": 6621,
      "inner": 6622,
      "Ġliber": 6623,
      "Ġexcl": 6624,
      "Ġ54": 6625,
      "Ġwonder": 6626,
      "--": 6627,
      "Ġreb": 6628,
      "Ġlength": 6629,
      "enses": 6630,
      "ĠSharad": 6631,
      "Ġretail": 6632,
      "Ġsurface": 6633,
      "Ġdemanding": 6634,
      "ĠCanada": 6635,
      "Ġapostle": 6636,
      "Ġcancelled": 6637,
      "ĠNirmala": 6638,
      "Ran": 6639,
      "Yet": 6640,
      "Ġdance": 6641,
      "uris": 6642,
      "Ġkid": 6643,
      "Ġpassing": 6644,
      "Ġshowing": 6645,
      "Ġeasily": 6646,
      "ĠiPhone": 6647,
      "Ġpilgrim": 6648,
      "eer": 6649,
      "lig": 6650,
      "ww": 6651,
      "ĠAut": 6652,
      "imb": 6653,
      "iment": 6654,
      "ĠDar": 6655,
      "ĠFadnavis": 6656,
      "Though": 6657,
      "ansk": 6658,
      "Ġunknown": 6659,
      "Ġchoice": 6660,
      "Ġvari": 6661,
      "Ġsupporting": 6662,
      "Ġalongside": 6663,
      "Ġpossession": 6664,
      "Ġparticipants": 6665,
      "Ġwalk": 6666,
      "Ġgovernance": 6667,
      "Are": 6668,
      "MT": 6669,
      "Ġband": 6670,
      "ĠAp": 6671,
      "Ġgard": 6672,
      "ĠYouth": 6673,
      "itendra": 6674,
      "Ġedition": 6675,
      "ĠAgree": 6676,
      "Ġpurposes": 6677,
      "Ġlabour": 6678,
      "Rohit": 6679,
      "nels": 6680,
      "Ġcul": 6681,
      "Ġproof": 6682,
      "Ġweb": 6683,
      "Ġpeoples": 6684,
      "oga": 6685,
      "Ġdischar": 6686,
      "Ġchannel": 6687,
      "Ġapprox": 6688,
      "Ġleaves": 6689,
      "Ġprinciples": 6690,
      "gov": 6691,
      "ĠGas": 6692,
      "ĠJohar": 6693,
      "ĠUSD": 6694,
      "ĠHighways": 6695,
      "ĠPulwama": 6696,
      "oes": 6697,
      "rison": 6698,
      "Ġwins": 6699,
      "olic": 6700,
      "ĠKhar": 6701,
      "ĠLO": 6702,
      "Ġsettle": 6703,
      "ĠParliamentary": 6704,
      "Ġcontribute": 6705,
      "Ġyouths": 6706,
      "Ġtypes": 6707,
      ".'": 6708,
      "39": 6709,
      "ij": 6710,
      "pre": 6711,
      "Ġtoss": 6712,
      "Ġmale": 6713,
      "Ġascer": 6714,
      "ĠJust": 6715,
      "ruck": 6716,
      "Ġoffices": 6717,
      "Ġprinc": 6718,
      "Indias": 6719,
      "ĠTrade": 6720,
      "tenance": 6721,
      "ĠLead": 6722,
      "ĠQur": 6723,
      "ĠMoU": 6724,
      "Ġsummit": 6725,
      "ĠKaif": 6726,
      "05": 6727,
      "DC": 6728,
      "Ġpie": 6729,
      "Ġpoverty": 6730,
      "ĠSard": 6731,
      "ĠSang": 6732,
      "ĠCS": 6733,
      "ĠDin": 6734,
      "ĠDutt": 6735,
      "Ġability": 6736,
      "Ġtransform": 6737,
      "Ġwarning": 6738,
      "Ġappreciated": 6739,
      "Ġprocurement": 6740,
      "Ġhour": 6741,
      "urg": 6742,
      "ĠKnow": 6743,
      "Ġconver": 6744,
      "Ġundergoing": 6745,
      "ghal": 6746,
      "ĠMohammed": 6747,
      "Ġprayers": 6748,
      "Ġaudience": 6749,
      "Ġdialogue": 6750,
      "32": 6751,
      "Amit": 6752,
      "Ram": 6753,
      "cked": 6754,
      "pass": 6755,
      "icip": 6756,
      "ĠMunicipal": 6757,
      "haw": 6758,
      "Ġshop": 6759,
      "Ġimag": 6760,
      "Ġheritage": 6761,
      "Ġtrail": 6762,
      "Ġpassenger": 6763,
      "Ġsurround": 6764,
      "elsius": 6765,
      "Ġdivided": 6766,
      "Ġstrengthening": 6767,
      "Ġmagn": 6768,
      "Ġcrucial": 6769,
      "mazon": 6770,
      "ĠMost": 6771,
      "ĠThat": 6772,
      "ĠVardhan": 6773,
      "Ġscript": 6774,
      "Ġchanging": 6775,
      "ĠScript": 6776,
      "Ġsuccessfully": 6777,
      "Everyone": 6778,
      "Ġpenalty": 6779,
      "ĠOlympic": 6780,
      "Ġsometimes": 6781,
      "Virat": 6782,
      "fit": 6783,
      "Ġloved": 6784,
      "ĠPeople": 6785,
      "osen": 6786,
      "ĠOb": 6787,
      "ĠStaff": 6788,
      "Ġcrops": 6789,
      "Ġsentence": 6790,
      "Ġdeliber": 6791,
      "porary": 6792,
      "ourses": 6793,
      "ĠAirport": 6794,
      "Ġtrees": 6795,
      "Ġrivers": 6796,
      "ĠPeter": 6797,
      "Ġfrequ": 6798,
      "ĠAccount": 6799,
      "Ġsustainable": 6800,
      "Ġsport": 6801,
      "Ġcars": 6802,
      "asp": 6803,
      "Ġnut": 6804,
      "Ġprosec": 6805,
      "Ġperman": 6806,
      "rivate": 6807,
      "Ġlisten": 6808,
      "100": 6809,
      "See": 6810,
      "dev": 6811,
      "erring": 6812,
      "orge": 6813,
      "Ġhom": 6814,
      "ĠMic": 6815,
      "ĠBr": 6816,
      "ĠBroad": 6817,
      "owed": 6818,
      "ria": 6819,
      "Ġwilling": 6820,
      "soon": 6821,
      "ĠEgypt": 6822,
      "ĠBJPs": 6823,
      "ĠBhopal": 6824,
      "Ġprocessing": 6825,
      "Ġcomplaints": 6826,
      "ĠMeet": 6827,
      "Ġfundament": 6828,
      "Ġselfie": 6829,
      "ĠMSME": 6830,
      "Ġdollar": 6831,
      "Currently": 6832,
      "08": 6833,
      "64": 6834,
      "Read": 6835,
      "Shar": 6836,
      "long": 6837,
      "rer": 6838,
      "erate": 6839,
      "Ġcode": 6840,
      "ĠSir": 6841,
      "ĠMaj": 6842,
      "ĠKab": 6843,
      "ials": 6844,
      "Ġnovel": 6845,
      "Ġequity": 6846,
      "ua": 6847,
      "Ġpension": 6848,
      "ĠST": 6849,
      "ĠHere": 6850,
      "ĠFather": 6851,
      "hane": 6852,
      "Ġintelligence": 6853,
      "weh": 6854,
      "Ġdistance": 6855,
      "Ġpossibility": 6856,
      "ĠAzad": 6857,
      "ĠSociety": 6858,
      "Ġslogans": 6859,
      "asa": 6860,
      "ibilities": 6861,
      "Ġourselves": 6862,
      "Ġconsideration": 6863,
      "ĠJagran": 6864,
      "Ġearned": 6865,
      "Ġadequate": 6866,
      "lot": 6867,
      "Ġgat": 6868,
      "ĠNH": 6869,
      "issions": 6870,
      "Ġspoken": 6871,
      "Ġspecified": 6872,
      "Ġportal": 6873,
      "Ġcauses": 6874,
      "ĠDesk": 6875,
      "Ġlinked": 6876,
      "ĠPress": 6877,
      "uses": 6878,
      "ĠJio": 6879,
      "ĠStat": 6880,
      "ĠProv": 6881,
      "Once": 6882,
      "Ġinvestigations": 6883,
      "ĠSpace": 6884,
      "Ġeye": 6885,
      "Ġappealed": 6886,
      "AY": 6887,
      "Deep": 6888,
      "GST": 6889,
      "oram": 6890,
      "ĠIr": 6891,
      "eline": 6892,
      "Ġstress": 6893,
      "abi": 6894,
      "ĠTim": 6895,
      "Ġtend": 6896,
      "ĠSupp": 6897,
      "ĠJaipur": 6898,
      "ĠCRPF": 6899,
      "Mus": 6900,
      "Ġwild": 6901,
      "ĠCelsius": 6902,
      "ĠDhan": 6903,
      "ĠKir": 6904,
      "Ġconsequ": 6905,
      "Ġsky": 6906,
      "Ġaims": 6907,
      "Ġerror": 6908,
      "Ġassessment": 6909,
      "ĠAmarinder": 6910,
      "CBI": 6911,
      "lin": 6912,
      "Ġtaught": 6913,
      "Ġaw": 6914,
      "ĠMetro": 6915,
      "ĠRJD": 6916,
      "una": 6917,
      "ahweh": 6918,
      "ĠReal": 6919,
      "Ġproperties": 6920,
      "ief": 6921,
      "Ġsort": 6922,
      "Ġtoward": 6923,
      "ĠSukh": 6924,
      "ĠDec": 6925,
      "isted": 6926,
      "ĠJam": 6927,
      "aja": 6928,
      "Ġguide": 6929,
      "ĠAbraham": 6930,
      "anguly": 6931,
      "Ġmethod": 6932,
      "Ġparliamentary": 6933,
      "Ġeligible": 6934,
      "34": 6935,
      "Around": 6936,
      "eum": 6937,
      "pa": 6938,
      "itect": 6939,
      "Ġbird": 6940,
      "room": 6941,
      "etrol": 6942,
      "ĠBand": 6943,
      "ĠJi": 6944,
      "Ġshowc": 6945,
      "election": 6946,
      "Ġmovies": 6947,
      "ĠSahib": 6948,
      "Ġexpert": 6949,
      "Ġspecies": 6950,
      "Ġbegins": 6951,
      "Recently": 6952,
      "Ġmillions": 6953,
      "Ġbeneficiaries": 6954,
      "Bihar": 6955,
      "Have": 6956,
      "Int": 6957,
      "PG": 6958,
      "hot": 6959,
      "Ġfought": 6960,
      "ĠMark": 6961,
      "Ġep": 6962,
      "ĠNifty": 6963,
      "hajan": 6964,
      "Ġsudden": 6965,
      "ĠLo": 6966,
      "ĠEmp": 6967,
      "Ġdisput": 6968,
      "Ġchosen": 6969,
      "Ġ51": 6970,
      "Ġconcerning": 6971,
      "Ġundertaken": 6972,
      "Ġsoftware": 6973,
      "Ġwelcomed": 6974,
      "OC": 6975,
      "kes": 6976,
      "roll": 6977,
      "Ġforced": 6978,
      "cean": 6979,
      "ĠGar": 6980,
      "ĠGovt": 6981,
      "okes": 6982,
      "Ġperfect": 6983,
      "Ġunity": 6984,
      "Ġinteresting": 6985,
      "ĠAmbani": 6986,
      "Ġdismissed": 6987,
      "67": 6988,
      "ipped": 6989,
      "kim": 6990,
      "mpt": 6991,
      "Ġ\\\"\"": 6992,
      "Ġbranch": 6993,
      "Ġment": 6994,
      "urved": 6995,
      "ĠRah": 6996,
      "ĠRules": 6997,
      "ĠHC": 6998,
      "Ġperhaps": 6999,
      "Ġquant": 7000,
      "Ġacts": 7001,
      "Ġavailability": 7002,
      "Ġinstall": 7003,
      "Ġanaly": 7004,
      "ĠOlympics": 7005,
      "ĠOrganisation": 7006,
      "Ġrepeated": 7007,
      "Ġmotorcy": 7008,
      "Ġcurrency": 7009,
      "AB": 7010,
      "Due": 7011,
      "IF": 7012,
      "nu": 7013,
      "ĠAtal": 7014,
      "igen": 7015,
      "ĠRajesh": 7016,
      "Ġflu": 7017,
      "Ġvillagers": 7018,
      "Ġprotesters": 7019,
      "Ġfriendly": 7020,
      "Ġsolutions": 7021,
      "Ġdevices": 7022,
      "erciful": 7023,
      "Ġdrinking": 7024,
      "Ġstruggle": 7025,
      "anskrit": 7026,
      "Mo": 7027,
      "jection": 7028,
      "utta": 7029,
      "istrate": 7030,
      "ĠHam": 7031,
      "Ġfiles": 7032,
      "Ġproved": 7033,
      "Although": 7034,
      "Ġmaintained": 7035,
      "Ġsatell": 7036,
      "ĠArunachal": 7037,
      "Ġboys": 7038,
      "ĠPremi": 7039,
      "casting": 7040,
      "Ġbridge": 7041,
      ".\"\"": 7042,
      "Ġcra": 7043,
      "Ġgrief": 7044,
      "Ġaspir": 7045,
      "Ġvital": 7046,
      "ivek": 7047,
      "Ġclub": 7048,
      "Ġconspir": 7049,
      "Ġmainly": 7050,
      "ifying": 7051,
      "Ġsugar": 7052,
      "ĠIndustrial": 7053,
      "Ġbanned": 7054,
      "Ġangels": 7055,
      "ki": 7056,
      "rine": 7057,
      "Ġship": 7058,
      "ĠIraq": 7059,
      "teran": 7060,
      "Ġgoals": 7061,
      "ifications": 7062,
      "Ġguided": 7063,
      "Ġformal": 7064,
      "Ġfeeling": 7065,
      "Ġbelongs": 7066,
      "Ġclosely": 7067,
      "Ġfulfill": 7068,
      "iyush": 7069,
      "Ġterritory": 7070,
      "Ġreservo": 7071,
      "Ġinspired": 7072,
      "Ġcitizen": 7073,
      "ĠAad": 7074,
      "ĠOper": 7075,
      "ensus": 7076,
      "Ġcooper": 7077,
      "Ġdirections": 7078,
      "ĠMahesh": 7079,
      "Ġlarger": 7080,
      "Ġextent": 7081,
      "Ġprivile": 7082,
      "ĠSmt": 7083,
      "autam": 7084,
      "Ġjournalist": 7085,
      "Ġbaby": 7086,
      "ĠChaudhary": 7087,
      "urrection": 7088,
      "Ġpace": 7089,
      "ĠMary": 7090,
      "ande": 7091,
      "ĠNRC": 7092,
      "Ġplus": 7093,
      "cont": 7094,
      "Ġexamples": 7095,
      "Ġsituated": 7096,
      "Ġliterature": 7097,
      "Os": 7098,
      "pter": 7099,
      "xic": 7100,
      "Ġfed": 7101,
      "Ġlose": 7102,
      "ĠFestival": 7103,
      "Ġwhereas": 7104,
      "Ġeffici": 7105,
      "Ġschedule": 7106,
      "Ġparticipating": 7107,
      "Ġinstalled": 7108,
      "ĠDirectorate": 7109,
      "aksha": 7110,
      "ĠFederation": 7111,
      "had": 7112,
      "ingu": 7113,
      "utin": 7114,
      "uties": 7115,
      "ĠRic": 7116,
      "Ġ2022": 7117,
      "ĠPrat": 7118,
      "ĠRajk": 7119,
      "ounded": 7120,
      "Ġassum": 7121,
      "Ġnumer": 7122,
      "Ġapproached": 7123,
      "Ġbrand": 7124,
      "Ġmaterials": 7125,
      "Ġgathered": 7126,
      "],": 7127,
      "Ġwont": 7128,
      "Ġbomb": 7129,
      "ĠCount": 7130,
      "haz": 7131,
      "Ġworst": 7132,
      "ĠOf": 7133,
      "Ġarms": 7134,
      "Ġ43": 7135,
      "Ġcrop": 7136,
      "Ġinvestments": 7137,
      "Ġopposite": 7138,
      "Ġstories": 7139,
      "Ġreduction": 7140,
      "Ġdistributed": 7141,
      "ĠAbdul": 7142,
      "ĠLORD": 7143,
      "Ag": 7144,
      "Ġcourage": 7145,
      "itely": 7146,
      "cts": 7147,
      "harm": 7148,
      "ĠWarn": 7149,
      "Ġtheme": 7150,
      "Ġoutstanding": 7151,
      "2017": 7152,
      "Ġcompletion": 7153,
      "ĠCitizenship": 7154,
      "aly": 7155,
      "Ġdated": 7156,
      "Ġdriving": 7157,
      "Ġunless": 7158,
      "Ġarmed": 7159,
      "reek": 7160,
      "ĠDevendra": 7161,
      "Ġfeels": 7162,
      "Ġchannels": 7163,
      "ĠAllahabad": 7164,
      "Ġtruly": 7165,
      "Ġruled": 7166,
      "ĠSwach": 7167,
      "ĠSciences": 7168,
      "Ġresigned": 7169,
      "ĠTiwari": 7170,
      "Cons": 7171,
      "cel": 7172,
      "iar": 7173,
      "Ġhur": 7174,
      "Ġdia": 7175,
      "Ġspect": 7176,
      "atio": 7177,
      "Ġindependence": 7178,
      "Ġteacher": 7179,
      "ĠKuldeep": 7180,
      "ĠSidhu": 7181,
      "Ġprocedure": 7182,
      "Ġacademic": 7183,
      "Shiv": 7184,
      "urisdict": 7185,
      "Jesus": 7186,
      "tel": 7187,
      "onic": 7188,
      "rogation": 7189,
      "ĠMarsh": 7190,
      "Ġ2000": 7191,
      "ĠJames": 7192,
      "ĠEarth": 7193,
      "Ġcenturies": 7194,
      "aduate": 7195,
      "Ġwarned": 7196,
      "Ġsongs": 7197,
      "Ġcopy": 7198,
      "eras": 7199,
      "Ġsad": 7200,
      "Ġpointed": 7201,
      "Ġtoler": 7202,
      "ĠID": 7203,
      "usted": 7204,
      "Ġpolicemen": 7205,
      "Ġclash": 7206,
      "Ġshel": 7207,
      "Ġtransl": 7208,
      "Ġreading": 7209,
      "Ġinterested": 7210,
      "ĠICICI": 7211,
      "payee": 7212,
      "ĠRos": 7213,
      "ĠTimes": 7214,
      "ĠInstitut": 7215,
      "Ġ46": 7216,
      "Ġmyself": 7217,
      "Ġhelping": 7218,
      "Ġtransactions": 7219,
      "ĠShahid": 7220,
      "ĠAbhishek": 7221,
      "Ġimprovement": 7222,
      "ertiliz": 7223,
      "Haryana": 7224,
      "rations": 7225,
      "orter": 7226,
      "ĠMer": 7227,
      "ĠPo": 7228,
      "Ġalthough": 7229,
      "Ġselect": 7230,
      "Ġinteract": 7231,
      "ĠExec": 7232,
      "Ġappears": 7233,
      "ĠKann": 7234,
      "ĠODIs": 7235,
      "ĠDeepak": 7236,
      "Ġadopt": 7237,
      "Ġdetermined": 7238,
      "Ġhumans": 7239,
      "Farmers": 7240,
      "hin": 7241,
      "anj": 7242,
      "ĠAar": 7243,
      "Ġhero": 7244,
      "aves": 7245,
      "Ġteaching": 7246,
      "cheduled": 7247,
      "Ġgreatest": 7248,
      "95": 7249,
      "Just": 7250,
      "TE": 7251,
      "endra": 7252,
      "ĠSah": 7253,
      "Ġstable": 7254,
      "othing": 7255,
      "otees": 7256,
      "ridor": 7257,
      "ĠAhmad": 7258,
      "Ġrequirement": 7259,
      "Despite": 7260,
      "ĠLegislative": 7261,
      "Ġpremises": 7262,
      "85": 7263,
      "Five": 7264,
      "gent": 7265,
      "jud": 7266,
      "adhav": 7267,
      "ĠTy": 7268,
      "ĠEnt": 7269,
      "Ġremark": 7270,
      "ĠBhushan": 7271,
      "Ġconfirm": 7272,
      "ĠTrust": 7273,
      "ĠTej": 7274,
      "Ġyounger": 7275,
      "Ġadministrative": 7276,
      "Ġcategories": 7277,
      "Sa": 7278,
      "ĠRad": 7279,
      "ĠGDP": 7280,
      "ĠKi": 7281,
      "ĠKot": 7282,
      "ĠEl": 7283,
      "Ġproducer": 7284,
      "ashtriya": 7285,
      "Ġwriter": 7286,
      "Ġwinners": 7287,
      "Ġplane": 7288,
      "Ġinstance": 7289,
      "Ġprepare": 7290,
      "Ġgenerally": 7291,
      "ĠHDFC": 7292,
      "ĠDiwali": 7293,
      "ĠAamir": 7294,
      "aling": 7295,
      "Ġcomprehensive": 7296,
      "orders": 7297,
      "Ġgrad": 7298,
      "Ġapplicable": 7299,
      "Ġtribal": 7300,
      "Ġsubstantial": 7301,
      "Moh": 7302,
      "aria": 7303,
      "Ġthats": 7304,
      "Ġconstitution": 7305,
      "Ġsaved": 7306,
      "Ġven": 7307,
      "ĠProte": 7308,
      "ĠForces": 7309,
      "Ġvoting": 7310,
      "Ġemerged": 7311,
      "Ġuniversities": 7312,
      "Ġcum": 7313,
      "Ġfest": 7314,
      "ĠSad": 7315,
      "ĠCrore": 7316,
      "utely": 7317,
      "iaomi": 7318,
      "ĠJal": 7319,
      "Ġrum": 7320,
      "ĠLakh": 7321,
      "Ġintens": 7322,
      "Ġthereafter": 7323,
      "Ġquit": 7324,
      "Ġformation": 7325,
      "ĠAgency": 7326,
      "ĠGuru": 7327,
      "Ġreaching": 7328,
      "Ġmotiv": 7329,
      "DRF": 7330,
      "uff": 7331,
      "Ġinput": 7332,
      "Ġlabor": 7333,
      "Ġforget": 7334,
      "ĠGanguly": 7335,
      "Ġlear": 7336,
      "Ġphilos": 7337,
      "Ġentrepreneurs": 7338,
      "Ġhandle": 7339,
      "Ġbroken": 7340,
      "ĠTests": 7341,
      "Ġadvantage": 7342,
      "Each": 7343,
      "Sm": 7344,
      "UN": 7345,
      "eor": 7346,
      "Ġfruits": 7347,
      "oles": 7348,
      "ĠIndore": 7349,
      "ĠJNU": 7350,
      "ĠOil": 7351,
      "Ġapplied": 7352,
      "Ġ52": 7353,
      "ups": 7354,
      "Ġcollected": 7355,
      "ĠRanjan": 7356,
      "ĠMarket": 7357,
      "Ġfunctioning": 7358,
      "ĠBlack": 7359,
      "ĠSushma": 7360,
      "ĠIndependence": 7361,
      "ĠAcademy": 7362,
      "Ġlearnt": 7363,
      "Singh": 7364,
      "Ġcouncil": 7365,
      "Ġrevel": 7366,
      "ĠMur": 7367,
      "ĠPiyush": 7368,
      "aren": 7369,
      "Ġimprison": 7370,
      "Ġseeing": 7371,
      "ĠExchange": 7372,
      "ĠWhatsApp": 7373,
      "Ġbagged": 7374,
      "44": 7375,
      "OL": 7376,
      "Wor": 7377,
      "Ġwest": 7378,
      "Ġmort": 7379,
      "akar": 7380,
      "ĠGard": 7381,
      "ĠJitendra": 7382,
      "ĠVaj": 7383,
      "Ġoffence": 7384,
      "Ġsoil": 7385,
      "Ġnewly": 7386,
      "Ġrequires": 7387,
      "Ġrefuge": 7388,
      "Ġinspir": 7389,
      "Ġfailure": 7390,
      "ĠNoida": 7391,
      "Ġdemocratic": 7392,
      "ĠValley": 7393,
      "Ġadvocate": 7394,
      "khilesh": 7395,
      "AE": 7396,
      "Ġfurn": 7397,
      "ĠSara": 7398,
      "ander": 7399,
      "Ġconcl": 7400,
      "Ġconstitutional": 7401,
      "umber": 7402,
      "ails": 7403,
      "ĠStadium": 7404,
      "Ġdecre": 7405,
      "Ġrace": 7406,
      "ĠCentres": 7407,
      "Ġinflation": 7408,
      "Ġcameras": 7409,
      "Ġcelebrate": 7410,
      "Ġfacts": 7411,
      "Ġhotel": 7412,
      "captain": 7413,
      "xy": 7414,
      "ĠRen": 7415,
      "Ġstressed": 7416,
      "ukla": 7417,
      "Ġlocations": 7418,
      "Ġfollowers": 7419,
      "Ġclasses": 7420,
      "Ġexpression": 7421,
      "Ġanimal": 7422,
      "Tra": 7423,
      "Ġtank": 7424,
      "Ġstyle": 7425,
      "Ġheat": 7426,
      "Ġdeter": 7427,
      "ĠIndones": 7428,
      "ĠHel": 7429,
      "ĠHaz": 7430,
      "ĠEst": 7431,
      "Ġelements": 7432,
      "Ġfloor": 7433,
      "Ġstarts": 7434,
      "Ġfriendship": 7435,
      "Ġrepresented": 7436,
      "Ġbowling": 7437,
      "ĠJoseph": 7438,
      "ĠTripura": 7439,
      "Ġpraise": 7440,
      "Ġgreetings": 7441,
      "Ġsacrifice": 7442,
      "awaharlal": 7443,
      "ĠAgreement": 7444,
      "Ġiron": 7445,
      "ishi": 7446,
      "Ġnotified": 7447,
      "Ġincor": 7448,
      "ĠVir": 7449,
      "ĠChat": 7450,
      "athy": 7451,
      "Ġrecover": 7452,
      "Ġ56": 7453,
      "Ġfinished": 7454,
      "Ġeffic": 7455,
      "rives": 7456,
      "Ġmaintenance": 7457,
      "Ġheads": 7458,
      "Ġlearned": 7459,
      "Ġcitizenship": 7460,
      "Ġreplace": 7461,
      "Ġquickly": 7462,
      "Ġexcellent": 7463,
      "urisdiction": 7464,
      "MR": 7465,
      "lights": 7466,
      "uja": 7467,
      "Ġelim": 7468,
      "ĠTan": 7469,
      "Ġadvert": 7470,
      "ĠPrice": 7471,
      "Ġpregn": 7472,
      "Ġfarmer": 7473,
      "Ġemotion": 7474,
      "Ġorganizations": 7475,
      "Ġconflict": 7476,
      "Ġlisted": 7477,
      "Ġplease": 7478,
      "ddhav": 7479,
      "Ġfigures": 7480,
      "Jammu": 7481,
      "Ġwestern": 7482,
      "ĠSBI": 7483,
      "igil": 7484,
      "Ġconsec": 7485,
      "redit": 7486,
      "Indeed": 7487,
      "Ġobey": 7488,
      "iscal": 7489,
      "Ġcorporate": 7490,
      "ritsar": 7491,
      "77": 7492,
      "nan": 7493,
      "Ġpapers": 7494,
      "Ġduties": 7495,
      "ĠSil": 7496,
      "ĠMarat": 7497,
      "Ġjun": 7498,
      "aving": 7499,
      "Ġdistin": 7500,
      "Ġhighway": 7501,
      "Ġretire": 7502,
      "Ġdoesn": 7503,
      "Ġmishap": 7504,
      "venth": 7505,
      "ĠArabia": 7506,
      "Ġfigure": 7507,
      "ĠWilli": 7508,
      "Ġpermanent": 7509,
      "Karnataka": 7510,
      "roc": 7511,
      "ĠMax": 7512,
      "ĠPur": 7513,
      "ĠBhat": 7514,
      "ansion": 7515,
      "ĠStud": 7516,
      "Ġraising": 7517,
      "Ġadvanced": 7518,
      "ĠMotor": 7519,
      "ĠEngineering": 7520,
      "ĠHousing": 7521,
      "Australia": 7522,
      "Ġconspiracy": 7523,
      "Ġreservoirs": 7524,
      "CH": 7525,
      "FI": 7526,
      "Take": 7527,
      "gi": 7528,
      "Ġmaster": 7529,
      "ĠRef": 7530,
      "Ġcontains": 7531,
      "Ġharmony": 7532,
      "Ġhighlighted": 7533,
      "from": 7534,
      "rigation": 7535,
      "Ġpiv": 7536,
      "Ġtough": 7537,
      "iced": 7538,
      "ĠSanskrit": 7539,
      "ĠCy": 7540,
      "ĠChe": 7541,
      "Ġalt": 7542,
      "ĠDel": 7543,
      "oda": 7544,
      "ĠGautam": 7545,
      "ĠTro": 7546,
      "hard": 7547,
      "ĠVivek": 7548,
      "oves": 7549,
      "phones": 7550,
      "Ġviolation": 7551,
      "Ġhonoured": 7552,
      "bedkar": 7553,
      "ĠTraining": 7554,
      "Ġwisdom": 7555,
      "Ġconcluded": 7556,
      "General": 7557,
      "ĠMs": 7558,
      "ĠIM": 7559,
      "iri": 7560,
      "Ġstream": 7561,
      "ĠNan": 7562,
      "Ġleads": 7563,
      "Ġ250": 7564,
      "Ġfunctions": 7565,
      "Ġbelonging": 7566,
      "ĠKatrina": 7567,
      "ĠBrazil": 7568,
      "ĠSikkim": 7569,
      "ĠSardar": 7570,
      "jar": 7571,
      "Ġnorthern": 7572,
      "raid": 7573,
      "ĠNatural": 7574,
      "Ġexceed": 7575,
      "Ġwheat": 7576,
      "ĠYahweh": 7577,
      "Ġ2006": 7578,
      "Ġfactors": 7579,
      "ĠMalays": 7580,
      "Ġwitnesses": 7581,
      "Ġpattern": 7582,
      "Ġwidely": 7583,
      "uilding": 7584,
      "ĠMahendra": 7585,
      "hash": 7586,
      "uhan": 7587,
      "Ġ<": 7588,
      "itors": 7589,
      "Ġdates": 7590,
      "Ġforb": 7591,
      "Ġstruct": 7592,
      "Ġexternal": 7593,
      "ĠWhy": 7594,
      "Ġfootball": 7595,
      "ĠBadal": 7596,
      "ĠCPI": 7597,
      "ĠVarun": 7598,
      "Ġsanctioned": 7599,
      "ĠPremier": 7600,
      "01": 7601,
      "04": 7602,
      "IG": 7603,
      "Nob": 7604,
      "edy": 7605,
      "alam": 7606,
      "Ġhang": 7607,
      "lex": 7608,
      "Ġloving": 7609,
      "rav": 7610,
      "Ġdisaster": 7611,
      "Ġrelative": 7612,
      "Ġremand": 7613,
      "Ġsubsequently": 7614,
      "Ġ2005": 7615,
      "Ġbelieves": 7616,
      "ĠMehta": 7617,
      "Ġfathers": 7618,
      "Ġeastern": 7619,
      "Ġsuffer": 7620,
      "Ġconsumer": 7621,
      "Ġnegoti": 7622,
      "ĠDisaster": 7623,
      "Ġdischarged": 7624,
      "Offic": 7625,
      "Ġ120": 7626,
      "ĠVill": 7627,
      "izoram": 7628,
      "Ġprescribed": 7629,
      "Ġvalu": 7630,
      "Ġpercentage": 7631,
      "Ġverily": 7632,
      "Ġcelebrations": 7633,
      "Ġconvict": 7634,
      "Ġconvention": 7635,
      "addha": 7636,
      "ĠAkhtar": 7637,
      "Ġthanked": 7638,
      "Ġhistorical": 7639,
      "Ġgriev": 7640,
      "SR": 7641,
      "yers": 7642,
      "eta": 7643,
      "andum": 7644,
      "ateful": 7645,
      "Ġsemi": 7646,
      "aces": 7647,
      "Ġunve": 7648,
      "Ġeffects": 7649,
      "ĠSatan": 7650,
      "Ġphotograph": 7651,
      "Ġfundamental": 7652,
      "ĠExecutive": 7653,
      "06": 7654,
      "Cent": 7655,
      "Uttar": 7656,
      "cles": 7657,
      "Ġselling": 7658,
      "Ġcow": 7659,
      "ĠCard": 7660,
      "ĠBigg": 7661,
      "ĠEV": 7662,
      "inda": 7663,
      "ibly": 7664,
      "Ġguarant": 7665,
      "ĠBhut": 7666,
      "struction": 7667,
      "Ġdecline": 7668,
      "ĠSea": 7669,
      "Ġelectronic": 7670,
      "Ġplatforms": 7671,
      "Ġcells": 7672,
      "ĠVikas": 7673,
      "Ġframework": 7674,
      "ĠDigital": 7675,
      "Ġarchitect": 7676,
      "Ġscholars": 7677,
      "ĠRafale": 7678,
      "Ġtheat": 7679,
      "Ġindu": 7680,
      "Ġath": 7681,
      "ĠShukla": 7682,
      "2020": 7683,
      "ĠExcell": 7684,
      "Ġbowler": 7685,
      "Ġreviewed": 7686,
      "Ġkingdom": 7687,
      "Ġcinema": 7688,
      "Ġgovernor": 7689,
      "Ġregime": 7690,
      "Ġ41": 7691,
      "Ġpresently": 7692,
      "ĠManish": 7693,
      "inking": 7694,
      "ussain": 7695,
      "Ġowner": 7696,
      "Ġlands": 7697,
      "Ġexplos": 7698,
      "Ġsensitive": 7699,
      "Ġtravelling": 7700,
      "Ġabscond": 7701,
      "Ġjointly": 7702,
      "Ġchoose": 7703,
      "Ġcertificate": 7704,
      "Ġtrailer": 7705,
      "Ġpivotal": 7706,
      "ĠSandeep": 7707,
      "ĠPas": 7708,
      "ĠKaus": 7709,
      "hari": 7710,
      "Ġjump": 7711,
      "ĠInnov": 7712,
      "ildren": 7713,
      "Ġattitude": 7714,
      "Ġtemples": 7715,
      "Ġpeaceful": 7716,
      "Ġreducing": 7717,
      "Ġcausing": 7718,
      "Ġmissile": 7719,
      "Ġinstructions": 7720,
      "Ġfulfilled": 7721,
      "Ġexpanded": 7722,
      "ĠAbdullah": 7723,
      "Ġfighter": 7724,
      "NS": 7725,
      "Well": 7726,
      "ĠAj": 7727,
      "aying": 7728,
      "Ġstability": 7729,
      "Ġhair": 7730,
      "Ġratio": 7731,
      "ĠLife": 7732,
      "ĠChak": 7733,
      "Ġuses": 7734,
      "Ġ57": 7735,
      "Ġtrained": 7736,
      "Ġexped": 7737,
      "ĠAdvani": 7738,
      "Ġtrouble": 7739,
      "Talking": 7740,
      "Per": 7741,
      "ipt": 7742,
      "yas": 7743,
      "ĠIAF": 7744,
      "ĠRash": 7745,
      "Ġstorm": 7746,
      "Ġaspect": 7747,
      "ĠHarsh": 7748,
      "ĠJain": 7749,
      "Ġallot": 7750,
      "ĠInternet": 7751,
      "Ġenth": 7752,
      "Ġinvestigated": 7753,
      "Ġthoughts": 7754,
      "ĠNarayan": 7755,
      "ĠProphet": 7756,
      "Amendment": 7757,
      "Vi": 7758,
      "president": 7759,
      "Ġ?": 7760,
      "iring": 7761,
      "Ġstead": 7762,
      "ĠHa": 7763,
      "oked": 7764,
      "Ġimpl": 7765,
      "Ġuns": 7766,
      "ĠShim": 7767,
      "Ġprint": 7768,
      "ieties": 7769,
      "Ġquestioning": 7770,
      "Ġdivide": 7771,
      "Ġaimed": 7772,
      "Ġwithdraw": 7773,
      "Ġsymbol": 7774,
      "Ġcasual": 7775,
      "07": 7776,
      "ENT": 7777,
      "Rem": 7778,
      "aiah": 7779,
      "Ġwake": 7780,
      "Ġcoin": 7781,
      "itime": 7782,
      "Ġpicked": 7783,
      "ĠCulture": 7784,
      "Ġalive": 7785,
      "orted": 7786,
      "Ġworshi": 7787,
      "Ġcompar": 7788,
      "Ġenemy": 7789,
      "adekar": 7790,
      "Ġanywhere": 7791,
      "Ġcommence": 7792,
      "Ġentit": 7793,
      "rown": 7794,
      "uki": 7795,
      "Ġbrings": 7796,
      "Ġformat": 7797,
      "Ġowners": 7798,
      "ĠResources": 7799,
      "2016": 7800,
      "Ġinvolving": 7801,
      "Ġexplain": 7802,
      "Ġcondemned": 7803,
      "Ġdangerous": 7804,
      "Ġafraid": 7805,
      "Ġwicked": 7806,
      "ĠNS": 7807,
      "Ġ58": 7808,
      "awati": 7809,
      "ĠShr": 7810,
      "Ġsites": 7811,
      "Ġpromises": 7812,
      "Ġ2004": 7813,
      "Ġmodels": 7814,
      "Any": 7815,
      "Ġactivists": 7816,
      "Ġsixth": 7817,
      "ĠCooperation": 7818,
      "Ġresearc": 7819,
      "Ġhousing": 7820,
      "Ġestablishment": 7821,
      "Ġvaccine": 7822,
      "Ġdropped": 7823,
      "ĠCAA": 7824,
      "ĠRakesh": 7825,
      "%.": 7826,
      "Keep": 7827,
      "Up": 7828,
      "eav": 7829,
      "gs": 7830,
      "oom": 7831,
      "west": 7832,
      "Ġcore": 7833,
      "Ġhike": 7834,
      "that": 7835,
      "Ġrice": 7836,
      "apse": 7837,
      "tees": 7838,
      "Ġpride": 7839,
      "Ġlocation": 7840,
      "Ġsimply": 7841,
      "Ġtwice": 7842,
      "Please": 7843,
      "Reg": 7844,
      "Ġhat": 7845,
      "Ġmal": 7846,
      "ĠSMS": 7847,
      "ĠPG": 7848,
      "ĠPuri": 7849,
      "oly": 7850,
      "Ġstore": 7851,
      "Ġshops": 7852,
      "ĠArora": 7853,
      "ehlot": 7854,
      "Ġsets": 7855,
      "Ġconsidering": 7856,
      "Ġinteg": 7857,
      "Ġillust": 7858,
      "Ġanalysis": 7859,
      "Ġmachine": 7860,
      "Ġprinciple": 7861,
      "?\"": 7862,
      "cre": 7863,
      "kart": 7864,
      "eria": 7865,
      "isan": 7866,
      "Ġcourses": 7867,
      "Ġmix": 7868,
      "Ġyield": 7869,
      "ĠTMC": 7870,
      "ĠJun": 7871,
      "Ġmanaging": 7872,
      "Ġmanager": 7873,
      "Ġprovince": 7874,
      "ĠProcess": 7875,
      "wala": 7876,
      "ronics": 7877,
      "Ġmessages": 7878,
      "Ġdeeply": 7879,
      "Ġmethods": 7880,
      "68": 7881,
      "Jehovah": 7882,
      "MK": 7883,
      "bo": 7884,
      "oration": 7885,
      "Ġfix": 7886,
      "ĠMT": 7887,
      "Ġisnt": 7888,
      "ĠAmazon": 7889,
      "ola": 7890,
      "ĠGor": 7891,
      "ĠIndo": 7892,
      "Ġjurisdiction": 7893,
      "Ġclin": 7894,
      "Ġsupporters": 7895,
      "ĠAgra": 7896,
      "hattar": 7897,
      "Ġtourists": 7898,
      "Ġobserv": 7899,
      "Ġcovering": 7900,
      "Ġblessings": 7901,
      "Ġprosperity": 7902,
      "ba": 7903,
      "upe": 7904,
      "Ġsnow": 7905,
      "Ġfiscal": 7906,
      "ĠSim": 7907,
      "ĠMake": 7908,
      "Ġsufficient": 7909,
      "anti": 7910,
      "ellow": 7911,
      "Asked": 7912,
      "Ġdepth": 7913,
      "Ġextension": 7914,
      "ĠNaval": 7915,
      "ĠPanch": 7916,
      "Ġresolved": 7917,
      "ĠMukesh": 7918,
      "Ġnorms": 7919,
      "Ġconsumption": 7920,
      "Ġhyd": 7921,
      "Ġexperienced": 7922,
      "ĠItaly": 7923,
      "43": 7924,
      "46": 7925,
      "IV": 7926,
      "ture": 7927,
      "Ġfounder": 7928,
      "aked": 7929,
      "ĠEk": 7930,
      "Ġoutl": 7931,
      "ashion": 7932,
      "umble": 7933,
      "ĠPatil": 7934,
      "Ġallows": 7935,
      "Ġlabou": 7936,
      "Ġthanks": 7937,
      "Rajasthan": 7938,
      "Ġregularly": 7939,
      "Ġprobably": 7940,
      "lipkart": 7941,
      "ĠChildren": 7942,
      "ĠGrand": 7943,
      "Ġconsecutive": 7944,
      "RS": 7945,
      "Ġwives": 7946,
      "Ġfilled": 7947,
      "ĠPoll": 7948,
      "ĠGre": 7949,
      "quake": 7950,
      "ocking": 7951,
      "eft": 7952,
      "Ġunable": 7953,
      "Ġunbel": 7954,
      "Ġthereof": 7955,
      "Ġconscious": 7956,
      "Ġtermed": 7957,
      "Ġcapable": 7958,
      "Ġdiscount": 7959,
      "thew": 7960,
      "kaiah": 7961,
      "Ġpanchayat": 7962,
      "ĠInvestigation": 7963,
      "Ġintegral": 7964,
      "lead": 7965,
      "iments": 7966,
      "Ġhect": 7967,
      "ĠGopal": 7968,
      "ĠHussain": 7969,
      "Ġuncle": 7970,
      "Ġarbit": 7971,
      "assion": 7972,
      "Ġ68": 7973,
      "Ġ72": 7974,
      "Ġbron": 7975,
      "Ġcharging": 7976,
      "appy": 7977,
      "iciary": 7978,
      "ĠCaptain": 7979,
      "chell": 7980,
      "Plus": 7981,
      "Gujarat": 7982,
      "ĠLabour": 7983,
      "inating": 7984,
      "Ġsick": 7985,
      "ĠMang": 7986,
      "ĠGaur": 7987,
      "ĠJadhav": 7988,
      "Ġjew": 7989,
      "Ġamaz": 7990,
      "luding": 7991,
      "Ġforever": 7992,
      "Ġexplained": 7993,
      "Ġemerging": 7994,
      "adda": 7995,
      "Ġachievements": 7996,
      "Moreover": 7997,
      "Ġconstantly": 7998,
      "Ġsettled": 7999,
      "usalem": 8000,
      "Ġnumerous": 8001,
      "eorological": 8002,
      "Nobody": 8003,
      "Sush": 8004,
      "aution": 8005,
      "Ġpush": 8006,
      "Ġfan": 8007,
      "Ġbed": 8008,
      "asc": 8009,
      "ĠCell": 8010,
      "ching": 8011,
      "rier": 8012,
      "ĠGreen": 8013,
      "abu": 8014,
      "ĠLaksh": 8015,
      "Ġlegend": 8016,
      "ĠVa": 8017,
      "Ġintention": 8018,
      "Ġworksh": 8019,
      "Ġdescrib": 8020,
      "Ġtalked": 8021,
      "Ġfavor": 8022,
      "Ġescape": 8023,
      "ĠSindhu": 8024,
      "England": 8025,
      "salm": 8026,
      "Ġbott": 8027,
      "ellect": 8028,
      "ĠGog": 8029,
      "Ġresist": 8030,
      "Ġarg": 8031,
      "Thereafter": 8032,
      "Ġwherein": 8033,
      "ĠOfficers": 8034,
      "ĠRoyal": 8035,
      "Trump": 8036,
      "ĠSkill": 8037,
      "Ġrestrictions": 8038,
      "Bigg": 8039,
      "NL": 8040,
      "Petrol": 8041,
      "South": 8042,
      "lis": 8043,
      "Ġdraft": 8044,
      "ĠAviation": 8045,
      "ĠChow": 8046,
      "Ġfirms": 8047,
      "weets": 8048,
      "Ġsetup": 8049,
      "Ġdifferences": 8050,
      "ĠAgarwal": 8051,
      "Ġprize": 8052,
      "Ġrevised": 8053,
      "ĠAfrican": 8054,
      "Ġsuggestions": 8055,
      "Ġabsence": 8056,
      "visional": 8057,
      "Ġacquisition": 8058,
      "Ġcoalition": 8059,
      "ĠAdministration": 8060,
      "Ġmargin": 8061,
      "ghalaya": 8062,
      "''": 8063,
      "98": 8064,
      "Ġcry": 8065,
      "arations": 8066,
      "ĠRashtriya": 8067,
      "ĠBet": 8068,
      "Ġstruck": 8069,
      "andi": 8070,
      "Ġwasnt": 8071,
      "Ġsuit": 8072,
      "Ġalloc": 8073,
      "Ġwearing": 8074,
      "Ġacknow": 8075,
      "Ġsecondary": 8076,
      "Ġkinds": 8077,
      "ĠSurvey": 8078,
      "Cha": 8079,
      "Ġ@": 8080,
      "Ġsessions": 8081,
      "ario": 8082,
      "Ġtot": 8083,
      "ulam": 8084,
      "ĠGehlot": 8085,
      "herry": 8086,
      "Ġconservation": 8087,
      "Ġphases": 8088,
      "Ġsympt": 8089,
      "Ġresulted": 8090,
      "Ġequipped": 8091,
      "Along": 8092,
      "Ġbuildings": 8093,
      "rators": 8094,
      "Ġhonest": 8095,
      "Ġdeny": 8096,
      "Ġmagaz": 8097,
      "Ġinitially": 8098,
      "ĠSecondary": 8099,
      "Ref": 8100,
      "Ġnod": 8101,
      "Ġnav": 8102,
      "Ġgift": 8103,
      "Ġvisits": 8104,
      "Ġendeav": 8105,
      "Ġbeneficial": 8106,
      "Ġbowlers": 8107,
      "Ġmedicines": 8108,
      "works": 8109,
      "break": 8110,
      "ĠRoshan": 8111,
      "LA": 8112,
      "kg": 8113,
      "yam": 8114,
      "Ġbid": 8115,
      "Ġconce": 8116,
      "ĠIndeed": 8117,
      "ĠUddhav": 8118,
      "ĠWashington": 8119,
      "Heavy": 8120,
      "Ġthereby": 8121,
      "Ġmedals": 8122,
      "Ġpostp": 8123,
      "aughter": 8124,
      "Ġaccidents": 8125,
      "Ġburden": 8126,
      "Ġpilot": 8127,
      "keeper": 8128,
      "ĠJerusalem": 8129,
      "'ll": 8130,
      "mas": 8131,
      "icks": 8132,
      "Ġlad": 8133,
      "osure": 8134,
      "ĠTeh": 8135,
      "ĠChin": 8136,
      "ĠStudents": 8137,
      "ĠCommon": 8138,
      "Ġspotted": 8139,
      "Ġgrounds": 8140,
      "ĠDevgn": 8141,
      "Ġmandatory": 8142,
      "NC": 8143,
      "Ġdrop": 8144,
      "Ġmouth": 8145,
      "ĠMen": 8146,
      "otton": 8147,
      "osis": 8148,
      "ĠTHE": 8149,
      "ishad": 8150,
      "Ġ53": 8151,
      "Ġindigen": 8152,
      "Ġexpansion": 8153,
      "Ġobvious": 8154,
      "ĠAdam": 8155,
      "Ġbuses": 8156,
      "Ġconstruct": 8157,
      "ĠMuz": 8158,
      "ĠFarmers": 8159,
      "Ġunfortun": 8160,
      "Ġwaters": 8161,
      "tra": 8162,
      "Ġcov": 8163,
      "urities": 8164,
      "ĠProm": 8165,
      "ĠNG": 8166,
      "ĠWatch": 8167,
      "Ġdisrupt": 8168,
      "Ġrelation": 8169,
      "ribution": 8170,
      "Ġdiscrim": 8171,
      "Ġinteraction": 8172,
      "ushman": 8173,
      "Ġretired": 8174,
      "Ġattending": 8175,
      "2018": 8176,
      "Ġolder": 8177,
      "Ġlosses": 8178,
      "Ġnominated": 8179,
      "Ġfelicit": 8180,
      "Ġbatsmen": 8181,
      "ĠMatthew": 8182,
      "picious": 8183,
      "sych": 8184,
      "ĠANI": 8185,
      "NB": 8186,
      "VP": 8187,
      "Ġ)": 8188,
      "Ġtouc": 8189,
      "ĠSet": 8190,
      "ĠMizoram": 8191,
      "Ġlosing": 8192,
      "acific": 8193,
      "Ġagend": 8194,
      "Ġimper": 8195,
      "Ġchain": 8196,
      "ĠKhanna": 8197,
      "ĠHindust": 8198,
      "Ġputting": 8199,
      "Ġsuspected": 8200,
      "Ġdifficulties": 8201,
      "Ġachievement": 8202,
      "Ġapolog": 8203,
      "Ġexception": 8204,
      "Ġgenerations": 8205,
      "Ġintegrity": 8206,
      "ĠSamajwadi": 8207,
      "ĠTrophy": 8208,
      "Le": 8209,
      "life": 8210,
      "rum": 8211,
      "rates": 8212,
      "uters": 8213,
      "rers": 8214,
      "Ġmotion": 8215,
      "ĠScheduled": 8216,
      "ĠMun": 8217,
      "ĠMicro": 8218,
      "ĠAay": 8219,
      "Ġvast": 8220,
      "itions": 8221,
      "iban": 8222,
      "Ġgrew": 8223,
      "Ġtrend": 8224,
      "Ġpreviously": 8225,
      "Ġdrawn": 8226,
      "Ġcomprises": 8227,
      "ĠAditya": 8228,
      "ĠInsurance": 8229,
      "Don": 8230,
      "Total": 8231,
      "dess": 8232,
      "egr": 8233,
      "Ġwall": 8234,
      "Ġpal": 8235,
      "Ġease": 8236,
      "ĠAv": 8237,
      "Ġexchang": 8238,
      "lihood": 8239,
      "ĠChall": 8240,
      "Ġsole": 8241,
      "Ġannounce": 8242,
      "ilitation": 8243,
      "Ġdevotees": 8244,
      "ĠSwami": 8245,
      "Ġtells": 8246,
      "Ġbrain": 8247,
      "Ġconsumers": 8248,
      "ĠInfrastructure": 8249,
      "ĠPakistans": 8250,
      "Ġnewspaper": 8251,
      "Ġefficiency": 8252,
      "ĠVajpayee": 8253,
      "Ġbronze": 8254,
      "Section": 8255,
      "dh": 8256,
      "fl": 8257,
      "ĠJack": 8258,
      "Ġ59": 8259,
      "Ġseeks": 8260,
      "Ġreturning": 8261,
      "ĠChris": 8262,
      "Ġcampus": 8263,
      "Ġcalc": 8264,
      "ĠJavadekar": 8265,
      "Ġdisbelieve": 8266,
      "Ġalternative": 8267,
      "ĠBuddh": 8268,
      "31": 8269,
      "HA": 8270,
      "SI": 8271,
      "Var": 8272,
      "coh": 8273,
      "makers": 8274,
      "will": 8275,
      "wah": 8276,
      "Ġpill": 8277,
      "ĠMyan": 8278,
      "ĠRights": 8279,
      "odia": 8280,
      "Ġconcent": 8281,
      "Ġapparent": 8282,
      "Ġcloud": 8283,
      "Ġremind": 8284,
      "ampur": 8285,
      "Ġreplied": 8286,
      "Ġmarketing": 8287,
      "Ġadmission": 8288,
      "Ġstronger": 8289,
      "Ġsearching": 8290,
      "ĠNagaland": 8291,
      "Ġventure": 8292,
      "Ġabsolutely": 8293,
      "ĠDinesh": 8294,
      "das": 8295,
      "lines": 8296,
      "want": 8297,
      "Ġtear": 8298,
      "Ġsouthern": 8299,
      "Ġcook": 8300,
      "ĠAkhilesh": 8301,
      "ortheast": 8302,
      "acing": 8303,
      "Ġreserved": 8304,
      "Ġrecruitment": 8305,
      "Ġ78": 8306,
      "Ġlocals": 8307,
      "Ġvariety": 8308,
      "Ġinspe": 8309,
      "Ġprophe": 8310,
      "Ġeventually": 8311,
      "Ġfalling": 8312,
      "Ġtelecom": 8313,
      "Ġaccompl": 8314,
      "Ġintegrated": 8315,
      "Ġfloods": 8316,
      "Ġhundreds": 8317,
      "Ġcondolences": 8318,
      "Co": 8319,
      "Hy": 8320,
      "just": 8321,
      "inar": 8322,
      "askar": 8323,
      "Ġhung": 8324,
      "ĠMembers": 8325,
      "elt": 8326,
      "ĠBag": 8327,
      "ĠDesh": 8328,
      "identified": 8329,
      "Ġherself": 8330,
      "lication": 8331,
      "Ġproducing": 8332,
      "onda": 8333,
      "riends": 8334,
      "Ġdelight": 8335,
      "Ġpayments": 8336,
      "Ġsinger": 8337,
      "Ġcompetitive": 8338,
      "Ġrecognised": 8339,
      "ĠJapanese": 8340,
      "Ġcounterpart": 8341,
      "ĠAIIMS": 8342,
      "Ġaccordance": 8343,
      "Americ": 8344,
      "Akshay": 8345,
      "Bang": 8346,
      "Ġrom": 8347,
      "Ġcraft": 8348,
      "iland": 8349,
      "adise": 8350,
      "Ġgar": 8351,
      "ĠGram": 8352,
      "ĠAmritsar": 8353,
      "ĠXI": 8354,
      "Ġtargeted": 8355,
      "Ġauto": 8356,
      "ĠKanpur": 8357,
      "Ġshift": 8358,
      "Ġmedicine": 8359,
      "ĠRegional": 8360,
      "ĠJonas": 8361,
      "ĠQuran": 8362,
      "ux": 8363,
      "Ġtension": 8364,
      "heet": 8365,
      "Ġfold": 8366,
      "Ġlying": 8367,
      "Ġgains": 8368,
      "ĠBro": 8369,
      "Ġaggress": 8370,
      "Ġwhoever": 8371,
      "ruction": 8372,
      "Ġpron": 8373,
      "ĠMaur": 8374,
      "Ġprotesting": 8375,
      "ĠAshwin": 8376,
      "Ġconvicted": 8377,
      "Ġpackage": 8378,
      "speed": 8379,
      "Ġconversation": 8380,
      "Ġvegetables": 8381,
      "Ġvariants": 8382,
      "ĠMeeting": 8383,
      "Ġagenda": 8384,
      "Women": 8385,
      "jot": 8386,
      "Ġcord": 8387,
      "Ġinstitutional": 8388,
      "Ġdiet": 8389,
      "ĠCamp": 8390,
      "ĠBagh": 8391,
      "aint": 8392,
      "ĠLah": 8393,
      "place": 8394,
      "ips": 8395,
      "ĠAbb": 8396,
      "Ġdealing": 8397,
      "gery": 8398,
      "Ġenhanced": 8399,
      "Ġnomination": 8400,
      "Ġcontinuing": 8401,
      "Ġharassment": 8402,
      "Ġabsconding": 8403,
      "NCP": 8404,
      "UR": 8405,
      "UV": 8406,
      "bon": 8407,
      "zy": 8408,
      "ilas": 8409,
      "ĠAP": 8410,
      "ĠKhattar": 8411,
      "Ġanger": 8412,
      "ĠHer": 8413,
      "ĠJac": 8414,
      "Ġplot": 8415,
      "ĠOut": 8416,
      "Ġupto": 8417,
      "Invest": 8418,
      "Ġnobody": 8419,
      "ĠThen": 8420,
      "ooda": 8421,
      "Ġservant": 8422,
      "ĠAmbedkar": 8423,
      "Ġ01": 8424,
      "2015": 8425,
      "Ġrevolution": 8426,
      "ĠLalu": 8427,
      "Ġfootage": 8428,
      "spector": 8429,
      "Ġpremium": 8430,
      "auty": 8431,
      "rist": 8432,
      "Ġpair": 8433,
      "Ġdim": 8434,
      "idelines": 8435,
      "uration": 8436,
      "ĠRem": 8437,
      "Ġsep": 8438,
      "ĠHan": 8439,
      "umrah": 8440,
      "Ġactual": 8441,
      "Ġattrib": 8442,
      "Ġdemise": 8443,
      "Ġposter": 8444,
      "Ġwinner": 8445,
      "Ġdestruction": 8446,
      "Ġexistence": 8447,
      "ĠSubhash": 8448,
      "ĠNaik": 8449,
      "Ġapproximately": 8450,
      "Kerala": 8451,
      "Sources": 8452,
      "bi": 8453,
      "oa": 8454,
      "Ġtoil": 8455,
      "ĠSensex": 8456,
      "olid": 8457,
      "ĠDan": 8458,
      "andal": 8459,
      "ĠJade": 8460,
      "ĠJawaharlal": 8461,
      "Health": 8462,
      "Ġevol": 8463,
      "Ġmostly": 8464,
      "Ġbackground": 8465,
      "Ġsupports": 8466,
      "Ġbusinesses": 8467,
      "Ġcontributed": 8468,
      "Ġcoverage": 8469,
      "Ġtitled": 8470,
      "Ġtickets": 8471,
      "ĠQualcomm": 8472,
      "ĠDemocratic": 8473,
      "ĠAadmi": 8474,
      "Ġimprisonment": 8475,
      "hit": 8476,
      "lad": 8477,
      "Ġborrow": 8478,
      "lets": 8479,
      "ĠIb": 8480,
      "ayam": 8481,
      "ĠBR": 8482,
      "rie": 8483,
      "ournal": 8484,
      "emies": 8485,
      "Ġpoly": 8486,
      "Ġuseful": 8487,
      "Ġotherwise": 8488,
      "ĠGuard": 8489,
      "Ġprofessor": 8490,
      "Ġpreparations": 8491,
      "Ġachieving": 8492,
      "unications": 8493,
      "Ġharvest": 8494,
      "Ġmountain": 8495,
      "ophy": 8496,
      "Ġculp": 8497,
      "ĠRealme": 8498,
      "ĠMalaysia": 8499,
      "ystem": 8500,
      "Ġauction": 8501,
      "onom": 8502,
      "orious": 8503,
      "Ġbike": 8504,
      "Ġvul": 8505,
      "Ġsucc": 8506,
      "ailed": 8507,
      "Ġrecon": 8508,
      "Ġ67": 8509,
      "arnath": 8510,
      "Ġincreases": 8511,
      "ĠBhup": 8512,
      "Ġcommunal": 8513,
      "Ġeffectively": 8514,
      "Ġfielded": 8515,
      "ariat": 8516,
      "Ġhonor": 8517,
      "Ġtourist": 8518,
      "Ġtowns": 8519,
      "Ġcombined": 8520,
      "Ġcrossed": 8521,
      "Ġtorment": 8522,
      "ĠObama": 8523,
      "Ġdiagn": 8524,
      "ĠIndonesia": 8525,
      "CI": 8526,
      "ITI": 8527,
      "wat": 8528,
      "word": 8529,
      "ications": 8530,
      "Ġloy": 8531,
      "Ġmanage": 8532,
      "ught": 8533,
      "Ġopens": 8534,
      "Ġprocesses": 8535,
      "ĠSheikh": 8536,
      "ĠUPA": 8537,
      "Ġrecognized": 8538,
      "Ġencouraged": 8539,
      "Ġjournalists": 8540,
      "Subsequently": 8541,
      "Actress": 8542,
      "ĠJustices": 8543,
      "ĠMyanmar": 8544,
      "och": 8545,
      "Ġera": 8546,
      "Ġsed": 8547,
      "Ġdwell": 8548,
      "ĠSav": 8549,
      "etary": 8550,
      "igher": 8551,
      "Ġrid": 8552,
      "okh": 8553,
      "irect": 8554,
      "ĠVed": 8555,
      "ĠViet": 8556,
      "Ġclot": 8557,
      "Ġblue": 8558,
      "Ġgrown": 8559,
      "ĠResource": 8560,
      "force": 8561,
      "Ġappearing": 8562,
      "Ġconsultation": 8563,
      "Ġexperiences": 8564,
      "ĠRanaut": 8565,
      "42": 8566,
      "DF": 8567,
      "DT": 8568,
      "Ġsight": 8569,
      "atar": 8570,
      "Ġfly": 8571,
      "Ġmoon": 8572,
      "Ġmunicipal": 8573,
      "Ġreiter": 8574,
      "ĠMinistries": 8575,
      "urag": 8576,
      "Ġgained": 8577,
      "ĠBer": 8578,
      "ĠBhawan": 8579,
      "uded": 8580,
      "ĠLine": 8581,
      "ocol": 8582,
      "Ġreservation": 8583,
      "ĠVadra": 8584,
      "oba": 8585,
      "Ġelectoral": 8586,
      "Ġdefined": 8587,
      "Ġcrimes": 8588,
      "ĠForum": 8589,
      "Ġpleas": 8590,
      "appa": 8591,
      "Ġimplementing": 8592,
      "ĠCoal": 8593,
      "Ġimmense": 8594,
      "ĠChampionship": 8595,
      "Ġpaise": 8596,
      "ĠAssistant": 8597,
      "ĠBhutan": 8598,
      "Ġcovenant": 8599,
      "57": 8600,
      "RBI": 8601,
      "Special": 8602,
      "poll": 8603,
      "Ġtack": 8604,
      "Ġsins": 8605,
      "organ": 8606,
      "eler": 8607,
      "Ġhelic": 8608,
      "ulative": 8609,
      "uma": 8610,
      "Ġoffences": 8611,
      "Ġrare": 8612,
      "Ġ74": 8613,
      "elect": 8614,
      "Ġturns": 8615,
      "ANS": 8616,
      "Ġassociate": 8617,
      "ĠPadma": 8618,
      "iability": 8619,
      "Ġinclusive": 8620,
      "Ġbehaviour": 8621,
      "Ġdrama": 8622,
      "ĠProtection": 8623,
      "Ġefficient": 8624,
      "field": 8625,
      "zuki": 8626,
      "ĠCust": 8627,
      "Ġexcess": 8628,
      "Ġplastic": 8629,
      "Ġyourselves": 8630,
      "Ġremote": 8631,
      "Ġmeets": 8632,
      "Ġwomens": 8633,
      "Ġworldwide": 8634,
      "Ġblind": 8635,
      "Ġexpenses": 8636,
      "Soon": 8637,
      "Ġpreparing": 8638,
      "Ġtenure": 8639,
      "Ġtriple": 8640,
      "ĠSuperintendent": 8641,
      "Ġtransportation": 8642,
      "ĠBench": 8643,
      "Ġhouseholds": 8644,
      "ĠHonble": 8645,
      "Ġfactory": 8646,
      "Ġisolated": 8647,
      "EA": 8648,
      "Fin": 8649,
      "cher": 8650,
      "days": 8651,
      "last": 8652,
      "rith": 8653,
      "ĠMc": 8654,
      "ĠMis": 8655,
      "ĠMount": 8656,
      "Ġgate": 8657,
      "ifies": 8658,
      "acc": 8659,
      "ĠLED": 8660,
      "ideo": 8661,
      "Ġspin": 8662,
      "Ġrow": 8663,
      "Ġmonsoon": 8664,
      "Ġsmooth": 8665,
      "Ġapproves": 8666,
      "Ġpromot": 8667,
      "limate": 8668,
      "ĠSmart": 8669,
      "Ġstayed": 8670,
      "Ġsharp": 8671,
      "ING": 8672,
      "ĠCBSE": 8673,
      "Ġentitled": 8674,
      "%),": 8675,
      "Based": 8676,
      "Sp": 8677,
      "Taking": 8678,
      "free": 8679,
      "hy": 8680,
      "heb": 8681,
      "Ġspl": 8682,
      "Ġwave": 8683,
      "Ġcad": 8684,
      "ĠIAS": 8685,
      "ĠPil": 8686,
      "ĠPrem": 8687,
      "Ġstones": 8688,
      "chand": 8689,
      "ĠTO": 8690,
      "ĠFort": 8691,
      "Ġworried": 8692,
      "Through": 8693,
      "Ġunidentified": 8694,
      "Ġasserted": 8695,
      "Ġreceipt": 8696,
      "Ġprophet": 8697,
      "ĠAirtel": 8698,
      "External": 8699,
      "Ġcloser": 8700,
      "Ġhelicop": 8701,
      "BSP": 8702,
      "Cap": 8703,
      "Whe": 8704,
      "ii": 8705,
      "met": 8706,
      "Ġ000": 8707,
      "Ġacted": 8708,
      "alpur": 8709,
      "ĠSign": 8710,
      "ĠGreat": 8711,
      "Ġsem": 8712,
      "Ġsees": 8713,
      "agues": 8714,
      "Ġexem": 8715,
      "Ġallocation": 8716,
      "ndering": 8717,
      "Ġcenter": 8718,
      "Ġconferred": 8719,
      "Ġtalent": 8720,
      "Ġallowing": 8721,
      "ĠISRO": 8722,
      "Did": 8723,
      "Kareena": 8724,
      "Lok": 8725,
      "Rail": 8726,
      "house": 8727,
      "noon": 8728,
      "Ġic": 8729,
      "Ġpac": 8730,
      "ĠJin": 8731,
      "ĠLand": 8732,
      "ĠFlipkart": 8733,
      "ighty": 8734,
      "izes": 8735,
      "ugg": 8736,
      "uka": 8737,
      "Ġshape": 8738,
      "Ġsurve": 8739,
      "Ġcleared": 8740,
      "ĠAbhi": 8741,
      "Ġpaying": 8742,
      "Ġengage": 8743,
      "ĠMeghalaya": 8744,
      "Ġportf": 8745,
      "ĠPandya": 8746,
      "Ġgenerated": 8747,
      "ĠTribunal": 8748,
      "Ġmerely": 8749,
      "Ġjawans": 8750,
      "Deepika": 8751,
      "hand": 8752,
      "otic": 8753,
      "igious": 8754,
      "ĠTar": 8755,
      "itya": 8756,
      "hael": 8757,
      "employment": 8758,
      "ĠFormer": 8759,
      "ĠOm": 8760,
      "ulty": 8761,
      "Ġcontra": 8762,
      "ointing": 8763,
      "ĠTrin": 8764,
      "Ġbigger": 8765,
      "Ġresponded": 8766,
      "Ġcontroversial": 8767,
      "ĠJadeja": 8768,
      "vation": 8769,
      "xis": 8770,
      "Ġdry": 8771,
      "Ġmixed": 8772,
      "Ġhence": 8773,
      "ĠDur": 8774,
      "Ġ1000": 8775,
      "ĠHot": 8776,
      "ĠHell": 8777,
      "Ġsovere": 8778,
      "Ġevalu": 8779,
      "Ġrememb": 8780,
      "Ġpartys": 8781,
      "Ġobtained": 8782,
      "Ġviolent": 8783,
      "Ġjoining": 8784,
      "ĠPlus": 8785,
      "2014": 8786,
      "Ġpositions": 8787,
      "Ġmoral": 8788,
      "Ġtributes": 8789,
      "Ġthreatened": 8790,
      "ĠApple": 8791,
      "Ġenvironmental": 8792,
      "Ġdisciples": 8793,
      "Ġassigned": 8794,
      "Ġglobally": 8795,
      "Ġinvolvement": 8796,
      "Ġbirds": 8797,
      "hotra": 8798,
      "ĠGogoi": 8799,
      "58": 8800,
      "reams": 8801,
      "Ġble": 8802,
      "Ġhits": 8803,
      "ĠMos": 8804,
      "ĠBat": 8805,
      "owing": 8806,
      "Ġaside": 8807,
      "Ġprohib": 8808,
      "ĠNick": 8809,
      "ĠHooda": 8810,
      "Ġexhibition": 8811,
      "Ġworry": 8812,
      "ĠStock": 8813,
      "ĠUSA": 8814,
      "Ġmonthly": 8815,
      "Ġmineral": 8816,
      "Ġdivor": 8817,
      "Ġsuspect": 8818,
      "ĠCoast": 8819,
      "Ġfocused": 8820,
      "Ġaccommod": 8821,
      "Ġinstrument": 8822,
      "Ġdefinitely": 8823,
      "ĠJews": 8824,
      "Ġconveyed": 8825,
      "ellectual": 8826,
      "Ġseparat": 8827,
      "Ġwood": 8828,
      "Ġfab": 8829,
      "Ġhill": 8830,
      "ĠPrivate": 8831,
      "Ġstocks": 8832,
      "Ġdeals": 8833,
      "ĠHand": 8834,
      "ĠJy": 8835,
      "Ġpled": 8836,
      "portion": 8837,
      "Ġdecade": 8838,
      "Ġacres": 8839,
      "Ġmetal": 8840,
      "Ġsixes": 8841,
      "apped": 8842,
      "Ġcontributions": 8843,
      "Ġmurd": 8844,
      "Ġcontrolled": 8845,
      "Ġchallenged": 8846,
      "Ġamendment": 8847,
      "Ġlinks": 8848,
      "Ġrapidly": 8849,
      "Ġscenario": 8850,
      "Ġwonderful": 8851,
      "arency": 8852,
      "Ġlabourers": 8853,
      "Ġsymptoms": 8854,
      "ĠAayog": 8855,
      "TC": 8856,
      "UTs": 8857,
      "lor": 8858,
      "Ġships": 8859,
      "orough": 8860,
      "ĠPant": 8861,
      "ĠBob": 8862,
      "emed": 8863,
      "antic": 8864,
      "oking": 8865,
      "Ġ71": 8866,
      "Ġends": 8867,
      "Ġsimpl": 8868,
      "Ġtargets": 8869,
      "Ġsignificantly": 8870,
      "Ġcycl": 8871,
      "Ġcoastal": 8872,
      "Ġaffordable": 8873,
      "Ġsatellite": 8874,
      "Dis": 8875,
      "cers": 8876,
      "ĠMC": 8877,
      "amation": 8878,
      "ĠDa": 8879,
      "rian": 8880,
      "ulating": 8881,
      "Ġ63": 8882,
      "Ġimpart": 8883,
      "ĠArmed": 8884,
      "ĠKhans": 8885,
      "Ġmining": 8886,
      "Ġgrat": 8887,
      "Ġkeeps": 8888,
      "Ġartist": 8889,
      "Ġproperly": 8890,
      "Ġportion": 8891,
      "Ġzone": 8892,
      "Ġgenerate": 8893,
      "Ġpatri": 8894,
      "Ġneighbours": 8895,
      "ĠConsumer": 8896,
      "ĠMemorial": 8897,
      "ĠWarner": 8898,
      "ĠSwachh": 8899,
      "AG": 8900,
      "Cont": 8901,
      "Ver": 8902,
      "].": 8903,
      "iation": 8904,
      "rition": 8905,
      "wani": 8906,
      "Ġrival": 8907,
      "Ġfired": 8908,
      "Ġborders": 8909,
      "oub": 8910,
      "Ġstret": 8911,
      "owered": 8912,
      "ĠNadda": 8913,
      "Ġsequ": 8914,
      "rick": 8915,
      "Ġaband": 8916,
      "Ġcontem": 8917,
      "Ġovert": 8918,
      "Ġ69": 8919,
      "Ġcolor": 8920,
      "class": 8921,
      "Ġfunding": 8922,
      "rahim": 8923,
      "ĠThailand": 8924,
      "ĠSteve": 8925,
      "Ġburning": 8926,
      "ĠExamination": 8927,
      "ĠAaron": 8928,
      ").\"": 8929,
      "Finance": 8930,
      "Qu": 8931,
      "Sun": 8932,
      "core": 8933,
      "more": 8934,
      "Ġpick": 8935,
      "Ġinher": 8936,
      "ĠDG": 8937,
      "opic": 8938,
      "Ġcomprom": 8939,
      "Ġevac": 8940,
      "Ġprest": 8941,
      "Ġ125": 8942,
      "aza": 8943,
      "Ġsalary": 8944,
      "Ġcombat": 8945,
      "ĠIrani": 8946,
      "Ġhyp": 8947,
      "Ġinnovative": 8948,
      "ishankar": 8949,
      "ĠMitchell": 8950,
      "ĠMarathi": 8951,
      "Ġresearchers": 8952,
      "rithik": 8953,
      "400": 8954,
      "Sw": 8955,
      "di": 8956,
      "Ġpip": 8957,
      "ĠAB": 8958,
      "alling": 8959,
      "Ġpermit": 8960,
      "Ġaccur": 8961,
      "Ġ85": 8962,
      "Ġinterim": 8963,
      "Ġglad": 8964,
      "Ġpleasure": 8965,
      "ĠParis": 8966,
      "ĠPanchay": 8967,
      "Ġtribute": 8968,
      "USH": 8969,
      "iabet": 8970,
      "ĠIntegr": 8971,
      "Ġmountains": 8972,
      "ĠTomar": 8973,
      "Ġenthus": 8974,
      "96": 8975,
      "File": 8976,
      "Pat": 8977,
      "Sri": 8978,
      "Ġwa": 8979,
      "enth": 8980,
      "adur": 8981,
      "ĠPa": 8982,
      "irt": 8983,
      "etisation": 8984,
      "Ġrang": 8985,
      "Ġanybody": 8986,
      "Ġremoval": 8987,
      "Ġattached": 8988,
      "Ġflat": 8989,
      "ĠIsh": 8990,
      "ĠMalhotra": 8991,
      "Ġfeatured": 8992,
      "Ġshortage": 8993,
      "Ġhosted": 8994,
      "apuram": 8995,
      "ĠMotors": 8996,
      "ĠVikram": 8997,
      "Ġliquid": 8998,
      "ĠPratap": 8999,
      "Ġfestiv": 9000,
      "ĠMuzaff": 9001,
      "Che": 9002,
      "mukh": 9003,
      "zes": 9004,
      "itt": 9005,
      "Ġfolk": 9006,
      "Ġfinger": 9007,
      "ĠSand": 9008,
      "ĠChem": 9009,
      "Ġgross": 9010,
      "uduc": 9011,
      "antly": 9012,
      "ĠVas": 9013,
      "Ġspending": 9014,
      "Ġ66": 9015,
      "Ġpersonally": 9016,
      "ranches": 9017,
      "Ġinfected": 9018,
      "remend": 9019,
      "Ġengagement": 9020,
      "Ġchairperson": 9021,
      "Ġtaxes": 9022,
      "ĠPlay": 9023,
      "Ġsmaller": 9024,
      "Ġinnoc": 9025,
      "Ġzero": 9026,
      "Ġexecution": 9027,
      "Ġlegislation": 9028,
      "Ġproposals": 9029,
      "Ġcontinuously": 9030,
      "Ġoverseas": 9031,
      "ĠDubai": 9032,
      "Ġepis": 9033,
      "ĠRichard": 9034,
      "03": 9035,
      "FP": 9036,
      "Tube": 9037,
      "cket": 9038,
      "giving": 9039,
      "Ġtally": 9040,
      "Ġhockey": 9041,
      "ĠmAh": 9042,
      "ĠMerciful": 9043,
      "ĠCredit": 9044,
      "ĠId": 9045,
      "Ġyoga": 9046,
      "Ġenemies": 9047,
      "Ġintim": 9048,
      "Ġoutput": 9049,
      "weep": 9050,
      "Ġknowing": 9051,
      "Ġfarming": 9052,
      "ĠManaging": 9053,
      "Ġvisible": 9054,
      "Ġlawyers": 9055,
      "Ġprompt": 9056,
      "Ġopener": 9057,
      "Ġletters": 9058,
      "Ġearthquake": 9059,
      "Ġdestination": 9060,
      "Ġspreading": 9061,
      "Ġdisplayed": 9062,
      "Ġcharacters": 9063,
      "Ġdeposit": 9064,
      "ĠEnterprises": 9065,
      "Ġdiscipline": 9066,
      "Ġtotally": 9067,
      "uducherry": 9068,
      "Justice": 9069,
      "Mah": 9070,
      "Never": 9071,
      "gar": 9072,
      "gments": 9073,
      "minton": 9074,
      "Ġpul": 9075,
      "Ġhub": 9076,
      "Ġdistan": 9077,
      "Ġalcoh": 9078,
      "Ġasks": 9079,
      "ĠHall": 9080,
      "Ġpermitted": 9081,
      "isement": 9082,
      "Ġrepent": 9083,
      "Ġ99": 9084,
      "claim": 9085,
      "Ġpleased": 9086,
      "Ġhumanity": 9087,
      "Ġsubjects": 9088,
      "Ġjudgement": 9089,
      "Ġforgive": 9090,
      "Ġrescued": 9091,
      "related": 9092,
      "haraoh": 9093,
      "Gold": 9094,
      "mun": 9095,
      "pher": 9096,
      "ynam": 9097,
      "Ġpion": 9098,
      "cture": 9099,
      "ĠCare": 9100,
      "ĠFront": 9101,
      "ĠRaja": 9102,
      "oung": 9103,
      "cience": 9104,
      "ĠHeb": 9105,
      "Ġsheet": 9106,
      "Ġbright": 9107,
      "Ġinvestigate": 9108,
      "ĠPunjabi": 9109,
      "liminary": 9110,
      "Ġjudiciary": 9111,
      "Ġperforming": 9112,
      "ĠRaut": 9113,
      "Ġcontinuous": 9114,
      "ĠHardik": 9115,
      "ĠKannada": 9116,
      "EF": 9117,
      "Fore": 9118,
      "Narendra": 9119,
      "Ter": 9120,
      "gies": 9121,
      "ker": 9122,
      "alities": 9123,
      "stood": 9124,
      "igade": 9125,
      "istry": 9126,
      "oso": 9127,
      "aba": 9128,
      "Ġupper": 9129,
      "ĠLat": 9130,
      "qual": 9131,
      "Ġupgrad": 9132,
      "Ġ600": 9133,
      "ferences": 9134,
      "Ġ2003": 9135,
      "Ġglass": 9136,
      "ĠPlanning": 9137,
      "ĠMinor": 9138,
      "Ġretirement": 9139,
      "Ġjewell": 9140,
      "Click": 9141,
      "encing": 9142,
      "Ġfish": 9143,
      "ĠBy": 9144,
      "ĠBumrah": 9145,
      "ĠNation": 9146,
      "ĠTiger": 9147,
      "achers": 9148,
      "Ġsuitable": 9149,
      "ultan": 9150,
      "Ġconsists": 9151,
      "Ġflash": 9152,
      "Ġchildhood": 9153,
      "Ġcrash": 9154,
      "Ġsituations": 9155,
      "icky": 9156,
      "ĠBihari": 9157,
      "TION": 9158,
      "Ġenjoyed": 9159,
      "Ġwatching": 9160,
      "Ġdisbelievers": 9161,
      "Ġcaptured": 9162,
      "ĠMeteorological": 9163,
      "Ġargument": 9164,
      "Ġmosque": 9165,
      "Ġvulner": 9166,
      "GC": 9167,
      "Gl": 9168,
      "Gand": 9169,
      "Were": 9170,
      "ĠSession": 9171,
      "Ġbeauty": 9172,
      "ĠAD": 9173,
      "Ġgods": 9174,
      "ĠGir": 9175,
      "Ġvan": 9176,
      "ifically": 9177,
      "ĠJe": 9178,
      "soever": 9179,
      "ĠLeft": 9180,
      "uster": 9181,
      "ĠUAE": 9182,
      "Ġwear": 9183,
      "Ġ62": 9184,
      "Ġentering": 9185,
      "Ġfees": 9186,
      "Ġvisa": 9187,
      "Ġ2001": 9188,
      "Ġ2002": 9189,
      "Ġlivelihood": 9190,
      "Ġsanitation": 9191,
      "Ġvacant": 9192,
      "Ġlatter": 9193,
      "Ġenhancing": 9194,
      "Ġqualified": 9195,
      "Ġsquare": 9196,
      "ilipp": 9197,
      "jeet": 9198,
      "ĠPenal": 9199,
      "Ġpilgrims": 9200,
      "Ġshelter": 9201,
      "AAP": 9202,
      "UT": 9203,
      "nect": 9204,
      "ride": 9205,
      "hew": 9206,
      "itaries": 9207,
      "ĠMart": 9208,
      "rif": 9209,
      "ques": 9210,
      "Ġlev": 9211,
      "ĠUm": 9212,
      "ibrary": 9213,
      "Ġattra": 9214,
      "ganj": 9215,
      "Ġshell": 9216,
      "Ġsecured": 9217,
      "Ġimports": 9218,
      "ĠBanks": 9219,
      "Ġowned": 9220,
      "Ġcamps": 9221,
      "cription": 9222,
      "Comp": 9223,
      "Ġreplaced": 9224,
      "ĠNagpur": 9225,
      "ĠChange": 9226,
      "ishermen": 9227,
      "ĠTurkey": 9228,
      "ĠLeader": 9229,
      "Dist": 9230,
      "GS": 9231,
      "SBI": 9232,
      "Ġmir": 9233,
      "ĠClimate": 9234,
      "ĠAtt": 9235,
      "ĠRight": 9236,
      "ĠNT": 9237,
      "Ġsending": 9238,
      "Ġseventh": 9239,
      "Ġkeen": 9240,
      "Ġtea": 9241,
      "Ġcommod": 9242,
      "Ġcool": 9243,
      "endar": 9244,
      "Ġpasses": 9245,
      "Ġoperate": 9246,
      "ĠSuzuki": 9247,
      "ĠHimal": 9248,
      "ICS": 9249,
      "Ġdivine": 9250,
      "Ġstarred": 9251,
      "ĠCorporate": 9252,
      "ĠSushil": 9253,
      "Ġrankings": 9254,
      "ĠRavindra": 9255,
[...]
