{
  "version": "1.0",
  "truncation": null,
  "padding": null,
  "added_tokens": [
    {
      "id": 0,
      "content": "[UNK]",
      "single_word": false,
      "lstrip": false,
      "rstrip": false,
      "normalized": false,
      "special": true
    },
    {
      "id": 1,
      "content": "[PAD]",
      "single_word": false,
      "lstrip": false,
      "rstrip": false,
      "normalized": false,
      "special": true
    },
    {
      "id": 2,
      "content": "[SOS]",
      "single_word": false,
      "lstrip": false,
      "rstrip": false,
      "normalized": false,
      "special": true
    },
    {
      "id": 3,
      "content": "[EOS]",
      "single_word": false,
      "lstrip": false,
      "rstrip": false,
      "normalized": false,
      "special": true
    }
  ],
  "normalizer": null,
  "pre_tokenizer": {
    "type": "ByteLevel",
    "add_prefix_space": false,
    "trim_offsets": true,
    "use_regex": true
  },
  "post_processor": null,
  "decoder": {
    "type": "ByteLevel",
    "add_prefix_space": true,
    "trim_offsets": true,
    "use_regex": true
  },
  "model": {
    "type": "BPE",
    "dropout": null,
    "unk_token": "[UNK]",
    "continuing_subword_prefix": null,
    "end_of_word_suffix": null,
    "fuse_unk": false,
    "byte_fallback": false,
    "ignore_merges": false,
    "vocab": {
      "[UNK]": 0,
      "[PAD]": 1,
      "[SOS]": 2,
      "[EOS]": 3,
      "!": 4,
      "\"": 5,
      "#": 6,
      "$": 7,
      "%": 8,
      "&": 9,
      "'": 10,
      "(": 11,
      ")": 12,
      "*": 13,
      "+": 14,
      ",": 15,
      "-": 16,
      ".": 17,
      "/": 18,
      "0": 19,
      "1": 20,
      "2": 21,
      "3": 22,
      "4": 23,
      "5": 24,
      "6": 25,
      "7": 26,
      "8": 27,
      "9": 28,
      ":": 29,
      ";": 30,
      "<": 31,
      "=": 32,
      ">": 33,
      "?": 34,
      "@": 35,
      "A": 36,
      "B": 37,
      "C": 38,
      "D": 39,
      "E": 40,
      "F": 41,
      "G": 42,
      "H": 43,
      "I": 44,
      "J": 45,
      "K": 46,
      "L": 47,
      "M": 48,
      "N": 49,
      "O": 50,
      "P": 51,
      "Q": 52,
      "R": 53,
      "S": 54,
      "T": 55,
      "U": 56,
      "V": 57,
      "W": 58,
      "X": 59,
      "Y": 60,
      "Z": 61,
      "[": 62,
      "\\": 63,
      "]": 64,
      "^": 65,
      "_": 66,
      "`": 67,
      "a": 68,
      "b": 69,
      "c": 70,
      "d": 71,
      "e": 72,
      "f": 73,
      "g": 74,
      "h": 75,
      "i": 76,
      "j": 77,
      "k": 78,
      "l": 79,
      "m": 80,
      "n": 81,
      "o": 82,
      "p": 83,
      "q": 84,
      "r": 85,
      "s": 86,
      "t": 87,
      "u": 88,
      "v": 89,
      "w": 90,
      "x": 91,
      "y": 92,
      "z": 93,
      "{": 94,
      "|": 95,
      "}": 96,
      "~": 97,
      "¡": 98,
      "¢": 99,
      "£": 100,
      "¤": 101,
      "¥": 102,
      "¦": 103,
      "§": 104,
      "¨": 105,
      "©": 106,
      "ª": 107,
      "«": 108,
      "¬": 109,
      "®": 110,
      "¯": 111,
      "°": 112,
      "±": 113,
      "²": 114,
      "³": 115,
      "´": 116,
      "µ": 117,
      "¶": 118,
      "·": 119,
      "¸": 120,
      "¹": 121,
      "º": 122,
      "»": 123,
      "¼": 124,
      "½": 125,
      "¾": 126,
      "¿": 127,
      "À": 128,
      "Á": 129,
      "Â": 130,
      "Ã": 131,
      "Ä": 132,
      "Å": 133,
      "Æ": 134,
      "Ç": 135,
      "È": 136,
      "É": 137,
      "Ê": 138,
      "Ë": 139,
      "Ì": 140,
      "Í": 141,
      "Î": 142,
      "Ï": 143,
      "Ð": 144,
      "Ñ": 145,
      "Ò": 146,
      "Ó": 147,
      "Ô": 148,
      "Õ": 149,
      "Ö": 150,
      "×": 151,
      "Ø": 152,
      "Ù": 153,
      "Ú": 154,
      "Û": 155,
      "Ü": 156,
      "Ý": 157,
      "Þ": 158,
      "ß": 159,
      "à": 160,
      "á": 161,
      "â": 162,
      "ã": 163,
      "ä": 164,
      "å": 165,
      "æ": 166,
      "ç": 167,
      "è": 168,
      "é": 169,
      "ê": 170,
      "ë": 171,
      "ì": 172,
      "í": 173,
      "î": 174,
      "ï": 175,
      "ð": 176,
      "ñ": 177,
      "ò": 178,
      "ó": 179,
      "ô": 180,
      "õ": 181,
      "ö": 182,
      "÷": 183,
      "ø": 184,
      "ù": 185,
      "ú": 186,
      "û": 187,
      "ü": 188,
      "ý": 189,
      "þ": 190,
      "ÿ": 191,
      "Ā": 192,
      "ā": 193,
      "Ă": 194,
      "ă": 195,
      "Ą": 196,
      "ą": 197,
      "Ć": 198,
      "ć": 199,
      "Ĉ": 200,
      "ĉ": 201,
      "Ċ": 202,
      "ċ": 203,
      "Č": 204,
      "č": 205,
      "Ď": 206,
      "ď": 207,
      "Đ": 208,
      "đ": 209,
      "Ē": 210,
      "ē": 211,
      "Ĕ": 212,
      "ĕ": 213,
      "Ė": 214,
      "ė": 215,
      "Ę": 216,
      "ę": 217,
      "Ě": 218,
      "ě": 219,
      "Ĝ": 220,
      "ĝ": 221,
      "Ğ": 222,
      "ğ": 223,
      "Ġ": 224,
      "ġ": 225,
      "Ģ": 226,
      "ģ": 227,
      "Ĥ": 228,
      "ĥ": 229,
      "Ħ": 230,
      "ħ": 231,
      "Ĩ": 232,
      "ĩ": 233,
      "Ī": 234,
      "ī": 235,
      "Ĭ": 236,
      "ĭ": 237,
      "Į": 238,
      "į": 239,
      "İ": 240,
      "ı": 241,
      "Ĳ": 242,
      "ĳ": 243,
      "Ĵ": 244,
      "ĵ": 245,
      "Ķ": 246,
      "ķ": 247,
      "ĸ": 248,
      "Ĺ": 249,
      "ĺ": 250,
      "Ļ": 251,
      "ļ": 252,
      "Ľ": 253,
      "ľ": 254,
      "Ŀ": 255,
      "ŀ": 256,
      "Ł": 257,
      "ł": 258,
      "Ń": 259,
      "à¤": 260,
      "à¥": 261,
      "Ġà¤": 262,
      "à¤¾": 263,
      "à¥ĩ": 264,
      "à¤°": 265,
      "à¥į": 266,
      "Ġà¤ķ": 267,
      "à¤¿": 268,
      "à¥Ģ": 269,
      "à¤Ĥ": 270,
      "à¤¨": 271,
      "à¤¤": 272,
      "à¥ĭ": 273,
      "à¤ķ": 274,
      "à¤¯": 275,
      "à¤¸": 276,
      "à¤²": 277,
      "Ġà¤¸": 278,
      "à¤®": 279,
      "à¤¹": 280,
      "Ġà¤¹": 281,
      "Ġà¤®": 282,
      "Ġà¤ª": 283,
      "à¥Ī": 284,
      "à¥ģ": 285,
      "à¤µ": 286,
      "à¤¦": 287,
      "à¤ª": 288,
      "à¥ĩà¤Ĥ": 289,
      "à¤Ĺ": 290,
      "Ġà¤¨": 291,
      "à¥¤": 292,
      "à¤Ł": 293,
      "à¤ľ": 294,
      "Ġà¤¬": 295,
      "Ġà¤ľ": 296,
      "à¥ĭà¤Ĥ": 297,
      "Ġà¤ħ": 298,
      "Ġà¤¦": 299,
      "Ġà¤µ": 300,
      "à¤ı": 301,
      "à¤¶": 302,
      "à¥Ĥ": 303,
      "Ġà¤°": 304,
      "Ġà¤²": 305,
      "à¤¬": 306,
      "à¤¡": 307,
      "à¤§": 308,
      "Ķà¤°": 309,
      "à¤ļ": 310,
      "Ġà¤Ķà¤°": 311,
      "Ġà¤ķà¤°": 312,
      "à¤·": 313,
      "Ġà¤¤": 314,
      "Ġà¤ī": 315,
      "Ġà¤Ĺ": 316,
      "Ġà¤Ĩ": 317,
      "Ġà¤Ń": 318,
      "à¤¼": 319,
      "à¤Ī": 320,
      "à¤¥": 321,
      "Ġà¤ªà¤°": 322,
      "à¥Īà¤Ĥ": 323,
      "Ġà¤ı": 324,
      "Ġà¤ĩ": 325,
      "à¥Īà¥¤": 326,
      "à¤Ń": 327,
      "âĢ": 328,
      "Ġà¤¶": 329,
      "à¤ĸ": 330,
      "à¤£": 331,
      "Ġà¤¯": 332,
      "Ġà¤ļ": 333,
      "à¤¾à¤Ĥ": 334,
      "à¤«": 335,
      "à¤ĩ": 336,
      "à¤°à¤¤": 337,
      "Ġà¤¥": 338,
      "à¥Į": 339,
      "à¥Ģà¤Ĥ": 340,
      "Ġà¤ıà¤ķ": 341,
      "Ġà¤ĸ": 342,
      "Ġà¤«": 343,
      "Ġà¤°à¤¹": 344,
      "Ġà¤ĩà¤¸": 345,
      "Ġà¤ķà¤¹": 346,
      "âĢį": 347,
      "à¤¾à¥¤": 348,
      "à¤ªà¤¨": 349,
      "à¥įâĢį": 350,
      "Ġ(": 351,
      "Ġà¤¨à¤¹": 352,
      "à¤ķà¤°": 353,
      "à¤Ĩ": 354,
      "Ġà¤īà¤¨": 355,
      "Ġà¤¸à¤®": 356,
      "Ġà¤ķà¤°à¤¨": 357,
      "à¤°à¤ķ": 358,
      "à¥ī": 359,
      "à¤¿à¤Ĥ": 360,
      "à¤ĩà¤¸": 361,
      "à¤¾,": 362,
      "à¤ī": 363,
      "Ġà¤Ĺà¤¯": 364,
      "à¤Ľ": 365,
      "Ġà¤Ł": 366,
      "Ġ1": 367,
      "à¥Īà¤Ĥà¥¤": 368,
      "Ġà¤¯à¤¹": 369,
      "Ġ2": 370,
      "Ġà¤ħà¤ªà¤¨": 371,
      "Ġà¤ħà¤¨": 372,
      "Ġà¤¡": 373,
      "Ġà¤īà¤¸": 374,
      "à¥ĥ": 375,
      "à¤ł": 376,
      "à¤¤à¤°": 377,
      "à¤¯à¤ķ": 378,
      "Ġà¤¹à¤®": 379,
      "Ġà¤ħà¤§": 380,
      "à¤ĵ": 381,
      "Ġà¤ªà¤¹": 382,
      "à¤µà¤°": 383,
      "à¤ħ": 384,
      "à¤ľà¤¨": 385,
      "Ġà¤¸à¤ķ": 386,
      "à¥Ģà¥¤": 387,
      "ĠâĢ": 388,
      "Ġà¤¬à¤¨": 389,
      "Ġà¤ķà¤°à¤¤": 390,
      "Ġà¤®à¤¹": 391,
      "Ġà¤ĺ": 392,
      "à¥ĩà¥¤": 393,
      "à¤īà¤¨": 394,
      "à¤¼à¤¾": 395,
      "à¤°à¤¦": 396,
      "à¤°à¤®": 397,
      "à¤¢": 398,
      "à¥Ī.": 399,
      "à¤¸à¤°": 400,
      "à¤Łà¤°": 401,
      "à¤¶à¤¨": 402,
      "Ġà¤īà¤¨à¤ķ": 403,
      "Ġà¤µà¤¹": 404,
      "\"\"": 405,
      "à¥Ī,": 406,
      "Ġà¥¤": 407,
      "à¤¯à¤®": 408,
      "Ġà¤²à¤Ĺ": 409,
      "à¤¹à¤°": 410,
      "Ġà¤īà¤ª": 411,
      "Ġà¤¸à¤ķà¤¤": 412,
      "à¤®à¤²": 413,
      "Ġ20": 414,
      "Ġà¤§": 415,
      "à¤Ŀ": 416,
      "à¤¯à¤°": 417,
      "à¤ģ": 418,
      "Ġà¤¤à¤ķ": 419,
      "à¤°à¤£": 420,
      "à¤ªà¤°": 421,
      "à¤Ĺà¤°": 422,
      "Ġà¤ªà¤¹à¤²": 423,
      "Ġà¤Ľ": 424,
      "à¥Ģ,": 425,
      "Ġà¤¸à¤°à¤ķ": 426,
      "à¤²à¤¨": 427,
      "Ġà¤Ĺà¤Ī": 428,
      "à¤¯à¤¹": 429,
      "à¤ªà¤¤": 430,
      "Ġà¤¤à¤°": 431,
      "à¤¹à¤®": 432,
      "Ġà¤µà¤°": 433,
      "à¤²à¤¯": 434,
      "à¤°à¤¸": 435,
      "à¤²à¤¤": 436,
      "Ġà¤Ĩà¤ª": 437,
      "à¤¨à¤®": 438,
      "Ġà¤ħà¤²": 439,
      "00": 440,
      "Ġà¤Ĩà¤°": 441,
      "à¤ıà¤¸": 442,
      "Ġà¤Ĳ": 443,
      "à¤Łà¤¨": 444,
      "à¤¬à¤°": 445,
      "à¥ģà¤Ĥ": 446,
      "Ġà¤īà¤¸à¤ķ": 447,
      "à¤Ĩà¤Ī": 448,
      "Ġà¤Ĩà¤¯": 449,
      "Ġà¤īà¤¤": 450,
      "Ġà¤ķà¤®": 451,
      "à¤¼à¥Ģ": 452,
      "à¤ĺ": 453,
      "Ġà¤Ĺà¤ı": 454,
      "à¤¹à¤¤": 455,
      "Ġà¤¸à¤¹": 456,
      "ĠâĢĺ": 457,
      "Ġà¤ħà¤Ń": 458,
      "Ġà¤¸à¤¬": 459,
      "Ġà¤¬à¤¹": 460,
      "Ġ3": 461,
      "à¤®à¤¨": 462,
      "à¤°à¤µ": 463,
      "à¤¨à¤ķ": 464,
      "à¤·à¤£": 465,
      "Ġà¤°à¤ĸ": 466,
      "à¤¸à¤®": 467,
      "Ġà¤ľà¤¬": 468,
      "à¤®à¤¤": 469,
      "à¤µà¤¨": 470,
      "Ġà¤¦à¤°": 471,
      "à¤ľà¤°": 472,
      "Ġà¤¬à¤¢": 473,
      "à¤ıà¤Ĺ": 474,
      "Ġà¤¤à¤¥": 475,
      "Ġà¤¬à¤¤": 476,
      "à¤¯à¤¨": 477,
      "à¤¯à¤¤": 478,
      "à¤¾.": 479,
      "Ġà¤Ĳà¤¸": 480,
      "à¤ļà¤¨": 481,
      "à¥ĩ,": 482,
      "à¤µà¤¹": 483,
      "Ġà¤ĳ": 484,
      "Ġà¤ıà¤µ": 485,
      "à¤Ĺà¤¤": 486,
      "à¤µà¤¸": 487,
      "à¤¨à¤¤": 488,
      "à¤¸à¤²": 489,
      "à¤ıà¤®": 490,
      "Ġà¤¸à¤Ń": 491,
      "Ġà¥": 492,
      "à¤°à¤§": 493,
      "à¤¸à¤ķ": 494,
      "Ġà¤ªà¤¤": 495,
      "Ġ201": 496,
      "Ġà¤ĵ": 497,
      "à¤¼à¥ĩ": 498,
      "à¤ĩà¤¸à¤ķ": 499,
      "âĢĻ": 500,
      "Ġà¤ĩà¤¸à¤ķ": 501,
      "à¤ĩà¤¨": 502,
      "à¤¸à¤¨": 503,
      "à¥Ĥà¤Ĥ": 504,
      "à¤§à¤¨": 505,
      "à¤ªà¤¯": 506,
      "à¤¤à¤¨": 507,
      "à¤¦à¤°": 508,
      "Ġà¤¤à¤°à¤¹": 509,
      "à¤¾à¤ģ": 510,
      "à¤®à¤°": 511,
      "à¥ľ": 512,
      "Ġ5": 513,
      "à¥Īà¤Ĥ.": 514,
      "Ġà¤¹à¤°": 515,
      "à¥Īà¤Ĥ,": 516,
      "Ġà¤¸à¤®à¤¯": 517,
      "Ġà¤ħà¤µ": 518,
      "à¤ŀ": 519,
      "Ġà¤ĩà¤¨": 520,
      "Ġà¤¬à¤¡": 521,
      "Ġ'": 522,
      "Ġ4": 523,
      "Ġà¤īà¤¦": 524,
      "à¤ķà¤²": 525,
      "à¤¦à¤¨": 526,
      "Ġà¤¬à¤ļ": 527,
      "à¤¯à¤²": 528,
      "Ġà¤ħà¤°": 529,
      "à¤Ķà¤°": 530,
      "Ġà¤Ĩà¤§": 531,
      "à¤ľà¤ª": 532,
      "Ġà¤¸à¤°": 533,
      "Ġ-": 534,
      "à¤¸à¤¦": 535,
      "Ġà¤Ĩà¤¤": 536,
      "à¤Ĩà¤°": 537,
      "Ġà¤Ĩà¤µ": 538,
      "Ġà¤¬à¤²": 539,
      "Ġà¤ħà¤®": 540,
      "Ġà¤Ĩà¤Ī": 541,
      "Ġà¤ľà¤°": 542,
      "à¥Ģ.": 543,
      "Ġà¤ħà¤¸": 544,
      "Ġà¤ķà¤Ī": 545,
      "Ġà¤ļà¤²": 546,
      "à¤¬à¤²": 547,
      "à¤¶à¤ķ": 548,
      "à¤¼à¤¿": 549,
      "à¤ķà¤¤": 550,
      "à¤Ĺà¤²": 551,
      "Âł": 552,
      "Ġà¤Ī": 553,
      "Ġà¤Ĩà¤Ĺ": 554,
      "à¤°à¤Ń": 555,
      "à¤¸à¤Ń": 556,
      "à¤ªà¤ķ": 557,
      "Ġà¤Ĩà¤ľ": 558,
      "Ġ\"\"": 559,
      "Ġà¤ķà¤ª": 560,
      "Ġà¤Ĩà¤¦": 561,
      "à¤²à¤¬": 562,
      "20": 563,
      "à¤°à¤¶": 564,
      "à¤ķà¤°à¤£": 565,
      "à¤µà¤¤": 566,
      "à¤°à¤¯": 567,
      "Ġà¤¸à¤¬à¤¸": 568,
      "Ġ6": 569,
      "Ġà¤Ńà¤°": 570,
      "à¥Ģ)": 571,
      "Ġà¤ľà¤¨": 572,
      "Ġà¤®à¤¨": 573,
      "Ġà¤ħà¤ª": 574,
      "à¤¦à¤¸": 575,
      "à¤®à¤ķ": 576,
      "à¤¹à¤¨": 577,
      "Ġà¤ľà¤²": 578,
      "Ġà¤ł": 579,
      "à¤ľà¤¬": 580,
      "à¤ıà¤ķ": 581,
      "à¤°à¤ªà¤¤": 582,
      "Ġà¤ħà¤ļ": 583,
      "Ġà¤¶à¤°": 584,
      "Ġà¤ªà¤¡": 585,
      "à¤µà¤²": 586,
      "Ġà¤ķà¤²": 587,
      "Ġà¤īà¤®": 588,
      "Ġà¤Ĩà¤ªà¤ķ": 589,
      "à¥ĩ.": 590,
      "à¤¶à¤¤": 591,
      "Ġà¤¸à¤ļ": 592,
      "Ġà¤Ŀ": 593,
      "Ġà¤ľà¤®": 594,
      "à¤Łà¤²": 595,
      "à¤°à¤¹": 596,
      "Ġà¤ıà¤¸": 597,
      "Ġà¤ħà¤ķ": 598,
      "Ġà¤Ĩà¤¨": 599,
      "à¥ĩà¤Ĥ,": 600,
      "Ġà¤¬à¤¦": 601,
      "Ġà¤ªà¤¦": 602,
      "Ġ19": 603,
      "Ġ7": 604,
      "Ġà¤ħà¤¬": 605,
      "à¤Łà¤ķ": 606,
      "à¤¤à¤ķ": 607,
      "à¤ıà¤¨": 608,
      "Ġà¤¨à¤°": 609,
      "ĠâĢľ": 610,
      "à¤Ľà¤²": 611,
      "Ġà¤®à¤¦": 612,
      "Ġà¤¸à¤®à¤Ŀ": 613,
      "Ġà¤ĺà¤°": 614,
      "Ġ10": 615,
      "à¤ıà¤²": 616,
      "Ġà¤ĵà¤°": 617,
      "à¤¡à¤²": 618,
      "Ġà¤ĩà¤²": 619,
      "à¤ľà¤²": 620,
      "à¤¯à¤¦": 621,
      "à¤¨à¤°": 622,
      "âĢĺ": 623,
      "Ġà¤ħà¤¤": 624,
      "à¤Ĳ": 625,
      "à¥ĭ,": 626,
      "à¤°à¤¦à¤°": 627,
      "Ġà¤ĳà¤«": 628,
      "à¤¦à¤µ": 629,
      "Ġ8": 630,
      "à¤²à¤ķ": 631,
      "à¤¨à¤µ": 632,
      "Ġà¤¬à¤°": 633,
      "à¤¤à¤®": 634,
      "à¤ĥ": 635,
      "à¤¨à¤²": 636,
      "à¤ĩà¤Ł": 637,
      "à¤¨à¤¨": 638,
      "Ġà¤ľà¤¹": 639,
      "Ġà¤ĸà¤°": 640,
      "Ġà¤īà¤ł": 641,
      "Ġà¤Ĭ": 642,
      "à¤łà¤ķ": 643,
      "à¤ĩà¤²": 644,
      "à¤¾-": 645,
      "à¤ıà¤«": 646,
      "à¤¡à¤°": 647,
      "Ġà¤¸à¤¦à¤¸": 648,
      "à¤¦à¤®": 649,
      "Ġ:": 650,
      "à¥ĭà¤Ĥ,": 651,
      "Ġà¤īà¤ļ": 652,
      "Ġà¤¸à¤¤": 653,
      "à¤¶à¤²": 654,
      "à¤¯à¤µà¤¸": 655,
      "à¤°à¤«": 656,
      "à¤ķà¤¡": 657,
      "à¥ĩà¤Ĥà¥¤": 658,
      "à¤¹à¤²": 659,
      "Ġà¤®à¤¹à¤¤": 660,
      "à¤ĸà¤¨": 661,
      "Ġà¤¤à¤¹à¤¤": 662,
      "à¤¿,": 663,
      "à¤°à¤²": 664,
      "à¥Ľ": 665,
      "Ġà¤ıà¤¨": 666,
      "\"\"\"": 667,
      "ĠâĢĿ": 668,
      "Ġà¤®à¤¤": 669,
      "Ġà¤ĺà¤Łà¤¨": 670,
      "Ġà¤®à¤¦à¤¦": 671,
      "Ġà¤īà¤ªà¤²à¤¬": 672,
      "Ġà¤ľà¤¬à¤ķ": 673,
      "à¤ķà¤¸": 674,
      "Ġà¤²à¤¡": 675,
      "à¤°à¤¨": 676,
      "à¤ķà¤¨": 677,
      "à¤²à¤°": 678,
      "Ġ9": 679,
      "à¤łà¤¨": 680,
      "19": 681,
      "Ġà¤ľà¤µ": 682,
      "à¤Łà¤®": 683,
      "à¤¬à¤Ī": 684,
      "à¤°à¤¬": 685,
      "Ġà¤Ĩà¤ı": 686,
      "à¥Ģ-": 687,
      "Ġà¤īà¤ªà¤¯": 688,
      "Ġà¤¨à¤µ": 689,
      "),": 690,
      "Ġ12": 691,
      "à¤¥à¤¨": 692,
      "à¤īà¤¨à¤ķ": 693,
      "Ġà¤¸à¤®à¤°": 694,
      "à¤ľà¤¯": 695,
      "Ġà¤¬à¤¦à¤²": 696,
      "000": 697,
      "à¤µà¤ķ": 698,
      "à¤µà¤ª": 699,
      "Ġà¤¶à¤¹à¤°": 700,
      "in": 701,
      "Ġà¤¢": 702,
      "à¤ļà¤°": 703,
      "à¤ľà¤¹": 704,
      "Ġà¤ħà¤²à¤Ĺ": 705,
      "à¤¯à¤ª": 706,
      "Ġà¤ªà¤°à¤®": 707,
      "Ġà¤¸à¤«": 708,
      "Ġà¤¹à¤®à¤²": 709,
      "à¤¾)": 710,
      "à¥Ī?": 711,
      "à¤īà¤¸": 712,
      "Ġà¤¸à¤²": 713,
      "à¤¼à¥ģ": 714,
      "Ġà¤Ĩà¤µà¤¶": 715,
      "Ġà¤ıà¤®": 716,
      "à¤®à¤¦": 717,
      "Ġà¤«à¤°": 718,
      "à¤¸à¤ª": 719,
      "à¤¤à¤µ": 720,
      "Ġà¤ħà¤µà¤¸à¤°": 721,
      "à¤ªà¤¸": 722,
      "Ġà¤°à¤¹à¤¨": 723,
      "Ġà¤Ĺà¤°": 724,
      "Ġà¤ħà¤¦": 725,
      "à¤ĩà¤¸à¤¸": 726,
      "à¤·à¤ķ": 727,
      "Ġà¤¤à¤¬": 728,
      "à¤²à¤µ": 729,
      "à¥ĩ)": 730,
      "Ġà¤¬à¤ľ": 731,
      "Ġà¤°à¤ĸà¤¨": 732,
      "Ġà¤ħà¤Ĺ": 733,
      "Ġà¤ªà¤¶": 734,
      "à¤ľà¤¸": 735,
      "Ġà¤¦à¤²": 736,
      "à¤ķà¤Ł": 737,
      "Ġà¤ķà¤¹à¤¤": 738,
      "Ġà¤°à¤ķ": 739,
      "Ġà¤µà¤ķ": 740,
      "Ġà¤¨à¤ľà¤°": 741,
      "Ġà¤Ĩà¤¶": 742,
      "Ġà¤ľà¤Ĺ": 743,
      "Ġà¤¨à¤Ī": 744,
      "Ġà¤¸à¤¹à¤¯": 745,
      "Ġ15": 746,
      "Ġà¤ħà¤Ĺà¤°": 747,
      "à¤Ĩà¤¤": 748,
      "on": 749,
      "Ġà¤°à¤¹à¤¤": 750,
      "à¤¸à¤¤": 751,
      "Ġà¤¹à¤®à¤¨": 752,
      "à¤¬à¤¸": 753,
      "Ġà¤ķà¤¹à¤¨": 754,
      "à¥Ĥà¤ģ": 755,
      "à¤Ĭ": 756,
      "ĠâĢĺâĢĺ": 757,
      "à¤·à¤¯": 758,
      "Ġà¤¨à¤ı": 759,
      "Ġà¤ļà¤°": 760,
      "à¤ĩà¤¸à¤®": 761,
      "Ġ.": 762,
      "Ġà¤®à¤§": 763,
      "Ġà¤Ĩà¤®": 764,
      "Ġà¤ªà¤ķ": 765,
      "à¤Ĳà¤¸": 766,
      "Ġà¤ĩà¤¸à¤®": 767,
      "Ġà¤²à¤ķ": 768,
      "Ġà¤¸à¤µ": 769,
      "an": 770,
      "à¤Ńà¤Ĺ": 771,
      "à¤®à¤¹": 772,
      "Ġ200": 773,
      "à¤Ĺà¤łà¤¨": 774,
      "Ġà¤¶à¤ķ": 775,
      "Ġà¤ķà¤Ń": 776,
      "à¤Ńà¤µ": 777,
      "Ġà¤Ĩà¤¸": 778,
      "Ġà¤®à¤°": 779,
      "à¤¨à¤¦": 780,
      "Ġà¤¬à¤¸": 781,
      "Ġà¤ħà¤«": 782,
      "Ġà¤¤à¤°à¤«": 783,
      "Ġà¤®à¤¸": 784,
      "Ġà¤ªà¤¢": 785,
      "à¤°à¤ª": 786,
      "Ġà¤¬à¤¯": 787,
      "Ġà¤Ķ": 788,
      "Ġà¤īà¤²": 789,
      "à¤ªà¤ı": 790,
      "Ġà¤°à¤¨": 791,
      "Ġà¤ķà¤°à¤ķ": 792,
      "à¥Ŀ": 793,
      "à¥Ģà¤Ĥà¥¤": 794,
      "à¤Ĺà¤¨": 795,
      "à¤ķà¤µ": 796,
      "Ġ11": 797,
      "Ġà¤ĩà¤¸à¤¸": 798,
      "Ġà¤¹à¤ľ": 799,
      "à¤¥à¤®": 800,
      "Ġà¤īà¤¸à¤¨": 801,
      "Ġà¤µà¤ľà¤¹": 802,
      "à¤¹à¤¤à¤°": 803,
      "à¤ĸà¤¤": 804,
      "à¤·à¤¤": 805,
      "à¤ħà¤²": 806,
      "Ġà¤§à¤°": 807,
      "Ġà¤ķà¤¶": 808,
      "à¥Ģà¤Ĥ,": 809,
      "Ġà¤¨à¤¯": 810,
      "er": 811,
      "ar": 812,
      "à¤²à¤ķà¤°": 813,
      "à¤¼à¥į": 814,
      "Ġà¤¹à¤¤": 815,
      "à¤Ĺà¤¢": 816,
      "à¤¸à¤¸": 817,
      "à¤¨à¤¸à¤Ń": 818,
      "Ġà¤Ĺà¤¤": 819,
      "Ġà¤¦à¤ķ": 820,
      "al": 821,
      "à¥Ĥà¤Ĥà¥¤": 822,
      "à¤ħà¤ªà¤¨": 823,
      "Ġà¤ľà¤Ĺà¤¹": 824,
      "Ġà¤¹à¤µ": 825,
      "à¤ĩà¤ķ": 826,
      "à¤¥à¤µ": 827,
      "à¤ľà¤®": 828,
      "à¤¬à¤¦": 829,
      "à¤ĸà¤°": 830,
      "Ġà¤°à¤¸": 831,
      "à¤¯à¤µ": 832,
      "Ġà¤²à¤Ĺà¤Ńà¤Ĺ": 833,
      "Ġà¤¯à¤¦": 834,
      "Ġà¤¸à¤®à¤¸": 835,
      "Ġ14": 836,
      "Ġ13": 837,
      "Ġà¤Ĩà¤ķ": 838,
      "Ġà¤ħà¤¹à¤®": 839,
      "Ġà¤®à¤ľà¤¬": 840,
      "à¤®à¤ļ": 841,
      "à¤ħà¤¨": 842,
      "Ġà¥Ļ": 843,
      "à¥ĩ-": 844,
      "Ġà¤°à¤ĸà¤¤": 845,
      "at": 846,
      "Ġà¤²à¤Ĺà¤¤": 847,
      "Ġà¤ĩà¤¨à¤ķ": 848,
      "..": 849,
      "Ġà¤µà¤¸": 850,
      "à¤¼à¥ĭ": 851,
      "Ġà¤ıà¤ľ": 852,
      "à¤¨à¤Ī": 853,
      "à¤£à¤¨": 854,
      "à¤īà¤¸à¤ķ": 855,
      "à¤·à¤®à¤¤": 856,
      "à¤µà¤µ": 857,
      "Ġ18": 858,
      "à¤µà¤°à¤£": 859,
      "Ġ25": 860,
      "Ġà¤ķà¤¦à¤®": 861,
      "Ġà¤¸à¤ª": 862,
      "à¤ķà¤¸à¤Ń": 863,
      "§à¥": 864,
      "Ġà¤ĩà¤¸à¤²": 865,
      "Ġà¤ıà¤²": 866,
      "à¤¸à¤µ": 867,
      "à¤§à¤°": 868,
      "Ġà¤ħà¤ªà¤°": 869,
      "à¤ļà¤²": 870,
      "à¥ĭà¥¤": 871,
      "Ġà¤ľà¤¨à¤¤": 872,
      "à¤¥à¤²": 873,
      "à¤¹à¤ķ": 874,
      "Ġà¤ħà¤Ĺà¤²": 875,
      "à¤ľà¤¦": 876,
      "à¤¼à¥ĭà¤Ĥ": 877,
      "Ġà¤ªà¤¹à¤ļ": 878,
      "à¤¨à¤¸": 879,
      "à¤ĩà¤¸à¤²": 880,
      "ĠS": 881,
      "Ġà¤ļà¤²à¤¤": 882,
      "à¤Ńà¤°": 883,
      "à¤¯à¤¸": 884,
      "à¤®à¤¸": 885,
      "à¤ıà¤ļ": 886,
      "à¤Łà¤«": 887,
      "Ġà¤ķà¤¬": 888,
      "à¤¬à¤¹": 889,
      "à¤Ĺà¤®": 890,
      "Ġà¤ħà¤µà¤§": 891,
      "à¤¬à¤¨": 892,
      "Ġ16": 893,
      "Ġà¤¹à¤¸": 894,
      "Ġà¤§à¤¨": 895,
      "à¤¯à¤ķà¤¤": 896,
      "à¤¶à¤¨à¤²": 897,
      "Ġ2020": 898,
      "Ġ2019": 899,
      "Ġà¤¤à¤¸": 900,
      "ĠP": 901,
      "es": 902,
      "Ġà¤°à¤µ": 903,
      "Ġà¤Ńà¤µ": 904,
      "à¤¤à¤ļ": 905,
      "à¤¾?": 906,
      "à¤¡à¤®": 907,
      "à¥Įà¤Ĥ": 908,
      "Ġà¤¤à¤²": 909,
      "Ġà¤ıà¤¯à¤°": 910,
      "Ġà¤ħà¤ľ": 911,
      "Ġ0": 912,
      "à¤ĺà¤Łà¤¨": 913,
      "à¤ªà¤·": 914,
      "Ġ30": 915,
      "201": 916,
      "à¤ľà¤Ĺ": 917,
      "à¤°à¤ľ": 918,
      "Ġà¤¤à¤¤": 919,
      "à¤¬à¤¤": 920,
      "à¤µà¤ľà¤¨": 921,
      "à¤¸à¤°à¤ķ": 922,
      "Ġ50": 923,
      "ĠA": 924,
      "à¤ªà¤£": 925,
      "à¤¦à¤Ĺ": 926,
      "Ġà¤Īà¤®": 927,
      "ĠC": 928,
      "à¤ĩà¤¡": 929,
      "à¤Ĩà¤ª": 930,
      "or": 931,
      "à¤£à¤¯": 932,
      "Ġà¤īà¤¨à¤¸": 933,
      "à¤·à¤¦": 934,
      "à¤§à¤¤": 935,
      "à¤²à¤¹": 936,
      "à¤Ľà¤¤": 937,
      "en": 938,
      "à¤ħà¤®": 939,
      "Ġà¤¦à¤¸": 940,
      "Ġà¤¤à¤®": 941,
      "à¥¦": 942,
      "ĠâĢĶ": 943,
      "Ġà¤Ĩà¤²": 944,
      "Ġà¤ĩà¤ķ": 945,
      "Ġà¤¶à¤¬": 946,
      "ĠR": 947,
      "à¤µà¤ľ": 948,
      "à¤µà¤§": 949,
      "à¤¦à¤ķ": 950,
      "à¥Ĥ-": 951,
      "Ġà¤¹à¤Ł": 952,
      "à¤ħà¤Ń": 953,
      "Ġà¤ķà¤¨": 954,
      "à¤¼à¥ĩà¤Ĥ": 955,
      "à¤·à¤®": 956,
      "à¤ķà¤ª": 957,
      "à¤ķà¤¶": 958,
      "Ġà¤¸à¤¡": 959,
      "Ġà¤īà¤ªà¤¸": 960,
      "Ġà¤ĩà¤¤": 961,
      "Ġà¤ªà¤Ł": 962,
      "à¤¿âĢį": 963,
      "à¤¹à¤¦": 964,
      "Ġà¤īà¤¸à¤¸": 965,
      "Ġ24": 966,
      "à¤ħà¤Ĺà¤°": 967,
      "à¤°à¤ļ": 968,
      "à¥ī.": 969,
      "Ġ17": 970,
      "Ġà¤Ĭà¤°": 971,
      "à¥Īà¤Ĥ?": 972,
      "à¤°à¤®à¤£": 973,
      "à¤ĺà¤°": 974,
      "à¤ħà¤§": 975,
      "à¤Ĺà¤¦": 976,
      "à¤«à¤°": 977,
      "à¤ªà¤²": 978,
      "99": 979,
      "à¤ħà¤¬": 980,
      "à¥ĺ": 981,
      "ic": 982,
      "Ġà¥§à¥": 983,
      "Ġà¤®à¤²": 984,
      "Ġà¤µà¤¨": 985,
      "Ġà¤ĩà¤¤à¤¨": 986,
      "à¤²à¤¸": 987,
      "à¤°à¤ĸ": 988,
      "Ġ2018": 989,
      "à¤ĩà¤¯": 990,
      "Ġ2017": 991,
      "à¤¦à¤¬": 992,
      "ĠI": 993,
      "à¥ģà¤ģ": 994,
      "Ġà¤¨à¤Ĺà¤°": 995,
      "à¤µà¤¯": 996,
      "Ġà¤Ĺà¤ł": 997,
      "Ġà¤ĸà¤¬à¤°": 998,
      "à¤ľà¤ķ": 999,
      "à¤¾:": 1000,
      "à¤īà¤¤": 1001,
      "à¤¹à¤°à¤£": 1002,
      "Ġà¤¶à¤µ": 1003,
      "à¤¯à¤°à¤¸": 1004,
      "Ġà¤ļà¤°à¤£": 1005,
      "Ġà¤Ĺà¤²à¤¤": 1006,
      "Ġà¤ıà¤«": 1007,
      "Ġ100": 1008,
      "à¤¹à¤¸": 1009,
      "à¤²à¤®": 1010,
      "Ġà¤ĭ": 1011,
      "à¤µà¤ļ": 1012,
      "Ġà¤ħà¤¶": 1013,
      "Ġà¥Ľ": 1014,
      "à¤µà¤¶": 1015,
      "à¤¸à¤¬": 1016,
      "Ġà¤ħà¤®à¤°": 1017,
      "à¤ĳ": 1018,
      "Ġ,": 1019,
      "Ġà¤ľà¤¤": 1020,
      "Ġà¤ķà¤°à¤µ": 1021,
      "ĠB": 1022,
      "Ġà¤ĸà¤¡": 1023,
      "Ġà¤ªà¤¸": 1024,
      "ĠM": 1025,
      "âĢĿ": 1026,
      "à¤ļà¤ķ": 1027,
      "à¤Ĥà¥¤": 1028,
      "à¤§à¤µ": 1029,
      "Ġà¤®à¤¤à¤¦": 1030,
      "à¤¤à¤°à¤°": 1031,
      "à¤ħà¤ª": 1032,
      "à¤¯à¤¯à¤¨": 1033,
      "à¤¸à¤ļ": 1034,
      "à¤¡à¤¨": 1035,
      "Ġà¤ķà¤Ł": 1036,
      "Ġà¤¬à¥Ŀ": 1037,
      "Ġà¤ħà¤°à¤¬": 1038,
      "50": 1039,
      "Ġà¤¤à¤¯": 1040,
      "Ġà¤ĸà¤¤à¤°": 1041,
      "Ġ21": 1042,
      "à¤¯à¤ķà¤°": 1043,
      "Ġà¤ıà¤¶": 1044,
      "à¤Ĩà¤ªà¤ķ": 1045,
      "Ġà¤¬à¥ľ": 1046,
      "Ġà¤īà¤¨à¤®": 1047,
      "Ġà¤¤à¤ķà¤¨": 1048,
      "à¤¦à¤²": 1049,
      "à¤ľà¤µ": 1050,
      "Ġà¤¸à¤ľ": 1051,
      "à¤®à¤Ĺ": 1052,
      "à¤ıà¤¸à¤Ł": 1053,
      "Ġà¤Ĭà¤ªà¤°": 1054,
      "Ġà¤īà¤¡": 1055,
      "Ġà¤Ĩà¤ĸ": 1056,
      "Ġà¤¬à¤¨à¤¨": 1057,
      "à¤ªà¤®": 1058,
      "Ġà¤ķà¤¡": 1059,
      "à¤ªà¤¹à¤²": 1060,
      "à¤ĸà¤²": 1061,
      "ion": 1062,
      "Ġà¤¹à¤²": 1063,
      "à¥ĭ)": 1064,
      "Ġà¤¸à¤¨": 1065,
      "Ġà¤¸à¤¦": 1066,
      "âĢĻâĢĻ": 1067,
      "Ġà¤¦à¤¬": 1068,
      "à¤µà¤Ł": 1069,
      "Ġà¤¨à¤ķ": 1070,
      "à¥Īà¥¤\"": 1071,
      "à¤°à¤¹à¤£": 1072,
      "à¤¹à¤®à¤¤": 1073,
      "à¤Ĩà¤ľ": 1074,
      "à¤¹à¤®à¤¨": 1075,
      "Ġà¤ħà¤ĸ": 1076,
      "ĠN": 1077,
      "à¥ŀ": 1078,
      "Ġ22": 1079,
      "st": 1080,
      "à¤¤à¤°à¤£": 1081,
      "Ġà¤Ľà¤¹": 1082,
      "à¤ĩà¤¨à¤®": 1083,
      "Ġà¤¨à¤¦": 1084,
      "Ġà¤¬à¤§": 1085,
      "Ġà¤¡à¤°": 1086,
      "à¥ĩà¤Ĥ.": 1087,
      "Ġà¤®à¤ľ": 1088,
      "it": 1089,
      "à¤°à¤Ĺ": 1090,
      "Ġà¤ĳà¤¸": 1091,
      "à¤ªà¤Ł": 1092,
      "à¤µà¤¹à¤¨": 1093,
      "Ġà¤ķà¤¥": 1094,
      "21": 1095,
      "Ġà¤¸à¤«à¤²à¤¤": 1096,
      "à¤¤à¤ľ": 1097,
      "à¤ĩà¤¬à¤²": 1098,
      "Ġà¤Ĺà¤£": 1099,
      "10": 1100,
      "Ġà¤ªà¤µ": 1101,
      "à¤ªà¤¡": 1102,
      "à¤Łà¤°à¤¨": 1103,
      "Ġà¤ıà¤ļ": 1104,
      "à¥Ģ:": 1105,
      "200": 1106,
      "à¤²à¤Ĺ": 1107,
      "à¤¤à¤¤": 1108,
      "Ġà¤®à¤ķ": 1109,
      "à¤ĩà¤µ": 1110,
      "Ġà¤ľà¤¨à¤µà¤°": 1111,
      "Ġà¤Ĩà¤¦à¤®": 1112,
      "di": 1113,
      "Ġà¤ĸà¤¤": 1114,
      "à¤®à¤¯": 1115,
      "à¤«à¤²": 1116,
      "à¤¯à¤¡": 1117,
      "Ġà¤°à¤£": 1118,
      "GB": 1119,
      "à¤°à¤µà¤ķ": 1120,
      "Ġà¤ħà¤Ĺà¤¸": 1121,
      "Ġà¤¨à¤®": 1122,
      "à¤ĩà¤¨à¤²": 1123,
      "à¤®à¤µ": 1124,
      "à¤¸à¤²à¤®": 1125,
      "le": 1126,
      "Ġà¤ĺà¤Ł": 1127,
      "à¤Ĺà¤µ": 1128,
      "à¤¡à¤¬": 1129,
      "à¤¨à¤¯": 1130,
      "Ġà¤ķà¤ł": 1131,
      "Ġà¤Ńà¤µà¤¨": 1132,
      "Ġà¤ªà¤ķà¤¡": 1133,
      "à¥Ī:": 1134,
      "Ġà¤īà¤ªà¤ļ": 1135,
      "à¤¶à¤°": 1136,
      "à¤·à¤°": 1137,
      "à¤īà¤¸à¤¨": 1138,
      "à¤¨à¤Ĺà¤°": 1139,
      "à¤Ĩà¤Īà¤¸": 1140,
      "à¤Ńà¤ķ": 1141,
      "à¤ħà¤°": 1142,
      "Ġà¤ıà¤¡": 1143,
      "à¤ĩà¤ľ": 1144,
      "Ġ2016": 1145,
      "à¤ĩà¤®": 1146,
      "Ġà¤¸à¤¬à¤ķ": 1147,
      "12": 1148,
      "Ġ28": 1149,
      "Ġà¤īà¤¸à¤®": 1150,
      "Ġà¤¸à¤«à¤²": 1151,
      "Ġ40": 1152,
      "Ġà¤¸à¤¹à¤®à¤¤": 1153,
      "Ġ23": 1154,
      "à¤ķà¤®": 1155,
      "Ġà¤®à¤Ī": 1156,
      "Ġà¤Ĩà¤ķà¤°": 1157,
      "ro": 1158,
      "Ġà¤ľà¤¯": 1159,
      "à¤ļà¤¯": 1160,
      "Ġà¤°à¤ľ": 1161,
      "Ġà¤®à¤¶": 1162,
      "âĢľ": 1163,
      "Ġà¤ªà¤°à¤µà¤°": 1164,
      "am": 1165,
      "à¥ĩà¤Ĥ)": 1166,
      "à¤Ĺà¤¡": 1167,
      "Ġà¤ħà¤¥à¤µ": 1168,
      "Ġà¤Ńà¤²": 1169,
      "à¤°à¤Ĺà¤¤": 1170,
      "Ġà¤¤à¤¨": 1171,
      "ĠâĢĻ": 1172,
      "à¤¯à¤°à¤²": 1173,
      "à¤Ĥ,": 1174,
      "Ġà¤Ĩà¤ł": 1175,
      "à¤¤à¤¬": 1176,
      "Ġà¤ħà¤¹à¤®à¤¦": 1177,
      "Ġà¤®à¤¹à¤¸": 1178,
      "Ġà¤¬à¤ľà¤Ł": 1179,
      "Ġà¤¬à¤¹à¤¨": 1180,
      "à¤ħà¤²à¤Ĺ": 1181,
      "Ġà¤Ĺà¤¹à¤°": 1182,
      "Ġà¥¨": 1183,
      "à¤īà¤¦": 1184,
      "Ġà¤ªà¤²": 1185,
      "Ġà¤Ĺà¤łà¤¬": 1186,
      "à¤ķà¤Ī": 1187,
      "à¤Īà¤ķ": 1188,
      "Ġà¤ħà¤¸à¤®": 1189,
      "à¤ĺà¤¨": 1190,
      "à¥ĭ-": 1191,
      "Ġà¤łà¤¹à¤°": 1192,
      "Ġà¤«à¤°à¤µà¤°": 1193,
      "ed": 1194,
      "à¤¸à¤ķà¤°": 1195,
      "Ġà¤ªà¤°à¤µà¤°à¤¦": 1196,
      "70": 1197,
      "30": 1198,
      "Ġ31": 1199,
      "Ġà¤ļà¤¯à¤¨": 1200,
      "Ġà¤ĩà¤®": 1201,
      "\\\\": 1202,
      "Ġ/": 1203,
      "Ġà¤®à¤¤à¤²à¤¬": 1204,
      "Ġà¤ĳà¤¨à¤²": 1205,
      "à¤°à¤¥à¤®": 1206,
      "ĠT": 1207,
      "Ġ26": 1208,
      "Ġà¤ľà¤¸": 1209,
      "Ġà¥ĺ": 1210,
      "à¤Łà¤µà¤°": 1211,
      "Ġà¤ľà¤¨à¤°à¤²": 1212,
      "à¤§à¤ķ": 1213,
      "à¥ĥà¤Ĥ": 1214,
      "Ġà¤°à¤¬": 1215,
      "à¤īà¤Ł": 1216,
      "à¤ªà¤¦": 1217,
      "à¥ĩ?": 1218,
      "à¤ľà¤§": 1219,
      "18": 1220,
      "Ġà¤ķà¤ķ": 1221,
      "Ġà¤īà¤°": 1222,
      "à¤¥à¤ķ": 1223,
      "ĠâĢĵ": 1224,
      "à¤¥à¤°": 1225,
      "Ġà¤¨à¤ľ": 1226,
      "Ġà¤®à¤£": 1227,
      "à¤¯à¤Łà¤¨": 1228,
      "à¤¡à¤¸": 1229,
      "Ġs": 1230,
      "Ġà¤ĩà¤ļ": 1231,
      "Ġà¤ıà¤ª": 1232,
      "à¤¦à¤¯": 1233,
      "ĠG": 1234,
      "Ġà¤ªà¤¦à¤ķ": 1235,
      "Ġà¤īà¤ªà¤ķà¤°à¤£": 1236,
      "à¤¨à¤¤à¤®": 1237,
      "Ġà¤Ĩà¤Īà¤ª": 1238,
      "à¤°à¤·": 1239,
      "Ġà¤ĭà¤£": 1240,
      "à¤¶à¤µ": 1241,
      "à¤¼,": 1242,
      "Ġà¤ĩà¤ľ": 1243,
      "Ġà¤Łà¤¨": 1244,
      "à¤¯à¤µà¤¹": 1245,
      "11": 1246,
      "Ġà¤Ĩà¤ªà¤¸": 1247,
      "à¤ªà¤Łà¤¨": 1248,
      "Ġà¤¶à¤ĸ": 1249,
      "Ġà¤¸à¤²à¤®": 1250,
      "Ġà¤¸à¤®à¤ķ": 1251,
      "ĠD": 1252,
      "Ġ27": 1253,
      "Ġà¤¹à¤ķ": 1254,
      "re": 1255,
      "à¤£à¤µà¤¤": 1256,
      "Ġà¤īà¤ªà¤°": 1257,
      "à¤ªà¤¶": 1258,
      "Ġà¤¦à¤µ": 1259,
      "17": 1260,
      "à¥Ĥ,": 1261,
      "Ġà¤Ĩà¤¬": 1262,
      "Ġà¤Ľà¤¤": 1263,
      "15": 1264,
      "à¤Ĺà¤ľ": 1265,
      "à¥Ģà¤Ĥ.": 1266,
      "à¤·à¤ľ": 1267,
      "à¤ķà¤¹": 1268,
      "à¤°à¤ļà¤¨": 1269,
      "à¤ľà¤¨à¤ķ": 1270,
      "à¥Ļ": 1271,
      "Ġ2014": 1272,
      "à¤ļà¤¤": 1273,
      "om": 1274,
      "Ġ2015": 1275,
      "Ġà¤ħà¤¸à¤°": 1276,
      "à¤¨à¤¬": 1277,
      "Ġà¤¹à¤¥": 1278,
      "à¤¬à¤¡": 1279,
      "Ġà¤¸à¤ĸ": 1280,
      "Ġà¤Ĺà¤łà¤¨": 1281,
      "Ġà¤Ĩà¤Īà¤¸": 1282,
      "Ġà¤ıà¤ķà¤¤": 1283,
      "à¤ªà¤¥": 1284,
      "Ġ29": 1285,
      "Ġà¤¶à¤¹": 1286,
      "à¤ıà¤¸à¤ª": 1287,
      "Ġà¤ļà¤²à¤¨": 1288,
      "à¤Ĩà¤Īà¤Ł": 1289,
      "à¤®à¤Ĺà¤°": 1290,
      "Ġà¤Ĩà¤ıà¤Ĺ": 1291,
      "Ġ32": 1292,
      "à¤¨à¤ª": 1293,
      "à¤¤à¤²": 1294,
      "à¤ķà¤¦à¤®": 1295,
      "ĠF": 1296,
      "16": 1297,
      "ĠH": 1298,
      "à¤¾à¥¤\"": 1299,
      "Ġà¤¤à¤Ł": 1300,
      "Ġà¤ĵà¤µà¤°": 1301,
      "Ġà¤¨à¤¤": 1302,
      "Ġà¤ħà¤¡": 1303,
      "us": 1304,
      "Ġà¤Īà¤°": 1305,
      "ct": 1306,
      "à¤°à¤µà¤°": 1307,
      "à¤¨à¤ķà¤°": 1308,
      "Ġin": 1309,
      "Ġà¤īà¤ªà¤Ń": 1310,
      "Ġc": 1311,
      "22": 1312,
      "à¤²à¤¦": 1313,
      "à¤ħà¤¤": 1314,
      "à¤®à¤§": 1315,
      "Ġà¤Ĺà¤µ": 1316,
      "à¤Łà¤¬": 1317,
      "ing": 1318,
      "ra": 1319,
      "à¤¨à¤¹": 1320,
      "Ġà¤ļà¤ķ": 1321,
      "Ġà¤ħà¤¯": 1322,
      "âĢ¦": 1323,
      "el": 1324,
      "Ġà¤ķà¤®à¤ľ": 1325,
      "Ġà¤ĵà¤²": 1326,
      "Ġà¤ĩà¤°": 1327,
      "à¤¯à¤¸à¤Ń": 1328,
      "Ġà¤®à¤Ĺà¤°": 1329,
      "à¥ĭ.": 1330,
      "à¤®à¤ª": 1331,
      "Ġà¤ªà¥ľ": 1332,
      "à¥ħ": 1333,
      "à¤®à¤£": 1334,
      "à¤ľà¤¤": 1335,
      "à¤ļà¤¤à¤®": 1336,
      "Ġà¤°à¤¦": 1337,
      "14": 1338,
      "Ġà¤°à¤£à¤¨": 1339,
      "Ġà¤Īà¤¸": 1340,
      "à¤µà¤¯à¤¨": 1341,
      "à¤Łà¤µ": 1342,
      "Ġ35": 1343,
      "à¤¡à¤ķà¤°": 1344,
      "à¥Ģ?": 1345,
      "à¤ıà¤¸à¤ıà¤¸": 1346,
      "25": 1347,
      "Ġà¤¹à¤«": 1348,
      "Ġà¤īà¤¤à¤°": 1349,
      "th": 1350,
      "à¤¡à¤µ": 1351,
      "à¤Łà¤¤": 1352,
      "Ġ199": 1353,
      "Ġà¤ķà¤ļ": 1354,
      "Ġà¤Ńà¤Ł": 1355,
      "à¤¤à¤ª": 1356,
      "à¤¿-": 1357,
      "Ġà¤¯à¤ķ": 1358,
      "¯à¥": 1359,
      "Ġ60": 1360,
      "ol": 1361,
      "à¤¡à¤ķ": 1362,
      "ĠE": 1363,
      "à¤¾'": 1364,
      "à¤Ĭà¤¦": 1365,
      "is": 1366,
      "Ġà¤ķà¤µ": 1367,
      "Ġà¤Ĩà¤¹": 1368,
      "à¤ľà¤¬à¤ķ": 1369,
      "à¤¸à¤Ĺà¤¢": 1370,
      "à¤Ĩà¤Īà¤Ĩà¤°": 1371,
      "un": 1372,
      "à¤²à¤ļ": 1373,
      "Ġà¤¶à¤¤": 1374,
      "à¤¾âĢĻ": 1375,
      "Ġ''": 1376,
      "à¤ıà¤®à¤¸": 1377,
      "Ġà¤Ķà¤¦": 1378,
      "ent": 1379,
      "à¤¯à¤°à¤®": 1380,
      "à¤°à¤°": 1381,
      "Ġà¤ħà¤µà¤¸": 1382,
      "as": 1383,
      "Ġà¤Ĩà¤¦à¤°": 1384,
      "à¤ĩà¤¨à¤ķ": 1385,
      "Ġà¤Ńà¤Ĺà¤µ": 1386,
      "à¤ĸà¤ķà¤°": 1387,
      "à¤¨à¤Ł": 1388,
      "à¤ĩà¤ı": 1389,
      "Ġà¤§à¤°à¤¤": 1390,
      "à¤ĸà¤ķ": 1391,
      "à¤¦à¤¦": 1392,
      "Ġà¤ıà¤¡à¤®": 1393,
      "âĢĮ": 1394,
      "Ġ70": 1395,
      "Ġà¤ıà¤¨à¤¸": 1396,
      "...": 1397,
      "Ġà¤¦à¤®": 1398,
      "à¥Ī)": 1399,
      "à¤īà¤ª": 1400,
      "Ġà¤«à¤¸à¤²": 1401,
      "Ġà¤¦à¤¶à¤ķ": 1402,
      "à¤łà¤Ń": 1403,
      "Ġà¤®à¤ļ": 1404,
      "à¤Īà¤¸": 1405,
      "Ġà¤Ĳà¤¤": 1406,
      "Ġà¤¶à¤ªà¤¥": 1407,
      "à¤ıà¤¶à¤¨": 1408,
      "à¥Ĥà¤Ĥ.": 1409,
      "Ġà¤µà¤¨à¤¡": 1410,
      "ch": 1411,
      "à¤¶à¤®": 1412,
      "Ġà¤Ńà¤¯": 1413,
      "Ġà¤ĩà¤¬": 1414,
      "à¤ķà¤¤à¤®": 1415,
      "et": 1416,
      "Ġà¤«à¤²": 1417,
      "à¤ħà¤ķ": 1418,
      "à¤Ĩà¤Īà¤ª": 1419,
      "Ġ2013": 1420,
      "Ġà¤¸à¤¦à¤¨": 1421,
      "Ġà¤Ĺà¤²": 1422,
      "Ġà¤ªà¤¨": 1423,
      "à¤¬à¤ļ": 1424,
      "13": 1425,
      "à¤ıà¤Ł": 1426,
      "Ġà¤ĩà¤®à¤°": 1427,
      "ul": 1428,
      "à¤ıà¤¡": 1429,
      "à¤ĩà¤ª": 1430,
      "à¤Ĩà¤°à¤¸": 1431,
      "à¥Ĥà¤Ĥ,": 1432,
      "Ġ80": 1433,
      "à¤¼à¥Ī": 1434,
      "à¤Ĩà¤¯": 1435,
      "Ġà¤ĵà¤¡": 1436,
      "Ġ198": 1437,
      "à¤¼à¥Į": 1438,
      "ot": 1439,
      "Ġà¤ħà¤«à¤Ĺ": 1440,
      "Ġà¤®à¤ľà¤¦": 1441,
      "Ġà¤ļà¤¢": 1442,
      "Ġà¤ĳà¤ªà¤°": 1443,
      "MP": 1444,
      "à¤¿)": 1445,
      "60": 1446,
      "à¤¯à¤¶": 1447,
      "40": 1448,
      "ĠK": 1449,
      "à¥Ģ'": 1450,
      "à¤¦à¤¤": 1451,
      "Ġà¤Ĩà¤¸à¤ª": 1452,
      "à¤°à¤¸à¤¨": 1453,
      "ĠL": 1454,
      "à¤¾à¤Ĥ,": 1455,
      "Ġà¤¸à¤®à¤Ŀà¤¤": 1456,
      "Ġà¤Īà¤¶": 1457,
      "Ġà¤¦à¤¯": 1458,
      "Ġ48": 1459,
      "il": 1460,
      "ov": 1461,
      "à¤Ĺà¤²à¤µ": 1462,
      "Ġà¤²à¤Ĺà¤¨": 1463,
      "ay": 1464,
      "à¤²à¤Ń": 1465,
      "Ġà¤°à¤ļà¤¨": 1466,
      "Ġà¤ľà¤¡": 1467,
      "à¥ģ,": 1468,
      "à¤°à¤ķà¤°": 1469,
      "Ġà¤Ĩà¤īà¤Ł": 1470,
      "à¥ļ": 1471,
      "à¤ıà¤¸à¤¸": 1472,
      "Ġà¤¸à¤¸": 1473,
      "à¤ıà¤¸à¤Ī": 1474,
      "ĠO": 1475,
      "à¤ıà¤«à¤¸": 1476,
      "iv": 1477,
      "à¥ľà¤ķ": 1478,
      "Ġ|": 1479,
      "Ġà¤®à¤¨à¤®": 1480,
      "44": 1481,
      "à¤ªà¤ļ": 1482,
      "Ġà¤ħà¤°à¤µ": 1483,
      "Ġ500": 1484,
      "à¥įâĢĮ": 1485,
      "Ġ2012": 1486,
      "Ġà¤ĳà¤Ł": 1487,
      "Ġà¤¸à¤®à¤Ŀà¤¨": 1488,
      "à¤Ĥ.": 1489,
      "Ġ64": 1490,
      "Ġà¤¨à¤¸": 1491,
      "xa": 1492,
      "Ġà¤īà¤ľ": 1493,
      "à¤¹à¤¨à¤¤": 1494,
      "à¤Ĩà¤°à¤ª": 1495,
      "à¥ĢâĢĻ": 1496,
      "ation": 1497,
      "ĠIn": 1498,
      "Ġà¤¸à¤ªà¤¨": 1499,
      "Ġà¤ħà¤ľà¤¯": 1500,
      "ur": 1501,
      "Ġà¤ķà¤¸": 1502,
      "à¤ıà¤ª": 1503,
      "Ġà¤Ĩà¤°à¤ķ": 1504,
      "Ġà¤¸à¤®à¤¨": 1505,
      "and": 1506,
      "à¤¯à¤¯": 1507,
      "Ġà¤Ĩà¤ªà¤¦": 1508,
      "Ġà¤¹à¤¡": 1509,
      "ir": 1510,
      "Ġp": 1511,
      "à¤¤à¤ķà¤°": 1512,
      "Ġ33": 1513,
      "ad": 1514,
      "Ġà¤īà¤ªà¤¬": 1515,
      "Ġà¤¬à¤¦à¤²à¤¨": 1516,
      "à¤ķà¤Ń": 1517,
      "à¤ĭ": 1518,
      "Ġ45": 1519,
      "Ġà¤ĵà¤ªà¤¨": 1520,
      "\\\"\"": 1521,
      "Ġm": 1522,
      "Ġà¤ľà¤¨à¤¸": 1523,
      "ĠV": 1524,
      "à¤ıà¤ľ": 1525,
      "Ġà¤Ĩà¤Ń": 1526,
      "Ġà¤Ĩà¤¸à¤®": 1527,
      "Ġà¤µà¤ļà¤¨": 1528,
      "Ġ2011": 1529,
      "à¤Ĩà¤Ĺ": 1530,
      "à¤ªà¤°à¤®": 1531,
      "à¤ıà¤¨à¤¸": 1532,
      "à¤ħà¤¸": 1533,
      "Ġà¤Ĳà¤²": 1534,
      "80": 1535,
      "à¥ĭà¤Ĥ/": 1536,
      "id": 1537,
      "ĠW": 1538,
      "à¤¬à¤°à¤®": 1539,
      "Ġà¤ľà¤²à¤µ": 1540,
      "à¤¿à¤¼": 1541,
      "Ġv": 1542,
      "Ġ37": 1543,
      "à¤ıà¤®à¤ıà¤¸": 1544,
      "Ġà¤Ĩà¤Īà¤Ł": 1545,
      "24": 1546,
      "ig": 1547,
      "à¤µà¤¡": 1548,
      "à¤ĸà¤Ń": 1549,
      "ĠU": 1550,
      "Ġà¤¶à¤¨": 1551,
      "à¤īà¤®": 1552,
      "à¤ħà¤¦": 1553,
      "à¤¶à¤¹à¤°": 1554,
      "Ġà¤Ķà¤¸à¤¤": 1555,
      "Ġ[": 1556,
      "Ġà¤ĩà¤¨à¤®": 1557,
      "à¤Ĩà¤§": 1558,
      "à¤ļà¤µ": 1559,
      "à¤Īà¤ĵ": 1560,
      "Ġà¤¬à¤¨à¤°": 1561,
      "Ġà¤Ŀà¤Łà¤ķ": 1562,
      "Ġ90": 1563,
      "à¥ĭà¤Ĥ)": 1564,
      "dia": 1565,
      "Ġà¤°à¤®": 1566,
      "Ġà¤Ĩà¤¯à¤¤": 1567,
      "à¥Ī-": 1568,
      "Ġà¤ªà¥Ŀ": 1569,
      "à¤¼à¤¾à¥¤": 1570,
      "à¤¯à¤£": 1571,
      "à¤¶à¤¸": 1572,
      "à¤°à¤£à¤¬": 1573,
      "Ġà¤ªà¤°à¤¨": 1574,
      "Ġà¤ľà¤ľ": 1575,
      "à¤īà¤¨à¤²": 1576,
      "Ġà¤¦à¤¤": 1577,
      "Ġà¤Ĩà¤ªà¤°": 1578,
      "à¤Ĩà¤¨": 1579,
      "à¤°à¤®à¤¶": 1580,
      "Ġ\"\"\"\"": 1581,
      "23": 1582,
      "à¥Īà¤Ĥ:": 1583,
      "à¤°à¤ķà¤Ł": 1584,
      "Ġà¤ķà¤®à¤°": 1585,
      "Ġà¥¨à¥": 1586,
      "ww": 1587,
      "âĢĵ": 1588,
      "Ġ36": 1589,
      "à¤ıà¤¨à¤ıà¤¸": 1590,
      "Ġà¤¹à¤¦": 1591,
      "Ġt": 1592,
      "à¤ķà¤¥": 1593,
      "à¤¸à¤¹": 1594,
      "Ġà¤ķà¤µà¤°": 1595,
      "Ġà¤Łà¤°": 1596,
      "à¤Ĩà¤®": 1597,
      "Ġà¤¸à¤¶à¤ķ": 1598,
      "à¤µà¤¦": 1599,
      "Ġà¤ľà¤®à¤ķà¤°": 1600,
      "me": 1601,
      "Ġà¤Ĳà¤ª": 1602,
      "Ġà¤Ĩà¤ªà¤¨": 1603,
      "à¤ķà¤¤à¤°": 1604,
      "à¤®à¤¹à¤¤": 1605,
      "à¤Ĺà¤¶": 1606,
      "Ġ75": 1607,
      "Ġà¤ħà¤¸à¤²": 1608,
      "Ġ197": 1609,
      "à¤ĩà¤«": 1610,
      "à¤¼à¤¿à¤Ĥ": 1611,
      "Ġ2010": 1612,
      "ia": 1613,
      "à¥Īà¤Ĥà¥¤\"": 1614,
      "à¤¯à¤ľ": 1615,
      "Ġà¤ħà¤Ł": 1616,
      "à¤°à¤ķà¤¤": 1617,
      "Ġà¤®à¤¸à¤²": 1618,
      "à¥¦à¥¦": 1619,
      "à¥Ĥ)": 1620,
      "à¤ķà¤²à¤¨": 1621,
      "à¤¯à¤¬": 1622,
      "Ġà¥ŀ": 1623,
      "à¤ıà¤Ĩà¤Ī": 1624,
      "Ġà¤¯à¤¥": 1625,
      "à¤°à¤¦à¤¸": 1626,
      "Ġà¤§à¤®à¤ķ": 1627,
      "à¤¨à¤µà¤°": 1628,
      "Ġà¤ıà¤ķà¤®": 1629,
      "à¤īà¤²": 1630,
      "Ġà¤ıà¤¨à¤¡": 1631,
      "Ġà¤¬à¤®": 1632,
      "Ġà¤Ĺà¤µà¤°": 1633,
      "Ġà¤ľà¤¨à¤ľ": 1634,
      "Ġà¤īà¤ªà¤¨": 1635,
      "Ġà¤²à¤ĺ": 1636,
      "à¤¯à¤§": 1637,
      "Ġ370": 1638,
      "à¤¶à¤¨à¤ķ": 1639,
      "à¤¼à¥Ĥ": 1640,
      "''": 1641,
      "à¤Īà¤¡": 1642,
      "à¤ĸà¤¨à¤Ĭ": 1643,
      "à¤®à¤®": 1644,
      "Ġ34": 1645,
      "âĢįà¤¿": 1646,
      "à¤ħà¤¸à¤²": 1647,
      "Ġà¤ıà¤ļà¤¡": 1648,
      "Ġà¤ĸà¤¨": 1649,
      "Ġ2021": 1650,
      "Ġà¤ħà¤µà¤¶": 1651,
      "os": 1652,
      "à¤¦à¤°à¤Ĺ": 1653,
      "Ġ2009": 1654,
      "à¤īà¤ļ": 1655,
      "à¤¼à¤¾,": 1656,
      "à¤ĩà¤¬": 1657,
      "à¤°à¤¤à¤²à¤¬": 1658,
      "Ġà¤ķà¤ªà¤¡": 1659,
      "Ġf": 1660,
      "Ġà¤ķà¤®à¤²": 1661,
      "Ġà¤Ĩà¤ļ": 1662,
      "Ġà¤¬à¤¹à¤¸": 1663,
      "à¤²à¤ľ": 1664,
      "999": 1665,
      "à¤¸à¤¬à¤¸": 1666,
      "Ġà¤Łà¤ķ": 1667,
      "à¤²à¤ļà¤¸": 1668,
      "Ġ?": 1669,
      "à¤Ĩà¤Īà¤ı": 1670,
      "ce": 1671,
      "à¤¶à¤¯": 1672,
      "à¤¯à¤²à¤Ł": 1673,
      "Ġn": 1674,
      "à¤Ĺà¤£": 1675,
      "Ġà¤°à¤£à¤µ": 1676,
      "Ġà¥©": 1677,
      "à¤Łà¤ħà¤ª": 1678,
      "Ġà¤īà¤¤à¤¨": 1679,
      "Ġà¤¶à¤¤à¤ķ": 1680,
      "à¤Ńà¤µà¤¤": 1681,
      "Ġà¤ªà¤¹à¤¨": 1682,
      "à¤¯à¤Łà¤ķ": 1683,
      "à¤²à¤¡": 1684,
      "à¤īà¤ªà¤°": 1685,
      "Ġà¤®à¤®à¤¤": 1686,
      "Ġà¤ĳà¤°": 1687,
      "Ġà¤¨à¤ķà¤¦": 1688,
      "Ġà¤¬à¤Ĺ": 1689,
      "Ġà¤¬à¤ĸ": 1690,
      "à¤ĩà¤®à¤°": 1691,
      "à¤Ĩà¤ĸ": 1692,
      "Ġà¤¬à¤¨à¤¤": 1693,
      "Ġ)": 1694,
      "35": 1695,
      "Ġà¤¬à¤ķ": 1696,
      "à¥Ģ),": 1697,
      "Ġà¤ķà¤²à¤°": 1698,
      "Ġb": 1699,
      "Ġà¤ªà¤Łà¤¨": 1700,
      "Ġà¤Ĺà¤¡à¤ķà¤°": 1701,
      "Ġà¤ıà¤Ĺ": 1702,
      "Ġà¤§à¤µà¤¨": 1703,
      "ap": 1704,
      "à¥Ĩ": 1705,
      "à¤Ĺà¤¦à¤°": 1706,
      "à¤ħà¤ļ": 1707,
      "26": 1708,
      "ĠJ": 1709,
      "à¤Ĺà¤ł": 1710,
      "500": 1711,
      "à¤ıà¤®à¤Ī": 1712,
      "à¤¦à¤¨à¤¶": 1713,
      "à¥§à¥": 1714,
      "à¤Ķ": 1715,
      "Ġà¤ľà¤Ĺà¤¤": 1716,
      "à¤¾à¤ģ,": 1717,
      "28": 1718,
      "à¤®à¤¶": 1719,
      "à¤ħà¤«": 1720,
      "Ġ#": 1721,
      "à¤£à¤µ": 1722,
      "75": 1723,
      "à¤Łà¤ĩ": 1724,
      ")à¥¤": 1725,
      "à¥Ģ/": 1726,
      "Ġà¤¬à¤ļà¤¨": 1727,
      "Ġà¤¦à¤¶": 1728,
      "à¤Łà¤ķà¤°": 1729,
      "Ġà¤ļà¤®": 1730,
      "à¤¸à¤®à¤¯": 1731,
      "Ġ196": 1732,
      "Ġà¤°à¤«": 1733,
      "Ġà¥Ľà¤°": 1734,
      "à¤Ĩà¤µ": 1735,
      "à¤¸à¤«": 1736,
      "Ġà¤¸à¤°à¤¦": 1737,
      "Ġ150": 1738,
      "à¤¨à¤ľà¤°": 1739,
      "à¤ĩà¤¬à¤°": 1740,
      "à¤łà¤²": 1741,
      "90": 1742,
      "à¤ĩà¤ľà¤°": 1743,
      "Ġà¥§à¥¯à¥": 1744,
      "Ġo": 1745,
      "Ġà¤Ķà¤°à¤¤": 1746,
      "ĠPro": 1747,
      "à¤¶à¤Ńà¤°": 1748,
      "à¤¶à¤¬": 1749,
      "Ġà¤²à¤¦": 1750,
      "Ġ195": 1751,
      "Ġd": 1752,
      "à¤ªà¤°à¤¸": 1753,
      "à¤¹à¤¬": 1754,
      "Ġà¤ħà¤Łà¤²": 1755,
      "Ġà¤ļà¤¨": 1756,
      "à¤īà¤¥": 1757,
      "à¤ħà¤Ĺà¤²": 1758,
      "em": 1759,
      "Ġà¤ıà¤°": 1760,
      "à¤Ĩà¤Īà¤ıà¤¸": 1761,
      "Ġà¤°à¤ķà¤®": 1762,
      "à¤¨à¤ı": 1763,
      "Ġ300": 1764,
      "à¤£à¤¸": 1765,
      "Ġà¤®à¤°à¤¨": 1766,
      "à¤Ĺà¤ª": 1767,
      "Ġà¤ĵà¤¬": 1768,
      "à¤ªà¤¹à¤°": 1769,
      "à¤¹à¤µ": 1770,
      "à¤²à¤Ŀ": 1771,
      "à¤ļà¤ķà¤°": 1772,
      "Ġà¤Ńà¤¡": 1773,
      "à¤Īà¤²": 1774,
      "ult": 1775,
      "Ġà¤¨à¤¬": 1776,
      "à¤ĩà¤µà¤°": 1777,
      "à¤Ŀà¤¸": 1778,
      "Ġà¤ıà¤«à¤Ĩà¤Īà¤Ĩà¤°": 1779,
      "27": 1780,
      "à¤¯à¤¨à¤¶": 1781,
      "Ġà¤ĳà¤«à¤°": 1782,
      "Ġà¤²à¤®": 1783,
      "Ġ38": 1784,
      "Ġà¤ıà¤¯à¤°à¤ª": 1785,
      "Ġà¤¸à¤°à¤²": 1786,
      "47": 1787,
      "à¤Ĺà¤Łà¤¨": 1788,
      "Ġà¤ıà¤ķà¤²": 1789,
      "Ġ49": 1790,
      "Ġà¤¬à¤°à¤¸": 1791,
      "à¥Ī!": 1792,
      "Ġà¤ħà¤ªà¤®": 1793,
      "à¥Ĥà¤ģà¥¤": 1794,
      "eal": 1795,
      "Ġà¤ķà¤°à¤£": 1796,
      "Ġà¤ĩà¤ķà¤Ł": 1797,
      "à¤ĸà¤¦": 1798,
      "à¤¸à¤¡": 1799,
      "Ġà¤¬à¤°à¤ķà¤°": 1800,
      "à¤²à¤ª": 1801,
      "45": 1802,
      "ut": 1803,
      "2017": 1804,
      "mi": 1805,
      "up": 1806,
      "à¤°à¤¥": 1807,
      "à¤·à¤§": 1808,
      "Ġà¤Ĩà¤«": 1809,
      "Ġà¤¦à¤°à¤µ": 1810,
      "Ġà¤Ĩà¤ªà¤¤": 1811,
      "à¤µà¤°à¤ķ": 1812,
      "Ġà¤¤à¤¹à¤¸": 1813,
      "à¤ĳà¤¸": 1814,
      "Ġ2008": 1815,
      "à¤¿.": 1816,
      "Ġà¤ĸà¤Ł": 1817,
      "29": 1818,
      "Ġ&": 1819,
      "à¥į\\\\": 1820,
      "Ġà¤ľà¤¯à¤ª": 1821,
      "Ġà¤Ńà¤°à¤¨": 1822,
      "à¤¶à¤ķà¤¶": 1823,
      "Ġ128": 1824,
      "Ġà¤īà¤Ĺ": 1825,
      "à¤ıà¤¸à¤¬": 1826,
      "à¤Ĩà¤Īà¤ıà¤®": 1827,
      "Ġà¥§": 1828,
      "Ġà¥ļ": 1829,
      "36": 1830,
      "à¥Īà¥¤\"\"\"": 1831,
      "Ġà¤§à¤®": 1832,
      "à¤¯à¤¤à¤¨": 1833,
      "à¤µà¤¸à¤¨": 1834,
      "ax": 1835,
      "Ġà¤ĩà¤¶": 1836,
      "à¤£à¤®": 1837,
      "Ġà¤¬à¤ļà¤¤": 1838,
      "Ġà¤ķà¤¤": 1839,
      "Ġ44": 1840,
      "Ġ\\\"\"": 1841,
      "Ġà¤¨à¤ľà¤¦": 1842,
      "à¤Ńà¤°à¤¤": 1843,
      "à¤Łà¤°à¤µ": 1844,
      "Ġà¤īà¤ªà¤ķ": 1845,
      "Ġvs": 1846,
      "Ġ39": 1847,
      "Ġà¥Ľà¤®": 1848,
      "à¤«à¤¨": 1849,
      "Ġà¤¸à¤®à¤Ĺ": 1850,
      "Ġà¤ĳà¤ķ": 1851,
      "à¤¾!": 1852,
      "Ġà¤®à¤ķà¤¸à¤¦": 1853,
      "48": 1854,
      "In": 1855,
      "ĠX": 1856,
      "à¤¦à¤¶": 1857,
      "à¤ıà¤¨à¤¯": 1858,
      "ab": 1859,
      "à¤¶à¤¦": 1860,
      "ew": 1861,
      "Ġà¤¬à¤°à¤¤": 1862,
      "Ġà¤ıà¤Ł": 1863,
      "Ġà¤Ķà¤ªà¤ļ": 1864,
      "à¥ĭà¤Ĥà¥¤": 1865,
      "Ġà¤ıà¤®à¤ıà¤¸": 1866,
      "31": 1867,
      "à¤Ĩà¤¸": 1868,
      "Ġ55": 1869,
      "har": 1870,
      "à¤ıà¤ı": 1871,
      "Ġà¤²à¤ĸà¤¨à¤Ĭ": 1872,
      "à¤§à¤¡": 1873,
      "Ġà¤¶à¤®": 1874,
      "Ġà¤°à¤£à¤¬": 1875,
      "à¤Łà¤¸": 1876,
      "Ġà¤ħà¤¹": 1877,
      "Ġà¤¤à¤Ń": 1878,
      "Ġà¤Ľà¤ł": 1879,
      "BI": 1880,
      "Ġà¤Ńà¤°à¤ª": 1881,
      "Ġà¤ıà¤¡à¤µ": 1882,
      "Ġà¤ĳà¤ª": 1883,
      "65": 1884,
      "\"\"\"\"": 1885,
      "Ġh": 1886,
      "Ġà¤¶à¤°à¤¦": 1887,
      "Ġà¤ĩà¤¸à¤°": 1888,
      "à¤µà¤®": 1889,
      "Ġà¤ľà¤Ł": 1890,
      "Ġà¤¶à¤°à¤£": 1891,
      "à¥Īà¤Ĥ-": 1892,
      "Ġà¤Ĩà¤ķà¤²à¤¨": 1893,
      "Ġà¤Ĺà¤£à¤°": 1894,
      "od": 1895,
      "à¤Ĺà¤ķà¤°": 1896,
      "Ġà¤ĺà¤¨": 1897,
      "Ġà¤Ńà¤¤": 1898,
      "à¤£à¤¤": 1899,
      "à¤ĩà¤¶": 1900,
      "ag": 1901,
      "Ġà¤ħà¥Ľ": 1902,
      "ri": 1903,
      "à¥ĭà¤Ĥ-": 1904,
      "Ġà¤¸à¤Ł": 1905,
      "Ġà¤ĳà¤¡": 1906,
      "art": 1907,
      "II": 1908,
      "à¤Īà¤¯": 1909,
      "Ġà¤¸à¤¤à¤¤": 1910,
      "Ġà¤®à¤¶à¤¹": 1911,
      "Ġà¤¦à¤¹": 1912,
      "à¤ıà¤¸à¤¡": 1913,
      "Ġ65": 1914,
      "edmi": 1915,
      "à¤ıà¤¬": 1916,
      "Ġà¤ıà¤¸à¤ª": 1917,
      "à¤ıà¤¨à¤ľ": 1918,
      "Ġà¤Ķà¤·à¤§": 1919,
      "esult": 1920,
      "Ġà¤ħà¤®à¤²": 1921,
      "Ġà¤ªà¤¬": 1922,
      "à¥¤\"": 1923,
      "Ġà¤²à¥ľ": 1924,
      "Ġà¤ªà¤°à¤¸": 1925,
      "à¤©": 1926,
      "Ġà¤¸à¤«à¤°": 1927,
      "Ġà¤ĸà¤¤à¤°à¤¨": 1928,
      "Ġg": 1929,
      "à¥ĭ?": 1930,
      "à¤ĸà¤£": 1931,
      "Ġà¤ľà¤¬à¤°à¤¦à¤¸": 1932,
      "Ġà¤¸à¤¤à¤°": 1933,
      "Ġà¤¡à¤¬": 1934,
      "Ġà¤ħà¤µà¤Ĺà¤¤": 1935,
      "Ġ43": 1936,
      "um": 1937,
      "à¤ħà¤ľ": 1938,
      "Ġ47": 1939,
      "à¤ªà¤°à¤¨": 1940,
      "one": 1941,
      "Ġà¤Ńà¤ķ": 1942,
      "à¤Łà¤°à¤¸": 1943,
      "à¤·à¤ķà¤°": 1944,
      "à¥¨": 1945,
      "Ġà¤¨à¤·": 1946,
      "Ġ+": 1947,
      "Ġà¤®à¤¹à¤ľ": 1948,
      "Ġà¤Łà¤ķà¤°": 1949,
      "à¤Ľà¤¨": 1950,
      "Ġà¤Ĩà¤Īà¤ı": 1951,
      "Ġà¤°à¤ľà¤¤": 1952,
      "à¤®à¤ľ": 1953,
      "à¥Īà¤Ĥ)": 1954,
      "à¥Ī.\"": 1955,
      "Ġà¤īà¤ªà¤§": 1956,
      "--": 1957,
      "Ġà¤Ĺà¤¨": 1958,
      "Ġà¤ªà¤°à¤µ": 1959,
      "55": 1960,
      "à¤µà¤Ń": 1961,
      "à¤ĩà¤¤à¤¨": 1962,
      "à¤ĵà¤Ĺ": 1963,
      "à¥ĭ!": 1964,
      "Ġ54": 1965,
      "Ġ42": 1966,
      "Ġ46": 1967,
      "à¤ķà¤¬": 1968,
      "à¤¹à¤ª": 1969,
      "Ġ400": 1970,
      "32": 1971,
      "à¤¤à¤§": 1972,
      "à¤Ľà¤¡": 1973,
      "Ġà¤īà¤Ńà¤°": 1974,
      "à¤ĵà¤¸": 1975,
      "à¤ıà¤¸à¤Ĩà¤Ī": 1976,
      "à¤Ĩà¤°à¤¡": 1977,
      "à¤¸à¤Ł": 1978,
      "à¤¼à¥Ģ,": 1979,
      "Ġà¤Ĩà¤¯à¤ķà¤°": 1980,
      "og": 1981,
      "Ġà¤«à¤¡": 1982,
      "Ġà¤īà¤¨à¤ªà¤°": 1983,
      "IP": 1984,
      "à¤·à¤µà¤°": 1985,
      "à¤īà¤§à¤°": 1986,
      "09": 1987,
      "ak": 1988,
      "à¥ĩ:": 1989,
      "à¤¬à¤ľ": 1990,
      "hi": 1991,
      "han": 1992,
      "ter": 1993,
      "à¤¾à¥ħ": 1994,
      "Ġà¤°à¤¤": 1995,
      "à¤¥à¤Ĺ": 1996,
      "pp": 1997,
      "à¤¯à¤®à¤¨": 1998,
      "Ġà¤¤à¤ķà¤²": 1999,
      "ealme": 2000,
      "li": 2001,
      "Ġà¤¬à¤Ł": 2002,
      "Ġà¤ľà¤¹à¤¨": 2003,
      "Ġà¤¥à¤°": 2004,
      "à¤Łà¤°à¤¨à¤²": 2005,
      "Ġà¤Ľà¤µ": 2006,
      "Ġà¤¸à¤Ĭà¤¦": 2007,
      "Ġà¤ĭà¤·": 2008,
      "38": 2009,
      "ac": 2010,
      "ment": 2011,
      "Ġà¤¬à¤¸à¤ª": 2012,
      "à¤ĵà¤²": 2013,
      "Ġ2007": 2014,
      "Ġà¤īà¤ķ": 2015,
      "Ġà¤ıà¤ķà¤ľ": 2016,
      "à¤Ĩà¤µà¤ľ": 2017,
      "39": 2018,
      "Ġà¤¸à¤¶à¤¸": 2019,
      "Ġà¤Ĺà¤¢": 2020,
      "âĢĭ": 2021,
      "Ġ51": 2022,
      "à¥Ľà¤°": 2023,
      "à¤ĸà¤¬à¤°": 2024,
      "Ġà¤ĺà¤Łà¤ķ": 2025,
      "Ġà¤®à¤Ľà¤²": 2026,
      "à¤ħà¤®à¤°": 2027,
      "37": 2028,
      "ec": 2029,
      "ne": 2030,
      "à¥«": 2031,
      "Ġà¤ľà¤ĸ": 2032,
      "Ġà¥ª": 2033,
      "à¤Ĺà¤£à¤¨": 2034,
      "Ġà¤ıà¤¬": 2035,
      "à¤Ĩà¤°à¤ıà¤«": 2036,
      "Ġof": 2037,
      "à¥Ģà¤Ĥ)": 2038,
      "à¤Ĩà¤īà¤Ł": 2039,
      "Ġà¤¸à¤¹à¤ķ": 2040,
      "à¤¤à¤¥": 2041,
      "à¤ıà¤¯à¤°": 2042,
      "Ġà¤¸à¤¤à¤¹": 2043,
      "Ġà¤¨à¤µà¤®": 2044,
      "Ġà¤ĺà¤Łà¤ķà¤°": 2045,
      "Ġà¤Ĩà¤®à¤¤": 2046,
      "ate": 2047,
      "SE": 2048,
      "est": 2049,
      "Ġi": 2050,
      "Ġà¤ļà¤¤": 2051,
      "à¤ªà¤°à¤µ": 2052,
      "Ġà¤Ŀà¤Ĺà¤¡": 2053,
      "ard": 2054,
      "Ġà¤°à¤¹à¤®": 2055,
      "à¤ħà¤¸à¤®": 2056,
      "ice": 2057,
      "34": 2058,
      "à¤Ĺà¤¸": 2059,
      "à¥ģ-": 2060,
      "à¤ĩà¤°": 2061,
      "Ġ52": 2062,
      "Ġ56": 2063,
      "à¤ķà¥ľ": 2064,
      "à¤¾/": 2065,
      "à¤ıà¤¨à¤¡": 2066,
      "ity": 2067,
      "85": 2068,
      "Ġà¤¨à¤¶": 2069,
      "à¤¬à¤ķ": 2070,
      "Ġà¤ıà¤¸à¤¸": 2071,
      "95": 2072,
      "à¥Ī|": 2073,
      "Ġà¤ļà¤ª": 2074,
      "Ġà¤¡à¤°à¤¤": 2075,
      "Ġà¤ĵà¤®": 2076,
      "Ġà¤Ĩà¤¨à¤¨": 2077,
      "à¤¦à¤Ń": 2078,
      "à¤ıà¤¸à¤ıà¤«": 2079,
      "à¤ıà¤®à¤Ł": 2080,
      "Ġà¤Ĺà¤¡": 2081,
      "Ġà¤ħà¤ĸà¤¬": 2082,
      "Ġà¤ķà¤¦": 2083,
      "à¤¯à¤Ń": 2084,
      "à¤Īà¤¦": 2085,
      "Ġà¤īà¤ªà¤®": 2086,
      "2014": 2087,
      "Ġà¤¹à¤¨": 2088,
      "à¤ıà¤µ": 2089,
      "Ġà¤Ľà¤ķ": 2090,
      "à¤Ĩà¤°à¤¬": 2091,
      "05": 2092,
      "Ġà¤ıà¤¹à¤¸": 2093,
      "Ġ2000": 2094,
      "Ġà¤ĳà¤²": 2095,
      "Ġà¤Ĩà¤ľà¤®": 2096,
      "à¤¨à¤¡": 2097,
      "à¤¼-": 2098,
      "âĢĺâĢĺ": 2099,
      "67": 2100,
      "JP": 2101,
      "à¥Ĥ.": 2102,
      "à¤Īà¤Ł": 2103,
      "Ġà¤ħà¤¸à¤«à¤²": 2104,
      "2016": 2105,
      "IC": 2106,
      "Ġà¤¨à¤¡": 2107,
      "Ġà¤µà¤ľà¤¨": 2108,
      "Ġà¤īà¤®à¤°": 2109,
      "Ġà¤Ĺà¤£à¤¨": 2110,
      "à¤Ĩà¤°à¤Ĩà¤Ī": 2111,
      "2018": 2112,
      "Ġw": 2113,
      "à¤°à¤ľà¤¨": 2114,
      "à¤ªà¤¹": 2115,
      "à¤ıà¤¶": 2116,
      "Ġà¤«à¤°à¤®": 2117,
      "Ġà¤ĺà¤¡": 2118,
      "à¦": 2119,
      "à¤¯à¤¥": 2120,
      "Ġà¤Ĩà¤Īà¤¡": 2121,
      "à¤¨à¤Ĺ": 2122,
      "à¤¦à¤°à¤¤": 2123,
      "à¤ªà¤£à¤¨": 2124,
      "Ġà¤Ĩà¤°à¤ıà¤¸à¤ıà¤¸": 2125,
      "33": 2126,
      "à¥ģ.": 2127,
      "à¤Łà¤ª": 2128,
      "Ġà¤²à¤¹à¤°": 2129,
      "à¤¡à¤ª": 2130,
      "Ġà¤Ĩà¤°à¤¬": 2131,
      "08": 2132,
      "Ġà¤µà¤«": 2133,
      "Ġà¤°à¤ļ": 2134,
      "Ġà¤Ĺà¤¹à¤²": 2135,
      "à¤Īà¤ıà¤¸": 2136,
      "Ġà¤īà¤ªà¤ľ": 2137,
      "Ġà¥«": 2138,
      "à¤¦à¤°à¤ħà¤¸à¤²": 2139,
      "Ġà¤¨à¤µà¤ľ": 2140,
      "à¥Ĥà¤ģ,": 2141,
      "49": 2142,
      "à¤¹à¤Ł": 2143,
      "Ġà¤ªà¤µà¤¨": 2144,
      "Ġà¤¨à¤«": 2145,
      "à¥ľà¤¨": 2146,
      "à¤ªà¤¬": 2147,
      "Ġà¤ĩà¤Łà¤²": 2148,
      "Ġà¤ĩà¤¸à¤¨": 2149,
      "Ġà¤ħà¤ªà¤¡": 2150,
      "à¤Ĺà¤ķ": 2151,
      "Ġà¤µà¤ľ": 2152,
      "à¤Ĩà¤ĩà¤ı": 2153,
      "à¤¶à¤¨à¤°": 2154,
      "ers": 2155,
      "ID": 2156,
      "Ġà¤ªà¤¥": 2157,
      "à¤¸à¤°à¤£": 2158,
      "à¤Īà¤ª": 2159,
      "à¤īà¤¨à¤®": 2160,
      "à¤¤à¤¸à¤°": 2161,
      "à¤Īà¤µ": 2162,
      "à¤¾à¤ĥ": 2163,
      "www": 2164,
      "Ġà¤¹à¤¸à¤¨": 2165,
      "Ġà¤¦à¤«": 2166,
      "100": 2167,
      "Ġ58": 2168,
      "Ġà¤ħà¤«à¤¸à¤°": 2169,
      "Ġà¤ıà¤¯à¤°à¤²": 2170,
      "46": 2171,
      "à¤¯à¤Ł": 2172,
      "à¤§à¤ķà¤°": 2173,
      "à¤ĩà¤¨à¤°": 2174,
      "à¤ķà¤ķ": 2175,
      "à¤¦à¤ª": 2176,
      "à¤Ĩà¤Īà¤¡": 2177,
      "Ġà¤īà¤§": 2178,
      "à¤ĩà¤ķà¤²": 2179,
      "à¤ľà¤¶": 2180,
      "à¤Ĩà¤²": 2181,
      "ction": 2182,
      "à¤¿:": 2183,
      "à¤¯à¤ľà¤²": 2184,
      "à¥ģà¤ĥ": 2185,
      "à¤ªà¤µ": 2186,
      "à¥Ģà¥¤\"": 2187,
      "à¤ķà¤ľ": 2188,
      "Ġà¤¶à¤¶": 2189,
      "Ġà¤Ĳà¤ķ": 2190,
      "à¤ıà¤®à¤ĵ": 2191,
      "ist": 2192,
      "à¤¸à¤®à¤Ŀ": 2193,
      "Ġà¤ªà¤°à¤¹": 2194,
      "2015": 2195,
      "à¥ĩà¤Ĥ:": 2196,
      "à¤ľà¤«": 2197,
      "à¤¼à¥ĩà¥¤": 2198,
      "Ġà¤ıà¤¸à¤¡": 2199,
      "av": 2200,
      "à¤¹à¤ľ": 2201,
      "à¤¥à¤¤": 2202,
      "Ġà¤¹à¤®à¤¸": 2203,
      "Ġà¤¸à¤¹à¤¨": 2204,
      "à¤ĩà¤Ĺà¤°": 2205,
      "à¤§à¤ª": 2206,
      "ĠâĢ¦": 2207,
      "à¤Łà¤°à¤ª": 2208,
      "Ġ72": 2209,
      "77": 2210,
      "à¤¾),": 2211,
      "à¤¨à¤µà¤¤": 2212,
      "Ġ1000": 2213,
      "SC": 2214,
      "Ġà¤ĸà¤¨à¤¨": 2215,
      "à¤ıà¤¸à¤ı": 2216,
      "ĠResult": 2217,
      "à¥ª": 2218,
      "à¤¿à¥¤": 2219,
      "à¤¨à¤ļ": 2220,
      "Ġà¤ªà¤ļ": 2221,
      "à¤Ĩà¤ĩ": 2222,
      "Ġà¤īà¤ªà¤Ĺ": 2223,
      "Ġà¤¬à¤¦à¤®": 2224,
      "ĠIndia": 2225,
      "à¤ķà¤²à¤¤": 2226,
      "Ġà¤Ńà¤ľà¤¨": 2227,
      "Ġà¤¸à¤ķà¤²": 2228,
      "Ġà¤ħà¤²à¤°": 2229,
      "à¤¹à¤®à¤²": 2230,
      "Ġà¤īà¤ªà¤¦": 2231,
      "à¥©": 2232,
      "à¤¤à¤¸": 2233,
      "à¤ľà¤¨à¤¯": 2234,
      "Ġ2022": 2235,
      "Ġà¤«à¤¡à¤£à¤µ": 2236,
      "64": 2237,
      "à¤¯à¤Ĺ": 2238,
      "à¤¯à¤°à¤¤": 2239,
      "à¤µà¤Ĺà¤¨": 2240,
      "Ġà¤Ĩà¤¡à¤µ": 2241,
      "Ġà¤¯à¥ĺ": 2242,
      "à¥ĩà¥¤\"": 2243,
      "Ġ41": 2244,
      "Ġ250": 2245,
      "Ġà¤ħà¤µà¤ķ": 2246,
      "Ġà¤ıà¤¸à¤¬": 2247,
      "Ġà¤¬à¤¦à¤²à¤¤": 2248,
      "lus": 2249,
      "07": 2250,
      "à¤ķà¤ħà¤ª": 2251,
      "Ġà¤¨à¤¹à¤°": 2252,
      "à¤ŀà¤¤": 2253,
      "à¤ļà¤°à¤£": 2254,
      "à¤ħà¤¯": 2255,
      "alax": 2256,
      "alaxy": 2257,
      "op": 2258,
      "à¤Īà¤°": 2259,
      "à¤£à¤ķ": 2260,
      "Ġà¤®à¤¤à¤Ń": 2261,
      "89": 2262,
      "Ġth": 2263,
      "à¤¾à¥ĩ": 2264,
      "à¤¶à¤¹": 2265,
      "Ġ120": 2266,
      "à¤ĵà¤¡": 2267,
      "Ġà¤Īà¤¡": 2268,
      "ess": 2269,
      "à¤²à¤«": 2270,
      "à¤¹à¤Ĺ": 2271,
      "Ġà¤ĩà¤ľà¤°": 2272,
      "à¤ĳà¤«": 2273,
      "Ġà¤Ĺà¤¹à¤¨": 2274,
      "Ġà¤ıà¤ķà¤¡": 2275,
      "à¤¹à¤°à¤¬": 2276,
      "Ġà¤īà¤²à¤Ł": 2277,
      "01": 2278,
      "à¤ĸà¤¡": 2279,
      "à¤ħà¤µ": 2280,
      "Ġ67": 2281,
      "à¤ıà¤¨à¤ı": 2282,
      "Ġà¤¯à¤¶": 2283,
      "Ġà¤ıà¤¨à¤ª": 2284,
      "à¤ıà¤ļà¤¡": 2285,
      "à¥į-": 2286,
      "Ġ53": 2287,
      "ow": 2288,
      "Ġà¤ķà¤ļà¤°": 2289,
      "Ġà¤ħà¤µà¤°": 2290,
      "Ġà¤ĩà¤µ": 2291,
      "âĢĶ": 2292,
      "à¤ĺà¤µ": 2293,
      "Ġ59": 2294,
      "68": 2295,
      "Ġà¤ĸà¥ľ": 2296,
      "Ġ57": 2297,
      "Ġà¤ħà¤ªà¤¹à¤°à¤£": 2298,
      "à¥ĩà¤Ĥ?": 2299,
      "à¤ķà¤°à¤¨": 2300,
      "ĠâĢĭ": 2301,
      "Ġà¤Ĩà¤Īà¤Ĩà¤Īà¤Ł": 2302,
      "04": 2303,
      "ST": 2304,
      "Ġà¤ħà¤¨à¤¨": 2305,
      "Ġà¤¬à¤¨à¤ķà¤°": 2306,
      "Ġà¤ĳà¤¨": 2307,
      "Ġà¤ĳà¤¯à¤²": 2308,
      "à¤®à¤°à¤£": 2309,
      "à¤®à¤ªà¤°": 2310,
      "à¤¼à¥ī": 2311,
      "à¤ŀà¤ª": 2312,
      "Ġà¤Ŀà¤¡": 2313,
      "oc": 2314,
      "Ġ2005": 2315,
      "à¤¾\"\"": 2316,
      "à¤µà¤µà¤°": 2317,
      "à¤Łà¤¡": 2318,
      "à¤¬à¤¹à¤°": 2319,
      "Ġà¤Ĺà¤£à¤¤": 2320,
      "Ġà¤ªà¤ł": 2321,
      "à¤Ĩà¤¦": 2322,
      "à¤Ĩà¤°à¤Ł": 2323,
      "à¤ıà¤¨à¤ª": 2324,
      "à¤ıà¤ļà¤ĵ": 2325,
      "Ġà¤ıà¤®à¤ıà¤¸à¤ıà¤®à¤Ī": 2326,
      "à¤ĩà¤¡à¤°": 2327,
      "à¤īà¤¨à¤¸": 2328,
      "Ġà¤®à¤¦à¤¦à¤Ĺ": 2329,
      "Ah": 2330,
      "Ġe": 2331,
      "à¤°à¤ķà¤°à¤£": 2332,
      "à¤īà¤¡": 2333,
      "IPL": 2334,
      "à¥ĩ'": 2335,
      "à¤ĩà¤¸à¤¨": 2336,
      "Ġà¤¹à¤°à¤Ĺ": 2337,
      "Ġà¤¬à¤ļà¤ªà¤¨": 2338,
      "Ġà¤ıà¤¨à¤Ĩà¤°à¤¸": 2339,
      "Ġà¤Ĩà¤¶à¤¯": 2340,
      "06": 2341,
      "Ġà¤§à¤¨à¤°": 2342,
      "Ġà¤§à¤°à¤¨": 2343,
      "Ġà¤Īà¤µ": 2344,
      "Ġà¤¸à¥ľà¤ķ": 2345,
      "Ġà¤²à¥ľà¤ķ": 2346,
      "Ġ68": 2347,
      "ĠGalaxy": 2348,
      "ha": 2349,
      "à¥¬": 2350,
      "à¤¿à¤ĥ": 2351,
      "à¤¤à¤°à¤¦": 2352,
      "à¤®à¤°à¤¨": 2353,
      "à¤Ĩà¤°à¤ıà¤¸": 2354,
      "à¤¸à¤¶": 2355,
      "à¤Ĩà¤Īà¤ıà¤²": 2356,
      "Ġà¥¬": 2357,
      "Ġ66": 2358,
      "à¤ıà¤¨à¤¬": 2359,
      "à¤¤à¤Ĺ": 2360,
      "à¤¼à¤Ĥ": 2361,
      "à¤¹à¤°à¤²": 2362,
      "Ġà¤ªà¤²à¤Ł": 2363,
      "Ġà¤¸à¤®à¤ķà¤ķ": 2364,
      "ung": 2365,
      ".\"": 2366,
      "à¤Ĺà¤ªà¤¤": 2367,
      "à¤ļà¤¯à¤¨": 2368,
      "à¤Īà¤®": 2369,
      "à¤ħà¤ĸ": 2370,
      "ma": 2371,
      "à¥ĩâĢĻ": 2372,
      "à¤¬à¤°à¤¨": 2373,
      "ams": 2374,
      "97": 2375,
      "à¥Īà¤ĥ": 2376,
      "Ġà¤²à¤²": 2377,
      "à¤ĸà¤µ": 2378,
      "2019": 2379,
      "à¤¼à¥ĩà¤Ĥ:": 2380,
      "Ġà¤ĭà¤¤": 2381,
      "Ġ74": 2382,
      "57": 2383,
      "hone": 2384,
      "Ġl": 2385,
      "Ġà¤ĩà¤¨à¤¸": 2386,
      "à¥ĺà¤°": 2387,
      "Ġà¤Ĺà¤£à¤®": 2388,
      "à¤ħà¤«à¤Ĺ": 2389,
      "Ã¯": 2390,
      "à¤¯à¤µà¤°": 2391,
      "Ġà¤Ńà¤Ĺ": 2392,
      "à¤Ĩà¤ķ": 2393,
      "Ġ78": 2394,
      "Ġà¤īà¤łà¤¤": 2395,
      "ive": 2396,
      "à¤¤à¤¹": 2397,
      "à¤ķà¤µà¤°": 2398,
      "à¤Īà¤ľ": 2399,
      "à¤Ĩà¤Īà¤Ĩà¤Ī": 2400,
      "Ġand": 2401,
      "à¤µà¤ļà¤¨": 2402,
      "à¤¥à¤¶": 2403,
      "à¥Ģà¤Ĥ?": 2404,
      "à¤ĵà¤ª": 2405,
      "Ġà¤¸à¤ļà¤®": 2406,
      "io": 2407,
      "à¥Ń": 2408,
      "à¤¸à¤®à¤¸": 2409,
      "Ġà¤Ĩà¤¦à¤¤": 2410,
      "2020": 2411,
      "Ġ125": 2412,
      "Ġ...": 2413,
      "Ġ2006": 2414,
      "à¤²à¤Ĺà¤Ńà¤Ĺ": 2415,
      "ote": 2416,
      "à¤¦à¤ķà¤¤": 2417,
      "à¤Ńà¤²": 2418,
      "à¤Ńà¤ľà¤¨": 2419,
      "Ġà¤¯à¤°": 2420,
      "à¤«à¤²à¤¤": 2421,
      "à¤ĺà¤ķ": 2422,
      "à¤ıà¤®à¤ª": 2423,
      "oss": 2424,
      "Ġà¤·": 2425,
      "Ġà¤ĩà¤¬à¤°": 2426,
      "à¤°à¤ĸà¤ª": 2427,
      "%),": 2428,
      "Ġà¤¸à¤Īà¤¦": 2429,
      "Ġà¤Ńà¤°à¤¤": 2430,
      "à¤¼à¥Ģà¥¤": 2431,
      "Ġà¤ļà¤°à¤®": 2432,
      "Ġà¤¬à¥Ŀà¤¤": 2433,
      "à¤Ĺà¤®à¤¨": 2434,
      "à¤Ĺà¥Ŀ": 2435,
      "Ġà¤¤à¤°à¤ķ": 2436,
      "à¤¼)": 2437,
      "à¤ļà¤¸": 2438,
      "Ġà¤īà¤Ńà¤°à¤¤": 2439,
      "Ġà¤ħà¤«à¤µ": 2440,
      "ok": 2441,
      "âĸ": 2442,
      "Ġà¤®à¤Ľ": 2443,
      "à¤ľà¤Ń": 2444,
      "Ġà¤²à¤µ": 2445,
      "Ġà¤¬à¤¨à¤µ": 2446,
      "à¤Ĭà¤£": 2447,
      "à¤Ķà¤¨": 2448,
      "98": 2449,
      "à¤°à¤Ķà¤¨": 2450,
      "à¤łà¤¤": 2451,
      "à¤ıà¤¸à¤ıà¤²": 2452,
      "ĠRedmi": 2453,
      "ep": 2454,
      "à¥Ī\"": 2455,
      "Ġà¤ħà¤ķà¤¬à¤°": 2456,
      "96": 2457,
      "à¤¸à¤ªà¤°": 2458,
      "Ġà¤°à¤ĺ": 2459,
      "à¤¼à¥ĩ,": 2460,
      "à¤ĩà¤¤": 2461,
      "Ġà¤ĸà¤²": 2462,
      "à¤Ŀà¤ķà¤°": 2463,
      "ff": 2464,
      "gov": 2465,
      "Ġà¤Ľà¤ª": 2466,
      "Ġà¤¸à¤¹à¤ľ": 2467,
      "à¤ıà¤®à¤ı": 2468,
      "à¤ıà¤®à¤Ĩà¤°": 2469,
      "Ġà¤ıà¤¸à¤Ł": 2470,
      "ĠPM": 2471,
      "Ġà¥§à¥¦": 2472,
      "à¤¬à¤¹à¤°à¤¹": 2473,
      "à¥°": 2474,
      "à¥Ł": 2475,
      "à¤¨à¤ľ": 2476,
      "à¤£à¤ªà¤¤": 2477,
      "à¤ĩà¤¸à¤°": 2478,
      "43": 2479,
      "Ġ63": 2480,
      "ob": 2481,
      "à¤°à¤Ĺà¤°": 2482,
      "à¤ıà¤Ī": 2483,
      "Ġà¤Ńà¤Łà¤ķ": 2484,
      "Ġà¤®à¤¹à¤²": 2485,
      "Ġà¤¨à¤Ĺ": 2486,
      "Ġà¤¤à¤ķà¤°": 2487,
      "Ġ73": 2488,
      "Ġ2004": 2489,
      "Ġ01": 2490,
      "ĠNew": 2491,
      "ET": 2492,
      "Ġà¤¨à¤°à¤¸": 2493,
      "à¤ıà¤¨à¤ıà¤²": 2494,
      "indi": 2495,
      "tt": 2496,
      "à¤¸à¤ıà¤ª": 2497,
      "Ġà¤ıà¤ķà¤¦à¤®": 2498,
      "Ġà¤ħà¤¨à¤²": 2499,
      "à¤°à¤£à¤µ": 2500,
      "Ġà¤Ĩà¤°à¤Ł": 2501,
      "à¤ıà¤®à¤ıà¤²": 2502,
      "Ġ85": 2503,
      "ank": 2504,
      "400": 2505,
      "ast": 2506,
      "à¤¤à¤°à¤¸": 2507,
      "Ġà¤§à¤ķ": 2508,
      "Ġà¤ıà¤¯à¤°à¤Ł": 2509,
      "com": 2510,
      "ĠY": 2511,
      "Ġà¤¹à¤°à¤¸": 2512,
      "à¤¬à¤¢": 2513,
      "Ġà¤¤à¤²à¤µ": 2514,
      "Ġà¤Ĩà¤°à¤®": 2515,
      "Ġà¤ļà¤Ł": 2516,
      "Ġà¥¨à¥¦": 2517,
      "62": 2518,
      "à¥ĩ!": 2519,
      "à¤ªà¤¢": 2520,
      "à¤¬à¤¯": 2521,
      "à¤ħà¤¹à¤®": 2522,
      "à¤ľà¤¨à¤¤": 2523,
      "à¤Łà¤¨à¤°": 2524,
      "Ġ256": 2525,
      "ĠBJP": 2526,
      "à¤Ĺà¤łà¤¬": 2527,
      "03": 2528,
      "Ġà¤¬à¤ªà¤¤": 2529,
      "Ġà¤²à¤¤": 2530,
      "Ġà¤īà¤Ľ": 2531,
      "qu": 2532,
      "ure": 2533,
      "à¤¸à¤ľ": 2534,
      "Ġà¤ıà¤¨à¤°": 2535,
      "Ġà¤ĸà¤ľ": 2536,
      "Ġà¤īà¤ªà¤¹": 2537,
      "à¤Łà¤²à¤°": 2538,
      "à¤ıà¤«à¤Ĩà¤Ī": 2539,
      "igg": 2540,
      "Ġà¤²à¤¶": 2541,
      "à¤ĵà¤®": 2542,
      "87": 2543,
      "Ġà¤¹à¤°à¤ķà¤¤": 2544,
      "Ġà¤ªà¤Łà¤°": 2545,
      "Ġà¤¨à¤²": 2546,
      "Ġà¤¬à¤¹à¤°": 2547,
      "Ġà¤ıà¤¥à¤²": 2548,
      "Ġà¤ķà¤¹à¤ķà¤°": 2549,
      "Ġà¤¡à¤¬à¤²": 2550,
      "Ġ71": 2551,
      "Ġ95": 2552,
      "ĠNote": 2553,
      "86": 2554,
      "Ġà¤ķà¥ľ": 2555,
      "Ġà¤¨à¤°à¤®": 2556,
      "Ġà¤²à¤ķà¤¡": 2557,
      "ĠSt": 2558,
      ").": 2559,
      "à¤¸à¤µà¤°": 2560,
      "à¤¸à¤«à¤°": 2561,
      "Ġà¤²à¤Łà¤ķ": 2562,
      "Ġà¤Ĩà¤Ĺà¤°": 2563,
      "à¤Īà¤¨": 2564,
      "Ġà¤°à¤¹à¤¸": 2565,
      "à¥ĩà¥¤\"\"\"": 2566,
      "Ġ62": 2567,
      "ine": 2568,
      "92": 2569,
      "mAh": 2570,
      "ĠZ": 2571,
      "à¤ļà¤®": 2572,
      "Ġà¤®à¤¹à¤¬": 2573,
      "Ġà¤Ĳà¤¶": 2574,
      "Ġ77": 2575,
      "Ġà¤Ĩà¤®à¤¦à¤¨": 2576,
      "VID": 2577,
      "Ġà¤ķà¤¥à¤¨": 2578,
      "à¤Ńà¤¯": 2579,
      "Ġà¤ķà¤¹à¤²": 2580,
      "Ġà¤Ĩà¤ļà¤°à¤£": 2581,
      "à¥®": 2582,
      "Ġà¤ħà¤¥": 2583,
      "Ġà¤ĵà¤ª": 2584,
      "93": 2585,
      "à¤¨à¤«": 2586,
      "Ġà¤¨à¤®à¤ķ": 2587,
      "Ġà¤¥à¤ķ": 2588,
      "Ġà¤ħà¤ªà¤µ": 2589,
      "ort": 2590,
      "ĠBoss": 2591,
      "Ġà¤¬à¤°à¤¤à¤¨": 2592,
      "Ġà¤Ĩà¤ĩà¤¸": 2593,
      "Ġà¤ĸà¤¦": 2594,
      "Ġà¤¦à¤®à¤ķà¤²": 2595,
      "amsung": 2596,
      "à¥§": 2597,
      "à¤ıà¤®à¤¡": 2598,
      "à¤ıà¤«à¤ª": 2599,
      "à¤±": 2600,
      "à¤®à¤¬": 2601,
      "à¤Īà¤Ī": 2602,
      "Ġà¤ªà¤°à¤«": 2603,
      "à¥Ģà¤ĥ": 2604,
      "à¥ĩà¤Ĥ-": 2605,
      "à¤¬à¤¸à¤ª": 2606,
      "Ġà¤ĩà¤«": 2607,
      "à¤īà¤¸à¤®": 2608,
      "42": 2609,
      "he": 2610,
      "Ġà¤¿": 2611,
      "à¤Ĩà¤°à¤ı": 2612,
      "Ġ69": 2613,
      "à¤µà¤²à¤ªà¤®": 2614,
      "Ġ99": 2615,
      "Ġà¤ıà¤«à¤¡": 2616,
      "Ġà¤Ĩà¤łà¤µ": 2617,
      "72": 2618,
      "AA": 2619,
      "Ġà¤®à¤°à¤®": 2620,
      "Ġà¤ĸà¤ªà¤¤": 2621,
      "Ġà¤ĺà¤¬à¤°": 2622,
      "ect": 2623,
      "à¤Ĺà¤¯": 2624,
      "à¤ĩà¤«à¤²": 2625,
      "Ġà¥®": 2626,
      "Ġà¤ħà¤µà¤²": 2627,
      "à¤ķà¤ļ": 2628,
      "à¤®à¤Ł": 2629,
      "Ġà¤®à¤¯": 2630,
      "Ġà¤¨à¤ķà¤²": 2631,
      "à¤¾.\"": 2632,
      "à¤ıà¤¨à¤Ĩà¤Ī": 2633,
      "ĠBo": 2634,
      "83": 2635,
      "MS": 2636,
      "Ġk": 2637,
      "à¥Ģ\"\"": 2638,
      "à¤¨à¤¶": 2639,
      "à¥ĭ:": 2640,
      "Ġà¤¸à¤°à¤¸": 2641,
      "Ġà¤ļà¤®à¤ķ": 2642,
      "Ġà¤°à¤ĸà¤°à¤ĸ": 2643,
      "à¤ıà¤®à¤ķ": 2644,
      "Ġ600": 2645,
      "Bigg": 2646,
      "ld": 2647,
      "Ġà¤Ĺà¤ľ": 2648,
      "à¤°à¤¤à¤®": 2649,
      "Ġà¤«à¤¤": 2650,
      "à¤ħà¤¡": 2651,
      "Ġà¤ĵà¤µ": 2652,
      "à¤¦à¤°à¤²": 2653,
      "Ġ\"\"\"": 2654,
      "Ġ130": 2655,
      "Ġthe": 2656,
      "66": 2657,
      "à¥Ģ!": 2658,
      "Ġà¤ħà¤ªà¤ķ": 2659,
      "à¤¶à¤®à¤¨": 2660,
      "à¤ļà¤¢": 2661,
      "Ġà¤ķà¤°à¤¦": 2662,
      "à¤ıà¤®à¤ľ": 2663,
      "41": 2664,
      "Ġà¤īà¤ķà¤¸": 2665,
      "à¤Ĩà¤ªà¤¨": 2666,
      "à¤Łà¤°à¤«": 2667,
      "Ġà¤ľà¤¯à¤¶": 2668,
      "CC": 2669,
      "ps": 2670,
      "Ġx": 2671,
      "à¤¨à¤¯à¤¨": 2672,
      "Ġ2002": 2673,
      "igh": 2674,
      "RC": 2675,
      "im": 2676,
      "ud": 2677,
      "Ġ!": 2678,
      "à¤¬à¤°à¤¦": 2679,
      "à¤ıà¤¸à¤¯": 2680,
      "Ġà¤ħà¤ªà¤²": 2681,
      "à¤ıà¤ļà¤ª": 2682,
      "82": 2683,
      "Ġà¤¬à¤Łà¤¨": 2684,
      "à¤ĵà¤µ": 2685,
      "à¤ıà¤«à¤ĵ": 2686,
      "Ġà¤ªà¤ķà¥ľ": 2687,
      "à¤¨à¤¸à¤¨": 2688,
      "Ġà¤¦à¤®à¤¦": 2689,
      "Ġà¤°à¤¶": 2690,
      "à¤¬à¤®": 2691,
      "à¤ģ,": 2692,
      "Ġà¤¸à¤°à¤ķà¤¶": 2693,
      "Ġà¤°à¤ĸà¤ķà¤°": 2694,
      "Ġà¥Ń": 2695,
      "Ġà¥§à¥«": 2696,
      "Ġnic": 2697,
      "à¤ħà¤¹à¤®à¤¦": 2698,
      "ub": 2699,
      "Ġà¤ķà¤¤à¤°": 2700,
      "à¤Ńà¤¦": 2701,
      "à¤ħà¤ªà¤°": 2702,
      "Ġà¤Ŀà¤²à¤ķ": 2703,
      "Ġà¤Ķà¤²": 2704,
      "à¤¹à¤¡": 2705,
      "88": 2706,
      "Ġr": 2707,
      "Ġà¤ķà¤£": 2708,
      "à¤Ĺà¤Ī": 2709,
      "Ġà¤µà¤²": 2710,
      "Ġà¤°à¤¹à¤®à¤¤": 2711,
      "à¤Ĩà¤¶": 2712,
      "à¤īà¤¡à¤°": 2713,
      "à¤¸à¤®à¤°": 2714,
      "end": 2715,
      "',": 2716,
      "76": 2717,
      "Ġà¤ľà¤¶": 2718,
      "Ġ2003": 2719,
      "ase": 2720,
      "Ġà¤°à¤ľà¤¨": 2721,
      "Ġà¤ªà¤°à¤¦": 2722,
      "à¤Ĩà¤Īà¤ľ": 2723,
      "Ġà¤ıà¤®à¤ı": 2724,
      "ĠHindi": 2725,
      "à¥ļà¤®": 2726,
      "%)": 2727,
      "56": 2728,
      "du": 2729,
      "hat": 2730,
      "à¤®à¤ķà¤¤": 2731,
      "Ġà¤ªà¤¥à¤°": 2732,
      "Ġà¤ľà¤¸à¤ª": 2733,
      "Ġà¤¸à¤¹à¤Ń": 2734,
      "Ġà¤¸à¤°à¤ª": 2735,
      "Ġà¤ıà¤¸à¤ıà¤®à¤ıà¤¸": 2736,
      "Ġà¤ħà¤ľà¤¹à¤°": 2737,
      "91": 2738,
      "à¤°à¤ļà¤²": 2739,
      "Ġà¤Ĺà¤¦": 2740,
      "Ġà¤Ĩà¤ĩà¤ı": 2741,
      "Ġ--": 2742,
      "Ġ61": 2743,
      "Ġà¤ľà¤Ĺà¤¦": 2744,
      "ĠRealme": 2745,
      "Ġà¤īà¤¤à¤°à¤¨": 2746,
      "ran": 2747,
      "se": 2748,
      "Ġà¤¦à¤°à¤®": 2749,
      "à¤§à¤®": 2750,
      "Ġà¤¤à¤¹à¤°": 2751,
      "Ġà¤Ĩà¤ī": 2752,
      "à¤£à¤ª": 2753,
      "Ġà¤īà¤¸à¤ªà¤°": 2754,
      "Ġà¤ıà¤¸à¤¯": 2755,
      "Ġ76": 2756,
      "à¤Ńà¤Ĺà¤µ": 2757,
      "51": 2758,
      "Realme": 2759,
      "ain": 2760,
      "Ġa": 2761,
      "à¤Ĺà¤µà¤¤": 2762,
      "à¤īà¤°": 2763,
      "à¤°à¤¹à¤µ": 2764,
      "Ġà¤ıà¤¨à¤Ł": 2765,
      "Ġà¤ıà¤²à¤Īà¤¡": 2766,
      "Ġà¥§à¥¨": 2767,
      "Ġà¤ķà¤®à¤²à¤¨": 2768,
      "02": 2769,
      "81": 2770,
      "AT": 2771,
      "OVID": 2772,
      "Ġwww": 2773,
      "à¤ĩà¤Łà¤°": 2774,
      "à¤¾à¥¤\"\"\"": 2775,
      "Ġà¤Īà¤ª": 2776,
      "Ġ2001": 2777,
      "Ġà¤¹à¤ķà¤¦": 2778,
      "sc": 2779,
      "à¤°à¥Ľ": 2780,
      "Ġà¤¹à¤°à¤¦": 2781,
      "à¤Ĺà¥ľ": 2782,
      "à¤¬à¤°à¤¦à¤¸": 2783,
      "à¤¥à¤¯": 2784,
      "à¤«à¤¡": 2785,
      "Ġà¤ıà¤ķà¤¦": 2786,
      "à¤¤à¤°à¤«": 2787,
      "Ġà¤ħà¤µà¤®": 2788,
      "Ġà¤ħà¤¸à¤®à¤°": 2789,
      "Ġà¤®à¤Ĺ": 2790,
      "à¤¡à¤¯à¤¨": 2791,
      "à¤ĵà¤ı": 2792,
      "2013": 2793,
      "Ġà¤°à¤£à¤¦": 2794,
      "Ġà¤¨à¤«à¤°à¤¤": 2795,
      "Ġà¤·à¤¡": 2796,
      "Ġâ": 2797,
      "Ġà¤®à¤²à¤¯": 2798,
      "à¤¾,âĢĺâĢĺ": 2799,
      "à¤ĩà¤¨à¤¸": 2800,
      "Ġà¤ħà¤ķà¤¸à¤°": 2801,
      "Ġà¤ľà¤Ĺà¤¨": 2802,
      "Ġà¤ıà¤²à¤ª": 2803,
      "ore": 2804,
      "ame": 2805,
      "à¥§à¥¯à¥": 2806,
      "à¤¹à¤«": 2807,
      "à¤·à¤Ĺ": 2808,
      "Ġà¤¯à¤®": 2809,
      "Ġà¤ļà¤¹à¤²": 2810,
      "à¤¼à¤¾.": 2811,
      "à¤¸à¤¨à¤²": 2812,
      "à¤°à¤¶à¤¸": 2813,
      "//": 2814,
      "84": 2815,
      "94": 2816,
      "PM": 2817,
      "Plus": 2818,
      "ai": 2819,
      "Ġà¤¸à¤¦à¤°": 2820,
      "Ġà¤¸à¤ľà¤¦": 2821,
      "Ġà¤¹à¥ĺ": 2822,
      "Ġà¤¬à¤ķà¤°": 2823,
      "Ġà¤°à¤®à¤¨": 2824,
      "à¤¡à¤¤": 2825,
      "à¤·à¤ª": 2826,
      "à¤¤à¤°à¤ª": 2827,
      "âĢĻ,": 2828,
      "à¤Ĳà¤ª": 2829,
      "Ġà¤ıà¤®à¤¸": 2830,
      "à¤¸à¤¬à¤ķ": 2831,
      "Ġà¤ªà¥ľà¤¤": 2832,
      "nePlus": 2833,
      "CB": 2834,
      "Phone": 2835,
      "à¤ļà¤¤à¤°": 2836,
      "Ġà¤ªà¤¹à¤¨à¤¨": 2837,
      "Ġà¤Ĩà¤Ĺà¤®à¤¨": 2838,
      "Ġ91": 2839,
      "à¤īà¤¸à¤¸": 2840,
      "Ġ144": 2841,
      "à¤ĳà¤ķ": 2842,
      "300": 2843,
      "://": 2844,
      "SS": 2845,
      "aj": 2846,
      "à¤®à¤Ń": 2847,
      "à¥ĭà¤Ĥ?": 2848,
      "ĠPr": 2849,
      "ide": 2850,
      "Ġà¤ħà¤Łà¤ķà¤²": 2851,
      "78": 2852,
      "ru": 2853,
      "à¤°à¤¬à¤²": 2854,
      "Ġà¤ªà¤¤à¤°à¤¸": 2855,
      "Ġà¤¦à¤®à¤¨": 2856,
      "Ġà¤®à¤¹à¤®": 2857,
      "à¤Łà¤°à¤Ł": 2858,
      "ĠEx": 2859,
      "ĠNews": 2860,
      "54": 2861,
      "61": 2862,
      "Ġà¤ħà¤¯à¤¸": 2863,
      "Ġà¤Ĩà¤ĩà¤¡": 2864,
      "à¤Ĺà¤°à¤ª": 2865,
      "Ġà¤ħà¤«à¤°": 2866,
      "orld": 2867,
      "ĠMi": 2868,
      "IM": 2869,
      "sp": 2870,
      "à¥Ĭ": 2871,
      "à¤ķà¤£": 2872,
      "à¤®à¤Ī": 2873,
      "à¤ľà¤ķà¤°": 2874,
      "à¤ĵà¤ıà¤¸": 2875,
      "à¤ħà¤Ĺ": 2876,
      "à¤Ĩà¤Īà¤ıà¤«": 2877,
      "à¥ľà¤ķà¤°": 2878,
      "Ġà¤ħà¤ªà¤¶": 2879,
      "Ġ82": 2880,
      "Ġ84": 2881,
      "ical": 2882,
      "):": 2883,
      "Ġ$": 2884,
      "à¤¸à¤¤à¤¨": 2885,
      "à¤®à¤ľà¤¦": 2886,
      "Ġà¤¹à¤¬": 2887,
      "Ġà¤¬à¤¦à¤¨": 2888,
      "Ġà¤Ĺà¤°à¤®": 2889,
      "Ġà¤Ĩà¤ĵ": 2890,
      "à¤Īà¤¶": 2891,
      "Ġà¤ĩà¤°à¤«": 2892,
      "à¤ĸà¤²à¤¨": 2893,
      "à¤ħà¤¶": 2894,
      "Ġà¤Ľà¤²": 2895,
      "Ġà¤¬à¤²à¤µ": 2896,
      "à¥Ĥà¤ģ.": 2897,
      "ath": 2898,
      "74": 2899,
      "à¥įà¤¾": 2900,
      "à¤²à¤ªà¤¤": 2901,
      "Ġà¤ªà¤¸à¤¨": 2902,
      "à¤µà¤Ĺ": 2903,
      "Ġà¤¨à¥Ľà¤°": 2904,
      "Ġà¤īà¤Ń": 2905,
      "Ġà¤Ĩà¤¡": 2906,
      "à¤¾à¤Ĥ-": 2907,
      "à¤ľà¤¨à¤µà¤°": 2908,
      "ĠIP": 2909,
      "52": 2910,
      "ial": 2911,
      "à¤Ļ": 2912,
      "à¤¶à¤Ńà¤ķ": 2913,
      "Ġà¤µà¤°à¤¨": 2914,
      "à¤ıà¤¸à¤ľ": 2915,
      "Ġà¤¦à¤°à¤¬": 2916,
      "Ġà¤ıà¤¸à¤Ĩà¤Īà¤Ł": 2917,
      "2011": 2918,
      "Redmi": 2919,
      "à¤¾|": 2920,
      "à¤°à¤¯à¤¤": 2921,
      "Ġà¤ķà¤Łà¤°": 2922,
      "à¤ķà¤«": 2923,
      "à¤ıà¤°": 2924,
      "à¤¬à¤¹à¤¨": 2925,
      "Ġà¤Ĩà¤°à¤ľ": 2926,
      "à¤Ĩà¤Īà¤¬": 2927,
      "à¤¼à¥ĩ-": 2928,
      "Ġ105": 2929,
      "Ġto": 2930,
      "AM": 2931,
      "ev": 2932,
      "ies": 2933,
      "à¤¯à¤Ĺà¤¢": 2934,
      "Ġà¤¹à¤Łà¤¨": 2935,
      "à¤ıà¤Ĩà¤°": 2936,
      "à¤·à¤°à¤¤": 2937,
      "à¤ĵà¤¬": 2938,
      "à¤ıà¤¸à¤ıà¤®": 2939,
      "à¤ıà¤¸à¤Ĩà¤Īà¤Ĩà¤°": 2940,
      "Ġà¤ĵà¤¸": 2941,
      "à¤ĳà¤¨à¤²": 2942,
      "à¤°à¤ł": 2943,
      "Ġà¤ħà¤¹à¤²": 2944,
      "Ġà¤ıà¤£": 2945,
      "Ġà¤ıà¤¨à¤ķ": 2946,
      "à¤«à¤¬": 2947,
      "à¤ħà¤®à¤¤": 2948,
      "à¤¹à¤¤à¤ķ": 2949,
      "Ġà¤Ĩà¤Īà¤ıà¤¸": 2950,
      "Ġ800": 2951,
      "Ġà¤ıà¤®à¤¬": 2952,
      "ant": 2953,
      "ass": 2954,
      "à¤¨à¤ľà¤¨à¤ķ": 2955,
      "Ġà¤īà¥ľ": 2956,
      "Ġà¤ĸà¤£": 2957,
      "à¤¯à¤²à¤²": 2958,
      "à¤¬à¤¦à¤²": 2959,
      "2012": 2960,
      "ĠAn": 2961,
      "53": 2962,
      "à¤¦à¤¹": 2963,
      "à¤ĸà¤¬": 2964,
      "Ġà¤Ĩà¤Īà¤«": 2965,
      "Ġà¤ıà¤¨à¤ľ": 2966,
      "59": 2967,
      "ly": 2968,
      "à¤ķà¤®à¤¤": 2969,
      "à¤ªà¤°à¤ķ": 2970,
      "à¤ľà¤°à¤¤": 2971,
      "à¤¶à¤ª": 2972,
      "à¤¶à¤²à¤¤": 2973,
      "Ġà¤¤à¤¡": 2974,
      "Ġà¤Ĩà¤¯à¤°à¤²": 2975,
      "à¤Īà¤ħà¤¡": 2976,
      "à¤¥à¤¡": 2977,
      "Ġà¤ħà¤¨à¤¦": 2978,
      "à¤¢à¤¨": 2979,
      "Ġà¤Ĩà¤Īà¤ľ": 2980,
      "Ġà¤Ĩà¤Īà¤ıà¤ıà¤¸": 2981,
      "IS": 2982,
      "Ġre": 2983,
      "Ġ5000": 2984,
      "Ġà¤ļà¤²à¤ķà¤°": 2985,
      "à¤¶à¤¤à¤ķ": 2986,
      "Ġ81": 2987,
      "Ġ96": 2988,
      "Ġà¤ıà¤®à¤ª": 2989,
      "à¤¸à¤°à¤¤": 2990,
      "Ġà¤¸à¤Ĺ": 2991,
      "Ġà¤¨à¤µà¤¨": 2992,
      "à¤ıà¤Łà¤°": 2993,
      "Ġà¤²à¤ļ": 2994,
      "Ġà¤Ńà¤Ĺà¤¤": 2995,
      "à¤¯à¤ķà¤²": 2996,
      "Ġà¤µà¤¹à¤¨": 2997,
      "Ġà¥¯": 2998,
      "Ġà¤ħà¤µà¤¤": 2999,
      "à¤¬à¤ľà¤Ł": 3000,
      "Ġà¤ħà¤ªà¤ķà¤®": 3001,
      "à¤°à¤¹à¤®": 3002,
      "à¤¤à¤¶": 3003,
      "à¤¡à¤°à¤¸à¤¨": 3004,
      "Ġà¤ĩà¤¸à¤ªà¤°": 3005,
      "à¤īà¤ľ": 3006,
      "à¤ľà¤°à¤¨": 3007,
      "ivo": 3008,
      "Ġà¤Ĩà¤Īà¤ıà¤ıà¤¨à¤ıà¤¸": 3009,
      "ĠâĢĭâĢĭ": 3010,
      "IN": 3011,
      "if": 3012,
      "à¥¯": 3013,
      "Ġà¤£": 3014,
      "à¥Ģ(": 3015,
      "à¤¤à¤Ń": 3016,
      "Ġà¤ľà¤¯à¤°": 3017,
      "Ġà¤°à¤¤à¤¨": 3018,
      "à¤Īà¤ı": 3019,
      "Ġ83": 3020,
      "Ġ88": 3021,
      "Ġ92": 3022,
      "ary": 3023,
      "omi": 3024,
      "ric": 3025,
      "à¤ªà¥ľ": 3026,
      "à¤ľà¤¯à¤¨": 3027,
      "Ġà¤ħà¤¸à¤¦": 3028,
      "Ġà¤ªà¤°à¤¤": 3029,
      "à¤ĩà¤ļ": 3030,
      "Ġà¤ħà¤¨à¤®": 3031,
      "à¤ĵà¤¯": 3032,
      "à¤ľà¤°à¤²": 3033,
      "Ġà¤ĩà¤¨à¤ª": 3034,
      "Ġà¤¬à¤¦à¤²à¤ķà¤°": 3035,
      "Ġà¤ħà¤«à¤¸": 3036,
      "ĠRs": 3037,
      "71": 3038,
      "73": 3039,
      "79": 3040,
      "ED": 3041,
      "oun": 3042,
      "Ġà¤¤à¤²à¤¬": 3043,
      "Ġà¤Ĺà¤®": 3044,
      "Ġà¤Ĩà¥Ļ": 3045,
      "à¤¥à¤ª": 3046,
      "Ġà¤ĩà¤¤à¤°": 3047,
      "Ġà¤ħà¤¬à¤¤à¤ķ": 3048,
      "Ġ86": 3049,
      "OS": 3050,
      "à¤²à¤ĸà¤¨à¤Ĭ": 3051,
      "à¤µà¤¦à¤°": 3052,
      "Ġà¤¦à¤ĸà¤²": 3053,
      "à¤¬à¤Ł": 3054,
      "Ġà¤¤à¤ĸ": 3055,
      "ÂłÂł": 3056,
      "ance": 3057,
      "Ġ110": 3058,
      "Ġ160": 3059,
      "ost": 3060,
      "Ġà¤µà¤¶": 3061,
      "à¤¬à¤§": 3062,
      "Ġà¤Ĩà¤®à¤¨": 3063,
      "à¤¼à¥Ģ)": 3064,
      "Ġà¤ľà¤¨à¤¸à¤Ń": 3065,
      "Ġà¤ıà¤¨à¤ıà¤ļ": 3066,
      "Ġà¤ıà¤®à¤Ł": 3067,
      "Ġà¥§à¥ª": 3068,
      "lection": 3069,
      "Samsung": 3070,
      "ech": 3071,
      "our": 3072,
      "Ġà¤®à¤¦à¤¨": 3073,
      "Ġà¤¦à¤£": 3074,
      "Ġà¤ļà¤ĸ": 3075,
      "à¤Ĩà¤°à¤ıà¤¸à¤ıà¤¸": 3076,
      "Ġà¤īà¤łà¤¨": 3077,
      "à¤ľà¤¯à¤ª": 3078,
      "Ġhtt": 3079,
      "ph": 3080,
      "à¥ĭâĢĻ": 3081,
      "Ġà¤®à¥Ľ": 3082,
      "à¤ľà¤ªà¤¤": 3083,
      "à¤ıà¤¬à¤²": 3084,
      "à¥Īà¤Ĥ!": 3085,
      "Ġà¤§à¤¡": 3086,
      "Ġà¤¸à¤¹à¤µ": 3087,
      "à¤ıà¤®à¤Ĩà¤Ī": 3088,
      "à¤°à¤¬à¤¨": 3089,
      "lip": 3090,
      "à¤¤à¤¨à¤®": 3091,
      "à¤ķà¤¯": 3092,
      "à¤®à¤ĺ": 3093,
      "Ġà¤ľà¤¹à¤°": 3094,
      "Ġà¤ħà¤£": 3095,
      "à¤§à¤¶à¤¤à¤ķ": 3096,
      "Ġà¤Ĩà¤¯à¤°": 3097,
      "990": 3098,
      "Ġà¥§à¥©": 3099,
      "ĠEn": 3100,
      "iss": 3101,
      "India": 3102,
      "à¤¤à¤¦": 3103,
      "à¤²à¤¬à¤°": 3104,
      "Ġà¤µà¤¯à¤¸": 3105,
      "Ġà¤Ĩà¤ĩ": 3106,
      "Ġà¤Ķà¤¸à¤¤à¤¨": 3107,
      "Ġà¤īà¤²à¤Ŀ": 3108,
      "iaomi": 3109,
      "63": 3110,
      "ex": 3111,
      "Ġ%": 3112,
      "à¥ĩà¥ĩ": 3113,
      "Ġà¤¹à¤°à¤®": 3114,
      "à¥ģ:": 3115,
      "à¤¶à¤ĸà¤¬à¤°": 3116,
      "à¤ļà¤¡": 3117,
      "à¤ıà¤¨à¤ıà¤ļ": 3118,
      "Ġ98": 3119,
      "Ġà¤¢à¤ķ": 3120,
      "à¤¼à¥ĩà¤Ĥ-": 3121,
      "Ġà¥§à¥®": 3122,
      "Ġà¤ıà¤«à¤¸": 3123,
      ">>": 3124,
      "AP": 3125,
      "Ġst": 3126,
      "à¤ķà¤¦": 3127,
      "Ġà¤ªà¤¹à¤²à¤µ": 3128,
      "à¤¤à¤ķà¤¨": 3129,
      "ang": 3130,
      "58": 3131,
      "à¤¬à¥ľ": 3132,
      "Ġà¤īà¤¬": 3133,
      "Ġà¤Ńà¤¦": 3134,
      "à¤ĸà¤Ł": 3135,
      "à¤«à¤°à¤ª": 3136,
      "Ġà¤īà¤¦à¤¯": 3137,
      "Ġà¥¨à¥¦à¥¦": 3138,
      "à¤īà¤ªà¤Ń": 3139,
      "Ġfor": 3140,
      "69": 3141,
      "ile": 3142,
      "Ġà¤ħà¤®à¤¨": 3143,
      "à¤§à¤¸": 3144,
      "à¤·à¤¸": 3145,
      "Ġà¤ıà¤¹à¤¤": 3146,
      "Ġà¤«à¤°à¤¹": 3147,
      "Ġà¤¸à¤®à¤¤": 3148,
      "à¤īà¤ªà¤¯": 3149,
      "Ġà¤ħà¤¸à¤¹": 3150,
      "Ġ700": 3151,
      "Ġà¤ıà¤®à¤¡": 3152,
      "kart": 3153,
      "Ġ@": 3154,
      "à¤¸à¤Ĳà¤ª": 3155,
      "Ġà¤«à¤²à¤¸": 3156,
      "Ġà¤ķà¤¯": 3157,
      "Ġà¤¬à¤¬": 3158,
      "Ġà¤ĺà¤®": 3159,
      "à¤®à¤²à¤µ": 3160,
      "Ġà¤¤à¤°à¤²": 3161,
      "à¤¾...": 3162,
      "à¤¾)à¥¤": 3163,
      "ĠCh": 3164,
      "à¤¨à¤¹à¤°": 3165,
      "à¤²à¤Ł": 3166,
      "Ġà¤°à¤¹à¤ķà¤°": 3167,
      "Ġ350": 3168,
      "à¤¸à¤²à¤°": 3169,
      "Ġà¤®à¤¨à¤¸": 3170,
      "Ġà¤ķà¤²à¤ķà¤¤": 3171,
      "Ġ94": 3172,
      "Ġà¥§à¥§": 3173,
      "lipkart": 3174,
      "ou": 3175,
      "à¥Ģ+": 3176,
      "à¤¤à¤¯": 3177,
      "Ġà¤¤à¤¹": 3178,
      "à¤Ńà¤ª": 3179,
      "à¤«à¤¤": 3180,
      "à¤ħà¤Ĺà¤¸": 3181,
      "à¤°à¤¦à¤¤": 3182,
      "à¤ģà¥¤": 3183,
      "Ġà¤Īà¤ķ": 3184,
      "Ġà¤ľà¤¨à¤¹": 3185,
      "ind": 3186,
      "à¤ķà¤ķà¤°": 3187,
      "Ġà¤ħà¤¹à¤¸": 3188,
      "Ġà¤ıà¤ĸ": 3189,
      "à¤ľà¤¨à¤°à¤²": 3190,
      "à¤¼à¥Ģ:": 3191,
      "Ġ'%": 3192,
      "Ġà¤Īà¤¦": 3193,
      "800": 3194,
      "ik": 3195,
      "pd": 3196,
      "Ø§": 3197,
      "à¤²à¤ĸ": 3198,
      "Ġà¤¨à¤ķà¤µ": 3199,
      "Ġà¤¦à¤¸à¤µ": 3200,
      "Ġà¤ıà¤Ĩà¤Ī": 3201,
      "à¤īà¤ķ": 3202,
      "Ġà¤ľà¤¨à¤Ĺà¤£à¤¨": 3203,
      "Ġà¤ľà¤²à¤®": 3204,
      "à¥ĩ...": 3205,
      "Ġ1999": 3206,
      "à¤°à¤¨à¤Ĺà¤°": 3207,
      "à¥Ĥà¤Ĥà¥¤\"": 3208,
      "Ġà¤¬à¥Ŀà¤ķà¤°": 3209,
      "ace": 3210,
      "à¥ĭ'": 3211,
      "à¤Ĺà¤ľà¤¨": 3212,
      "Ġà¤µà¤Ĺ": 3213,
      "à¤¡à¤¸à¤¨": 3214,
      "à¤¾,âĢĺ": 3215,
      "Ġà¤°à¤ĸà¤µ": 3216,
      "Ġà¤¹à¤°à¤Ńà¤ľà¤¨": 3217,
      "Ġà¤ħà¤¸à¤¹à¤®à¤¤": 3218,
      "à¤ıà¤²à¤¡": 3219,
      "Ġ93": 3220,
      "à¤¸à¤¬à¤°": 3221,
      "Ġà¤°à¤¥": 3222,
      "à¤¡à¤«": 3223,
      "Ġà¤ļà¤¡": 3224,
      "Ġà¥¤\"\"\"": 3225,
      "à¤¯à¤°à¤¬": 3226,
      "Ġgov": 3227,
      "ĠQ": 3228,
      "à¤¿à¤¾": 3229,
      "à¤ķà¤Ĩà¤īà¤Ł": 3230,
      "Ġà¤ľà¤¬à¤°à¤¨": 3231,
      "à¤ĩà¤Łà¤²": 3232,
      "Ġà¤¥à¤®": 3233,
      "Ġà¤¬à¤¦à¤¤à¤°": 3234,
      "Ġà¤Ķà¤±": 3235,
      "Ġà¤¹à¤Łà¤ķà¤°": 3236,
      "Ġ1961": 3237,
      "mit": 3238,
      "Ġà¤ľà¤²à¤¨": 3239,
      "Ġ()": 3240,
      "à¥Īà¤Ĥ.\"": 3241,
      "à¤°à¤Ńà¤¦": 3242,
      "ens": 3243,
      "ĠiPhone": 3244,
      "à¥ĩ/": 3245,
      "à¤¸à¤Ĺ": 3246,
      "à¤¦à¤ķà¤°": 3247,
      "Ġà¤ľà¤¯à¤²à¤²": 3248,
      "Ġà¤ļà¤¶": 3249,
      "Ġà¤«à¤Ł": 3250,
      "Ġà¤®à¤¹à¤°": 3251,
      "à¤ıà¤¸à¤ıà¤¨à¤ıà¤²": 3252,
      "Ġ79": 3253,
      "à¤ıà¤¨à¤Ł": 3254,
      "Ġà¤Ĭà¤¤à¤ķ": 3255,
      "Ġà¥§à¥Ń": 3256,
      "irus": 3257,
      "Ġà¤¦à¤¶à¤®à¤²à¤µ": 3258,
      "à¤°à¤ľà¤¨à¤¨": 3259,
      "aw": 3260,
      "Ġon": 3261,
      "Ġà¤¹à¤²à¤ķ": 3262,
      "Ġà¤ªà¤Łà¤ķ": 3263,
      "à¤Ĺà¤®à¤¤": 3264,
      "à¤ıà¤ıà¤¸": 3265,
      "à¤ļà¤²à¤¨": 3266,
      "Ġà¤¤à¤¸à¤µ": 3267,
      "Ġà¤ªà¤¦à¤Ń": 3268,
      "à¤ľà¤²à¤µ": 3269,
      "ĠCOVID": 3270,
      "oron": 3271,
      "ĠII": 3272,
      "Ġ1996": 3273,
      "old": 3274,
      "Ġà¤ıà¤®à¤ıà¤ıà¤ļ": 3275,
      "BS": 3276,
      "Ġà¤ķà¤·": 3277,
      "Ġà¤¬à¤µ": 3278,
      "à¥ĭà¤ĤâĢĻ": 3279,
      "à¤§à¤°à¤¨": 3280,
      "à¤Īà¤ļ": 3281,
      "à¤ĺà¤²": 3282,
      "Ġà¤¬à¤¹à¤ķ": 3283,
      "Ġà¤¸à¤®à¤Ŀà¤¦": 3284,
      "ĠAd": 3285,
      "Ġà¥§à¥¬": 3286,
      "IA": 3287,
      "pl": 3288,
      "à¤°à¤Ĩà¤¨": 3289,
      "à¤®à¤®à¤¤": 3290,
      "à¥Ī'": 3291,
      "à¤Łà¤¯": 3292,
      "à¤¡à¤Ī": 3293,
      "à¤Ńà¤¨": 3294,
      "à¤Ľà¤¹": 3295,
      "à¤ĵà¤µà¤°": 3296,
      "Ġà¤Ĩà¤Īà¤¬": 3297,
      "Ġ97": 3298,
      "Ġà¤¸à¤¨à¤¸à¤¨": 3299,
      "ash": 3300,
      "ual": 3301,
      "à¤Īà¤ıà¤®": 3302,
      "à¤¾à¥¤à¥¤": 3303,
      "Ġà¤Ĩà¤°à¤ª": 3304,
      "à¤ıà¤²à¤¸": 3305,
      "à¤Ĭà¤°": 3306,
      "à¤ĳà¤ªà¤°": 3307,
      "ĠHD": 3308,
      "olog": 3309,
      "PF": 3310,
      "à¤¸à¤¯": 3311,
      "Ġà¤¤à¤«": 3312,
      "Ġ(\"\"": 3313,
      "à¥īà¤ģ": 3314,
      "à¤µà¤°à¤ķà¤°": 3315,
      "à¤®à¤¤à¤¦": 3316,
      "Ġà¤ĵà¤Ł": 3317,
      "à¤¯à¤²à¤®": 3318,
      "Ġà¤ıà¤®à¤ĵà¤¯": 3319,
      "IR": 3320,
      "à¤ŁÃ¯": 3321,
      "Ġà¤ľà¤¦à¤¯": 3322,
      "Ġà¤Ĩà¤ĩà¤ª": 3323,
      "à¤Ĩà¤ł": 3324,
      "à¤łà¤ķà¤°": 3325,
      "Ġà¤ħà¤Ńà¤¯": 3326,
      "Ġ108": 3327,
      "à¤¨à¤µà¤ľ": 3328,
      "Ġà¤¤à¤¬à¤ķ": 3329,
      "Ġà¤Ĩà¤²à¤®": 3330,
      "à¤«à¤°à¤µà¤°": 3331,
      "à¤ĳà¤°": 3332,
      "à¤ĳà¤²": 3333,
      "ingh": 3334,
      "/-": 3335,
      "Â»": 3336,
      "à¤ĵà¤Ł": 3337,
      "à¤ªà¤°à¤¹": 3338,
      "Ġ89": 3339,
      "Ġ140": 3340,
      "Ġà¥ĺà¤°": 3341,
      "Ġà¤¦à¤¹à¤¶à¤¤": 3342,
      "avirus": 3343,
      "900": 3344,
      "Ġà¤Ĩà¤¸à¤¨": 3345,
      "à¤¤à¤°à¤¹": 3346,
      "Ġà¤¹à¤®à¤ķ": 3347,
      "Ġà¤ıà¤¨à¤Ĩà¤Īà¤ı": 3348,
      "Ġ03": 3349,
      "Ġà¤°à¤£à¤ľ": 3350,
      "Ġà¤īà¤ªà¤¨à¤Ĺà¤°": 3351,
      "600": 3352,
      "ue": 3353,
      "Ġà¤¸à¥Ľ": 3354,
      "Ġà¤Ĩà¤Ł": 3355,
      "à¤ħà¥Ľ": 3356,
      "à¤Ĩà¤Īà¤Ĩà¤Īà¤Ł": 3357,
      "à¥ľà¤¤": 3358,
      "Ġà¤®à¤¤à¤Ĺà¤£à¤¨": 3359,
      "Ġ180": 3360,
      "ĠSc": 3361,
      "Ġà¤ıà¤¯à¤°à¤µ": 3362,
      "Ġ02": 3363,
      "ĠCBI": 3364,
      "Ġ1998": 3365,
      "à¤¾à¤¾": 3366,
      "à¤¾âĢĿ": 3367,
      "Ġà¤®à¤²à¤¬": 3368,
      "Ġà¤ľà¤¦": 3369,
      "\"\")": 3370,
      "Ġà¤¦à¤°à¤ħà¤¸à¤²": 3371,
      "Ġà¤¸à¤°à¤ªà¤°à¤¸": 3372,
      "Ġ87": 3373,
      "Ġà¤¨à¤ľà¤°à¤ħ": 3374,
      "ĠRe": 3375,
      "à¥ĺà¤¯": 3376,
      "ĠIS": 3377,
      "Ġà¤ļà¤¯à¤¨à¤ķà¤°": 3378,
      "ber": 3379,
      "oh": 3380,
      "Ġà¤ķà¤ľ": 3381,
      "à¤¤à¤°à¤¤": 3382,
      "à¤µà¤£": 3383,
      "Ġà¤¨à¤®à¤¨": 3384,
      "à¤Łà¤°à¤®": 3385,
      "à¥īà¤Ĥ": 3386,
      "Ġà¤¸à¤¬à¤®": 3387,
      "à¤ıà¤¨à¤Ĩà¤°": 3388,
      "à¥ĭà¥¤\"\"\"": 3389,
      "Ġà¤¬à¥Ŀà¤¨": 3390,
      "Ġ1990": 3391,
      "ii": 3392,
      "per": 3393,
      "ust": 3394,
      "à¤¿âĢĻ": 3395,
      "Ġà¤¬à¤Łà¤²à¤°": 3396,
      "à¥ĭà¤Ĥ.": 3397,
      "à¤¡à¤©": 3398,
      "Ġà¤ıà¤¯": 3399,
      "à¥Ĥà¤ģ?": 3400,
      "ĠCup": 3401,
      "Ġà¤¹à¤²à¤«à¤¨": 3402,
      "dian": 3403,
      "Ġcom": 3404,
      "ppo": 3405,
      "âĸ¡": 3406,
      "ss": 3407,
      "Ġ>": 3408,
      "à¥ĩà¥į": 3409,
      "à¤®à¤µà¤°": 3410,
      "à¤¹à¤²à¤¤": 3411,
      "à¤ħà¤ľà¤¯": 3412,
      "Ġà¤łà¤ª": 3413,
      "à¤ĥ,": 3414,
      "à¤ıà¤«à¤Ł": 3415,
      "ates": 3416,
      "Ġ08": 3417,
      "Ġ1984": 3418,
      "Ġ\\\"\"\"\"\"": 3419,
      "AN": 3420,
      "ge": 3421,
      "Ġdi": 3422,
      "Ġac": 3423,
      "à¤¤à¤°à¤ķ": 3424,
      "Ġà¤®à¤°à¤¤": 3425,
      "à¥ĩà¤Ĥ...": 3426,
      "à¤Łà¤¸à¤¨": 3427,
      "Ġà¤ķà¤¹à¤°": 3428,
      "à¤łà¤®": 3429,
      "à¤ħà¤°à¤¬": 3430,
      "Ġà¤Ĩà¤Īà¤ıà¤¨à¤ıà¤¸": 3431,
      "à¤ıà¤²à¤ª": 3432,
      "à¥Ľà¤Ĺ": 3433,
      "Ġà¥Ļà¤°": 3434,
      "à¤ıà¤ļà¤¸": 3435,
      "Ġcon": 3436,
      "Ġà¥¨à¥«": 3437,
      "ĠBoard": 3438,
      "oronavirus": 3439,
      "à¤°à¤¹à¤°": 3440,
      "à¤ĺà¤®": 3441,
      "Ġà¤¸à¤®à¤¯à¤¬à¤¦": 3442,
      "Ġà¤ħà¤µà¤ľ": 3443,
      "à¤ıà¤«à¤¡": 3444,
      "Ġà¤ıà¤®à¤ľ": 3445,
      "Ġà¥Ļà¤¬à¤°": 3446,
      "ill": 3447,
      "ational": 3448,
      "Ġà¥§à¥¯à¥¯à¥": 3449,
      "à¤ľà¤Ńà¤µà¤¨": 3450,
      "ĠPrice": 3451,
      "St": 3452,
      "Ġà¤ķà¤¦à¤°": 3453,
      "Ġà¤¦à¤°à¤ķ": 3454,
      "à¤¡à¤Ĺ": 3455,
      "Ġà¤Łà¤®": 3456,
      "à¥Ī...": 3457,
      "à¤ıà¤®à¤¯": 3458,
      "ĠPl": 3459,
      "App": 3460,
      "FC": 3461,
      "UP": 3462,
      "ef": 3463,
      "ya": 3464,
      "Ġor": 3465,
      "à¤¾à¥ĩà¤Ĥ": 3466,
      "à¤°à¤Ĺà¤¢": 3467,
      "à¤¯à¤¬à¤°": 3468,
      "à¤µà¤¸à¤®": 3469,
      "Ġà¤ħà¤ľà¤®": 3470,
      "à¤·à¤ľà¤¨à¤ķ": 3471,
      "Ġà¤Ĩà¤°à¤¸": 3472,
      "à¥Īà¥¤\"\"": 3473,
      "Ġà¤ļà¤®à¤¤": 3474,
      "à¥Ģà¤Ĥ-": 3475,
      "à¤¸à¤¦à¤¸": 3476,
      "Ġà¤ıà¤®à¤ıà¤¸à¤ª": 3477,
      "all": 3478,
      "Ġà¤¨à¤Ĺà¤°à¤ª": 3479,
      "ite": 3480,
      "à¤¯à¤¬à¤²": 3481,
      "à¤¸à¤Ĺà¥Ŀ": 3482,
      "Ġà¤®à¤Ŀ": 3483,
      "à¥ģ)": 3484,
      "Ġà¤¨à¤¨": 3485,
      "à¥Īà¤Ĥ|": 3486,
      "Ġà¤¯à¤¤": 3487,
      "à¤ķà¤¤à¤µà¤°": 3488,
      "Ġà¤¬à¤¦à¤ķ": 3489,
      "Ġ900": 3490,
      "ĠSp": 3491,
      "Ġ05": 3492,
      ")-": 3493,
      "EE": 3494,
      "dà¤¯": 3495,
      "oor": 3496,
      "à¥ĩ\"\"": 3497,
      "Ġà¤ľà¤¨à¤ķ": 3498,
      "Ġà¤²à¤¹": 3499,
      "Ġà¤ªà¤°à¤¸à¤¤": 3500,
      "à¤Ĩà¤¯à¤ķà¤°": 3501,
      "Ġà¤ĳà¤²à¤°": 3502,
      "Ġ107": 3503,
      "are": 3504,
      "ence": 3505,
      "ĠIC": 3506,
      "ah": 3507,
      "ket": 3508,
      "Ġj": 3509,
      "à¥ĩ\"": 3510,
      "à¥į,": 3511,
      "à¤¿/": 3512,
      "à¤ķà¤®à¤²": 3513,
      "Ġà¤¸à¤¨à¤°": 3514,
      "Ġà¤µà¤¨à¤¸": 3515,
      "à¤¶à¤ľ": 3516,
      "Ġà¤Ĺà¤¶": 3517,
      "Ġà¤ĩà¤Ł": 3518,
      "Ġà¤ıà¤ķà¤¤à¤°à¤«": 3519,
      "Ġà¤ħà¤¨à¤¸": 3520,
      "Ġà¤¡à¤°à¤¨": 3521,
      "à¤ĵà¤ķ": 3522,
      "à¤µà¤°à¤¨": 3523,
      "à¤ıà¤¸à¤ķ": 3524,
      "à¤Ĩà¤°à¤ľ": 3525,
      "Ġà¤¢à¤²": 3526,
      "elhi": 3527,
      "à¥¦à¥¦à¥¦": 3528,
      "Ġà¤ļà¤®à¤¡": 3529,
      "TC": 3530,
      "ble": 3531,
      "oog": 3532,
      "pr": 3533,
      "zon": 3534,
      "à¤¾(": 3535,
      "à¤¨à¤·": 3536,
      "à¤²à¤ı": 3537,
      "à¤Ĺà¤Ł": 3538,
      "à¤¬à¤Ĺ": 3539,
      "Ġà¤īà¤ĸ": 3540,
      "Ġà¤ıà¤¹à¤¦": 3541,
      "à¤µà¤¨à¤¸": 3542,
      "à¤¯à¤¤à¤ķà¤°": 3543,
      "Ġà¤ªà¤¤à¤²": 3544,
      "Ġà¤ıà¤¨à¤¬": 3545,
      "eral": 3546,
      "ell": 3547,
      "AI": 3548,
      "à¤¾âĢ¦": 3549,
      "à¤®à¤«": 3550,
      "Ġà¤®à¤®": 3551,
      "Ġà¤®à¤µ": 3552,
      "Ġà¤ªà¤ĸà¤µ": 3553,
      "à¤ªà¤ķà¤°": 3554,
      "à¤Ĺà¤µà¤°": 3555,
      "à¥¤\"\"\"": 3556,
      "Ġà¤¬à¤¹à¤¤": 3557,
      "Ġà¤¤à¤ª": 3558,
      "Ġà¤ĩà¤¯": 3559,
      "Ġà¤ļà¤µ": 3560,
      "Ġà¤«à¤¹à¤°": 3561,
      "Ġ(-": 3562,
      "Ġà¤īà¤ªà¤µ": 3563,
      "à¤ıà¤¸à¤Ĩà¤°": 3564,
      "à¤¼à¥Ģ-": 3565,
      "Ġ450": 3566,
      "à¤ıà¤²à¤ı": 3567,
      "Ġ124": 3568,
      "Ġ1500": 3569,
      "à¤ľà¤®à¤¹à¤²": 3570,
      "ĠSingh": 3571,
      "Ġ04": 3572,
      "Ġ06": 3573,
      "Ġà¤Ĺà¤łà¤ľ": 3574,
      "ĠDay": 3575,
      "oogle": 3576,
      "700": 3577,
      "CP": 3578,
      "Name": 3579,
      "à¤°à¤¸à¤°": 3580,
      "à¤Ĺà¤²à¤¤": 3581,
      "Ġà¤ĩà¤·": 3582,
      "Ġà¤ĩà¤¨à¤ķà¤®": 3583,
      "orm": 3584,
      "ĠUpd": 3585,
      "Ind": 3586,
      "ach": 3587,
      "bo": 3588,
      "ĠÂ": 3589,
      "à¤¤à¤«": 3590,
      "à¤®à¤¨à¤®": 3591,
      "à¤¹à¤¶": 3592,
      "Ġà¤Ĩà¤ķà¤¸": 3593,
      "Ġà¤ĩà¤ķà¤²": 3594,
      "à¤°à¤®à¤¨": 3595,
      "à¤¦à¤°à¤ľ": 3596,
      "à¤µà¤²à¤ªà¤°": 3597,
      "ĠCom": 3598,
      "ĠBank": 3599,
      "app": 3600,
      "à¤Ķà¤¦": 3601,
      "MC": 3602,
      "oo": 3603,
      "à¥ĩ),": 3604,
      "à¤¯à¤µà¤ķ": 3605,
      "Ġà¤Ĩà¤¹à¤¤": 3606,
      "Ġà¤¶à¤¸": 3607,
      "à¤«à¤ķ": 3608,
      "ĠâĢİ": 3609,
      "Ġà¤¬à¤¢à¤©": 3610,
      "à¤ıà¤®à¤¬": 3611,
      "à¤Ĩà¤°à¤ĵ": 3612,
      "Ġà¤Ĩà¤ľà¤ķà¤²": 3613,
      "à¤Ĭà¤ªà¤°": 3614,
      "Ġ115": 3615,
      "ĠAr": 3616,
      "ict": 3617,
      "à¤ĳà¤Ł": 3618,
      "âĢ¦]": 3619,
      "ission": 3620,
      "EO": 3621,
      "eath": 3622,
      "gl": 3623,
      "iz": 3624,
      "à¤°à¤¡": 3625,
      "à¤®à¤°à¤¤": 3626,
      "Ġà¤®à¤¥": 3627,
      "à¤Ĺà¤¬": 3628,
      "à¤ķà¤°à¤¶": 3629,
      "à¤Ĩà¤¬": 3630,
      "Ġà¤Łà¤²": 3631,
      "à¤¶à¤¨à¤¶": 3632,
      "Ġà¥¦": 3633,
      "Ġà¤ªà¤¤à¤¨": 3634,
      "Ġà¤Ĩà¤Īà¤ıà¤¸à¤Ĩà¤Ī": 3635,
      "Ġà¤ķà¤ªà¤²": 3636,
      "Ġà¤ıà¤¸à¤ı": 3637,
      "Ġà¤ıà¤¸à¤ıà¤ļà¤ĵ": 3638,
      "à¤Ĭà¤²": 3639,
      "ale": 3640,
      "ĠKhan": 3641,
      "Ġ376": 3642,
      "Ġ[âĢ¦]": 3643,
      "nic": 3644,
      "pt": 3645,
      "sh": 3646,
      "à¤¾\"": 3647,
      "à¤¯à¤«": 3648,
      "à¤¸à¤Ĭà¤¦": 3649,
      "Ġà¤¸à¤¦à¤®": 3650,
      "à¤µà¤¤à¤¨": 3651,
      "Ġà¤¨à¤°à¤µ": 3652,
      "Ġà¤²à¤¯": 3653,
      "à¤ļà¤µà¤°": 3654,
      "Ġà¤ĩà¤ĸ": 3655,
      "Ġà¤ļà¤°à¤µ": 3656,
      "Ġà¤«à¤Łà¤ķ": 3657,
      "à¤Ĩà¤°à¤ķ": 3658,
      "à¤Ľà¤°": 3659,
      "Ġà¤ħà¤§à¤°": 3660,
      "à¤ľà¤¨à¤²": 3661,
      "Ġà¤®à¤¹à¤«": 3662,
      "à¥Ī.\"\"\"": 3663,
      "\"\",": 3664,
      "à¤ıà¤®à¤ıà¤®": 3665,
      "Ġà¤ľà¤¨à¤¨": 3666,
      "à¥Ľà¤²": 3667,
      "Ġà¤ħà¤Ĺà¤µ": 3668,
      "ĠSC": 3669,
      "Ġà¥§à¥¯": 3670,
      "Ġà¥¨à¥ª": 3671,
      "CCI": 3672,
      "ight": 3673,
      "man": 3674,
      "Ġ{": 3675,
      "à¥į\\": 3676,
      "Ġà¤¨à¤µà¤°": 3677,
      "Ġà¤ķà¤°à¤®": 3678,
      "à¥Īà¤Ĥà¥¤\"\"\"": 3679,
      "Ġà¤¡à¤ķ": 3680,
      "à¤łà¤°": 3681,
      "à¤łà¤Ĺ": 3682,
      "Ġà¤¸à¤ķà¤¨": 3683,
      "Ġà¤ĺà¤°à¤µ": 3684,
      "à¤¯à¤°à¤§": 3685,
      "Ġà¤¤à¤°à¥ŀ": 3686,
      "Ġà¤łà¤Ĺ": 3687,
      "Ġà¤Ĭà¤¨": 3688,
      "Ġà¤ıà¤¨à¤ıà¤®": 3689,
      "ome": 3690,
      "Ġ1980": 3691,
      "à¥ļà¤°à¥Ľ": 3692,
      "Ġpro": 3693,
      "Ġà¤ķà¤¤à¤Ī": 3694,
      "Ġà¤ªà¤Łà¤ķà¤¥": 3695,
      "ÃĹ": 3696,
      "à¤¿à¥į": 3697,
      "Ġà¤¬à¤ĺ": 3698,
      "Ġà¤ľà¤¸à¤µ": 3699,
      "à¤Īà¤ıà¤²": 3700,
      "à¤¾,'": 3701,
      "à¤¼à¤¾-": 3702,
      "à¤¸à¤°à¤¸": 3703,
      "à¤¯à¤®à¤¸à¤¨": 3704,
      "à¤ıà¤¸à¤µ": 3705,
      "Ġà¤¦à¤°à¤Ĺ": 3706,
      "à¥Ĥà¤Ĥ?": 3707,
      "Ġ1950": 3708,
      "Ġ..": 3709,
      "aria": 3710,
      "Ġ302": 3711,
      "ĠApp": 3712,
      "Ġà¤ĩà¤ķà¤¬": 3713,
      "Ġ1993": 3714,
      "Ġà¤ªà¤¨à¤¡": 3715,
      "à¤ĭà¤£": 3716,
      "Ġà¤Ĩà¤¯à¤°à¤¨": 3717,
      "Ġà¤ıà¤¯à¤°à¤ķ": 3718,
      "dà¤Ł": 3719,
      "ft": 3720,
      "odi": 3721,
      "à¤¯à¤ķà¤°à¤£": 3722,
      "à¤¹à¤¯": 3723,
      "Ġà¤®à¤ł": 3724,
      "à¥ĪâĢĻ": 3725,
      "Ġà¤ħà¤¨à¤Ĺ": 3726,
      "Ġ2030": 3727,
      "à¤ıà¤¸à¤ĵ": 3728,
      "à¤®à¤¨à¤Ĺà¤°": 3729,
      "Ġ512": 3730,
      "Ġà¤Īà¤¯à¤°": 3731,
      "à¤ıà¤²à¤ıà¤«": 3732,
      "ĠMe": 3733,
      "Ġà¤ªà¤²à¤Łà¤µ": 3734,
      "ĠFlipkart": 3735,
      "ĠOff": 3736,
      "Ġ1971": 3737,
      "oday": 3738,
      "mazon": 3739,
      "Ch": 3740,
      "NU": 3741,
      "RO": 3742,
      "con": 3743,
      "ee": 3744,
      "ood": 3745,
      "à¤ķà¤Ĺ": 3746,
      "à¤¯à¤ļ": 3747,
      "à¤ĩà¤ªà¤²": 3748,
      "Ġà¤¸à¤¹à¤¸": 3749,
      "à¤¸à¤ķà¤¤": 3750,
      "Ġà¤īà¤¦à¤¯à¤ª": 3751,
      "Ġà¤ħà¤¸à¤«à¤²à¤¤": 3752,
      "à¤ªà¤ķà¤¡": 3753,
      "à¤ıà¤¨à¤Ĩà¤Īà¤ı": 3754,
      "Ġà¤ıà¤ļà¤¸": 3755,
      "à¤ıà¤®à¤ĵà¤¯": 3756,
      "ĠExam": 3757,
      "Ãĵ": 3758,
      "Ġup": 3759,
      "Ġà¤¬à¤ľà¤°": 3760,
      "Ġà¤ľà¤¬à¤°": 3761,
      "Ġà¤µà¤¡": 3762,
      "à¤§à¤°à¤£": 3763,
      "Ġà¤¦à¤°à¤ĸ": 3764,
      "à¤Ĩà¤°à¤Ĩà¤°": 3765,
      "Ġà¤ıà¤®à¤ıà¤®": 3766,
      "ovid": 3767,
      "ology": 3768,
      "BSE": 3769,
      "ihar": 3770,
      "à¥ĩà¤¾": 3771,
      "à¤²à¤¶": 3772,
      "Ġà¤ªà¤Ľ": 3773,
      "à¤Ĺà¤°à¤®": 3774,
      "Ġà¤ľà¤¨à¤®": 3775,
      "Ġà¤²à¤ĸ": 3776,
      "à¤·à¤Ń": 3777,
      "Ġà¤īà¤¬à¤°": 3778,
      "à¤Ĩà¤®à¤¤": 3779,
      "à¤ĺà¤Ł": 3780,
      "à¤ıà¤¨à¤Ĩà¤°à¤¸": 3781,
      "Ġ104": 3782,
      "à¥Ľà¤¤": 3783,
      "ata": 3784,
      "à¥ĺà¤¤": 3785,
      "Ġà¥ĺà¤¯": 3786,
      "Ġ1991": 3787,
      "ish": 3788,
      "Ġ1988": 3789,
      "Ġ1989": 3790,
      "age": 3791,
      "Ġà¤Ĩà¤īà¤Łà¤²": 3792,
      "echn": 3793,
      "499": 3794,
      "AD": 3795,
      "PS": 3796,
      "US": 3797,
      "Vivo": 3798,
      "der": 3799,
      "ele": 3800,
      "ry": 3801,
      "Ġy": 3802,
      "à¤¿'": 3803,
      "à¤Ĺà¤¡à¤®": 3804,
      "Ġà¤ħà¤Ľ": 3805,
      "à¤¶à¤ķà¤°": 3806,
      "à¤·à¤¯à¤ķ": 3807,
      "Ġà¤¯à¤ľ": 3808,
      "Ġà¤ļà¥Ŀ": 3809,
      "à¥Ģà¤Ĥ:": 3810,
      "à¤Ĩà¤¦à¤®": 3811,
      "Ġà¤ħà¤¨à¤ľ": 3812,
      "Ġà¤ĵà¤ķ": 3813,
      "Ġà¤ĵà¤ıà¤¨à¤ľ": 3814,
      "Ġà¤Ĩà¤Īà¤ıà¤«": 3815,
      "Ġà¤Ķà¤ľ": 3816,
      "à¤¬à¤¦à¤¬": 3817,
      "2009": 3818,
      "2000": 3819,
      "Coronavirus": 3820,
      "ip": 3821,
      "à¤°à¤Ł": 3822,
      "à¤Ĥ-": 3823,
      "à¥ĩà¤Ĥ!": 3824,
      "à¤¡à¤Ł": 3825,
      "Ġà¤īà¤·": 3826,
      "Ġà¤ıà¤¨à¤µ": 3827,
      "Ġà¤¶à¤²": 3828,
      "à¤«à¤°à¤¨à¤Ĺà¤°": 3829,
      "Ġà¤¹à¤®à¤®": 3830,
      "Ġà¤īà¤ªà¤®à¤¹": 3831,
      "Ġà¤¸à¤°à¤«à¤°": 3832,
      "Ġà¤Ŀà¤Ĺà¥ľ": 3833,
      "à¤ıà¤²à¤Ł": 3834,
      "Ġà¤¬à¤°à¤¬": 3835,
      "Ġà¤ıà¤¯à¤°à¤¬": 3836,
      "ĠCM": 3837,
      "ics": 3838,
      "2008": 3839,
      "oto": 3840,
      "Ġà¤µà¤ļà¤¨à¤¬à¤¦": 3841,
      "ĠUn": 3842,
      "BJP": 3843,
      "ta": 3844,
      "Ġ=": 3845,
      "à¥ĩà¥ĩà¤Ĥ": 3846,
      "à¤Ĥ)": 3847,
      "à¤¨à¤ªà¤°": 3848,
      "à¤¯à¤ľà¤¨à¤ķ": 3849,
      "à¤²à¤²": 3850,
      "à¤²à¤ĺ": 3851,
      "à¤²à¤¹à¤¨": 3852,
      "à¤¦à¤¶à¤¹à¤°": 3853,
      "Ġà¤ľà¤«à¤°": 3854,
      "Ġà¤¦à¤¹à¤²": 3855,
      "Ġà¤¦à¤¬à¤¦à¤¬": 3856,
      "Ġà¤¤à¤ľ": 3857,
      "à¤¥à¤Ĺà¤¨": 3858,
      "Ġà¤ļà¤Łà¤°": 3859,
      "Ġà¤«à¤ľ": 3860,
      "Ġà¤ĩà¤¸à¤¹": 3861,
      "à¤Ĩà¥Ļ": 3862,
      "Ġà¥¤)": 3863,
      "à¤°à¤¸à¤µ": 3864,
      "Ġà¤Ĳà¤¨": 3865,
      "Ġà¤ıà¤¸à¤ıà¤¸à¤ª": 3866,
      "à¤ıà¤¨à¤ıà¤ķ": 3867,
      "Ġà¤īà¤łà¤ķà¤°": 3868,
      "à¤ľà¤¯à¤µà¤°": 3869,
      "à¤µà¤ķà¤ª": 3870,
      "india": 3871,
      "atch": 3872,
      "ĠOnePlus": 3873,
      "à®": 3874,
      "à¤®à¤¡": 3875,
      "Ġà¤ªà¤®": 3876,
      "Ġà¤¬à¤¶à¤°": 3877,
      "Ġà¤ıà¤¸à¤ķ": 3878,
      "à¥Īà¥¤à¥¤": 3879,
      "à¤ĩà¤Ĺ": 3880,
      "à¤ıà¤®à¤ıà¤«": 3881,
      "à¤¾à¤ģ)": 3882,
      "Ġà¤ľà¤¨à¤°": 3883,
      "Ġà¤ľà¤²à¤¸": 3884,
      "Ġà¤ıà¤¸à¤ľ": 3885,
      "Ġ750": 3886,
      "Ġà¥¨à¥¨": 3887,
      "apoor": 3888,
      "Ġà¤ĸà¤Łà¤ĸà¤Ł": 3889,
      "able": 3890,
      "OnePlus": 3891,
      "ail": 3892,
      "ear": 3893,
      "gr": 3894,
      "à¤ķà¤ł": 3895,
      "à¤¹à¤£": 3896,
      "Ġà¤¤à¤®à¤¨": 3897,
      "à¤ľà¤¨à¤¸": 3898,
      "à¤Łà¤°à¤²": 3899,
      "Ġà¤ĳà¤¬": 3900,
      "Ġ101": 3901,
      "Ġ07": 3902,
      "2010": 3903,
      "à¤ľà¤Ĺà¤¹": 3904,
      "Ġà¤ĵà¤µà¤°à¤¸": 3905,
      "ĠIPL": 3906,
      "Ġhttp": 3907,
      "TE": 3908,
      "à¥įà¤¼": 3909,
      "Ġà¤ľà¤¯à¤¸": 3910,
      "à¥Ĥ'": 3911,
      "Ġà¤«à¤¸": 3912,
      "à¤¯à¤°à¤ªà¤°": 3913,
      "Ġà¤Ĺà¤Īà¤¹": 3914,
      "à¤Ĩà¤Īà¤µ": 3915,
      "Ġà¤ĵà¤²à¤®": 3916,
      "à¤°à¤«à¤²": 3917,
      "Ġà¤¢à¤¹": 3918,
      "Ġà¤ĺà¤Łà¤¤": 3919,
      "Ġ1956": 3920,
      "Ġà¤ĭà¤·à¤Ń": 3921,
      "put": 3922,
      "Ġ*": 3923,
      "à¤ķà¤ĺà¤°": 3924,
      "à¤Ĺà¤°à¤£": 3925,
      "Ġà¤Ĩà¤ĺ": 3926,
      "à¥Īà¥¤âĢĿ": 3927,
      "à¤°à¤¤à¤µ": 3928,
      "Ġà¤¸à¤®à¤²": 3929,
      "Ġà¤ħà¤¨à¤ķ": 3930,
      "à¤ĵà¤°": 3931,
      "à¤®à¤²à¤¤": 3932,
      "Ġ550": 3933,
      "Ġà¤ħà¤°à¤¶à¤¦": 3934,
      "Ġà¤¬à¤²à¤°": 3935,
      "Ġà¤ľà¤²à¤ª": 3936,
      "à¤¡à¤°à¤°": 3937,
      "Ġ122": 3938,
      "Ġà¤¨à¤ľà¤°à¤¬": 3939,
      "Ġà¤ıà¤²à¤ľ": 3940,
      "Ġà¤ħà¤¶à¤°à¤«": 3941,
      "Ġ1992": 3942,
      "ations": 3943,
      "Ġà¤ĵà¤ªà¤¨à¤°": 3944,
      "Ġà¤ļà¤°à¤®à¤ª": 3945,
      "ideo": 3946,
      "ie": 3947,
      "way": 3948,
      "à¥ĩâĢ¦": 3949,
      "Ġà¤¸à¤ľà¤Ĺ": 3950,
      "Ġà¤Ĩà¤ĩà¤Ł": 3951,
      "à¤ĩà¤§à¤°": 3952,
      "à¤Ĩà¤¯à¤¨": 3953,
      "Ġ119": 3954,
      "à¤ľà¤¨à¤ľ": 3955,
      "à¤Ŀà¤®": 3956,
      "Ġà¤ľà¤¬à¤²à¤ª": 3957,
      "à¤Ĩà¤°à¤ıà¤²": 3958,
      "Ġà¤®à¤¦à¤°à¤¸": 3959,
      "Ġ102": 3960,
      "Ġ106": 3961,
      "à¤¡à¤°à¤²": 3962,
      "ana": 3963,
      "erg": 3964,
      "Ġ230": 3965,
      "Ġà¤ªà¤²à¤Łà¤¨": 3966,
      "Ġ1995": 3967,
      "Ġ1997": 3968,
      "Ġà¤ĩà¤®à¤°à¤ľ": 3969,
      "Ġà¤Ĩà¤īà¤Łà¤ª": 3970,
      "Ġde": 3971,
      "Ġà¥¨à¥¦à¥§à¥": 3972,
      "HO": 3973,
      "IV": 3974,
      "MO": 3975,
      "ÙĦ": 3976,
      "à¤·à¤µ": 3977,
      "Ġà¤ļà¤¹": 3978,
      "Ġà¤¥à¤²": 3979,
      "à¤Ĩà¤µà¤¶": 3980,
      "à¤ħà¤°à¤µ": 3981,
      "Ġà¤ĺà¤¸": 3982,
      "Ġà¤Ľà¤¡": 3983,
      "Ġà¤ĩà¤¨à¤µ": 3984,
      "à¥ĩ.\"": 3985,
      "à¤ıà¤ļà¤ıà¤¸": 3986,
      "Ġà¤ıà¤«à¤Ł": 3987,
      "Ġà¤ħà¤®à¤°à¤¨": 3988,
      "Ġà¤łà¤¹à¤°à¤¨": 3989,
      "ĠWorld": 3990,
      "à¤ıà¤®à¤ıà¤¸à¤ıà¤®à¤Ī": 3991,
      "Ġà¤¸à¤¹à¤¨à¤¶": 3992,
      ":-": 3993,
      "AR": 3994,
      "line": 3995,
      "Ġà¤ķà¤Ĺ": 3996,
      "à¤¸à¤¨à¤ķ": 3997,
      "à¤¸à¤¦à¤¨": 3998,
      "à¤ªà¤ªà¤¤": 3999,
      "à¤Ĺà¤¨à¤µ": 4000,
      "à¤§à¤µà¤¨": 4001,
      "à¥Ģà¤Ĥ!": 4002,
      "à¤Ĩà¤ªà¤°": 4003,
      "à¤¼à¤¾)": 4004,
      "à¤¯à¤®à¤¯": 4005,
      "Ġà¤ħà¤µà¤¤à¤°": 4006,
      "Ġà¤ķà¤²à¤®": 4007,
      "Ġ117": 4008,
      "....": 4009,
      "ĠSh": 4010,
      "ĠCard": 4011,
      "Ġ170": 4012,
      "à¥ŀà¤¤": 4013,
      "ition": 4014,
      "2007": 4015,
      "rol": 4016,
      "rag": 4017,
      "à¤ħà¤ķà¤¬à¤°": 4018,
      "ĠResults": 4019,
      "dro": 4020,
      "uk": 4021,
      "yst": 4022,
      "ĠÎ": 4023,
      "à¤¾âĢĻâĢĻ": 4024,
      "à¤¨à¤ĸ": 4025,
      "à¤ķà¤°à¤¤": 4026,
      "à¤ķà¤¹à¤¤": 4027,
      "Ġà¤¸à¤°à¤¤": 4028,
      "Ġà¤¸à¤¬à¤°": 4029,
      "à¤ľà¤µà¤²": 4030,
      "Ġà¤¬à¤Ĺà¤²": 4031,
      "à¤ıà¤²à¤¬": 4032,
      "Ġà¤ļà¤Łà¤ķ": 4033,
      "Ġà¤ıà¤ķà¤¸": 4034,
      "à¤Ŀà¤¤": 4035,
      "Ġ420": 4036,
      "Ġ1948": 4037,
      "à¤ıà¤¨à¤ıà¤¨": 4038,
      "Ġà¤¸à¤®à¤Ŀà¤ķà¤°": 4039,
      "Ġ:-": 4040,
      "\"\"\"\\\"\"": 4041,
      "Ġ114": 4042,
      "Ġ09": 4043,
      "ĠAl": 4044,
      "ors": 4045,
      "à¤°à¤ĸà¤£": 4046,
      "ĠToday": 4047,
      "Ġ1987": 4048,
      "ack": 4049,
      "à¥ĩà¤Ĥà¤Ĥ": 4050,
      "Ġà¤ªà¤°à¤ĸ": 4051,
      "à¤ĸà¤¨à¤¨": 4052,
      "Ġà¤ļà¤ļ": 4053,
      "à¤¾à¤Ĥ)": 4054,
      "Ġà¤ĸà¤¯": 4055,
      "Ġ3000": 4056,
      "à¤ľà¤ªà¤ķ": 4057,
      "Ġà¤¬à¤²à¤¬": 4058,
      "Ġà¤ħà¤ªà¤Ĺ": 4059,
      "Ġ1947": 4060,
      "Ġà¤ıà¤¨à¤ıà¤¸à¤ľ": 4061,
      "Ġ112": 4062,
      "ĠCol": 4063,
      "Ġà¤°à¤£à¤§": 4064,
      "Ġà¤¤à¤Łà¤°à¤ķ": 4065,
      "ign": 4066,
      "Ġà¥§à¥¯à¥®": 4067,
      "à¤Īà¤ıà¤¸à¤Ĩà¤°": 4068,
      "hats": 4069,
      "ariable": 4070,
      "))": 4071,
      "EET": 4072,
      "Xiaomi": 4073,
      "ron": 4074,
      "ug": 4075,
      "à¤¸à¤ĺ": 4076,
      "à¤²à¤°à¤¶": 4077,
      "à¤®à¤¸à¤®à¤°": 4078,
      "à¤µà¤ķà¤°": 4079,
      "à¤Ĺà¤«": 4080,
      "à¤ľà¤®à¤°": 4081,
      "à¥ĭà¤Ĥà¤Ĥ": 4082,
      "Ġà¤°à¤ªà¤Ł": 4083,
      "Ġà¤²à¤ľ": 4084,
      "à¤§à¤²": 4085,
      "Ġà¤¤à¤µ": 4086,
      "Ġà¤Ńà¤¸": 4087,
      "à¤Īà¤«": 4088,
      "Ġà¤ªà¤°à¤Ĺà¤¨": 4089,
      "Ġà¤«à¤¨": 4090,
      "Ġà¤¬à¤¹à¤²": 4091,
      "à¤ıà¤®à¤¡à¤¬": 4092,
      "à¤ķà¤²à¤ķà¤°": 4093,
      "à¥Ģ.\"": 4094,
      "Ġ650": 4095,
      "Ġà¤®à¤¨à¤¨": 4096,
      "Ġà¤®à¤¨à¤ª": 4097,
      "à¤ıà¤¨à¤ıà¤¸à¤Ī": 4098,
      "à¤°à¤¨à¤ª": 4099,
      "ern": 4100,
      "ory": 4101,
      "2001": 4102,
      "ĠFIR": 4103,
      "rad": 4104,
      "ĠJio": 4105,
      "okia": 4106,
      ".)": 4107,
      "150": 4108,
      "AS": 4109,
      "cy": 4110,
      "à¥įà¥ĭ": 4111,
      "à¥ĢâĢ¦": 4112,
      "Ġà¤¹à¤¨à¤¨": 4113,
      "Ġà¤ªà¤Ľà¤¤": 4114,
      "Ġà¤µà¤§": 4115,
      "à¤ıà¤ıà¤²": 4116,
      "à¤¬à¤ĸ": 4117,
      "Ġà¤ıà¤µà¤°": 4118,
      "Ġà¤ıà¤ıà¤¨à¤Ĩà¤Ī": 4119,
      "Ġà¤ĩà¤Ĺ": 4120,
      "à¤ĩà¤¡à¤²": 4121,
      "à¤ķà¤°à¤ĺ": 4122,
      "Ġà¤ħà¤¨à¤§": 4123,
      "à¥ĩà¥¤\"\"": 4124,
      "à¤ıà¤¸à¤ıà¤¸à¤ª": 4125,
      "Ġà¤¸à¤¹à¤ķà¤°": 4126,
      "à¤Ĺà¤¤à¤¨": 4127,
      "ÂłĠ": 4128,
      "Ġ121": 4129,
      "Ġ126": 4130,
      "à¤ķà¤Łà¤¤à¤®": 4131,
      "ĠPol": 4132,
      "à¥Ļà¤¬à¤°": 4133,
      "ĠKapoor": 4134,
      "Ġà¤²à¥ľà¤¨": 4135,
      "----": 4136,
      "ICC": 4137,
      "DA": 4138,
      "ib": 4139,
      "lass": 4140,
      "Ġà¤ķà¤¸à¤°": 4141,
      "à¤¯à¤¨à¤ķ": 4142,
      "à¤Ĺà¤«à¤²": 4143,
      "à¥ĭà¤Ĥ!": 4144,
      "Ġà¤Ĩà¥Ľ": 4145,
      "à¤Ńà¤µà¤¨": 4146,
      "à¤«à¤°à¤®": 4147,
      "Ġà¤ĸà¤®": 4148,
      "à¤ķà¤°à¤®": 4149,
      "à¤¾,\"\"": 4150,
      "Ġà¤ĺà¤¨à¤¤": 4151,
      "Ġà¤ħà¤²à¤µ": 4152,
      "Ġà¤ħà¤²à¤¬à¤¤": 4153,
      "Ġà¤¬à¤¢à¤¤": 4154,
      "à¤¯à¤¤à¤¯": 4155,
      "Ġà¤ĵà¤®à¤ª": 4156,
      "Ġà¤Īà¤Ł": 4157,
      "Ġ109": 4158,
      "Ġà¤¸à¤¤à¤ª": 4159,
      "Ġà¤¬à¤ľà¤ķà¤°": 4160,
      "ĠRaj": 4161,
      "ĠIII": 4162,
      "Ġà¥ĺà¤¸à¤®": 4163,
      "Ġ1994": 4164,
      "TI": 4165,
      "nap": 4166,
      "Ġra": 4167,
      "à¤¤à¤ĸà¤¤": 4168,
      "à¤¯à¤¸à¤µ": 4169,
      "Ġà¤®à¤¶à¤ķ": 4170,
      "à¥Ī\"\"": 4171,
      "Ġà¤ħà¤ĺ": 4172,
      "Ġà¤¦à¤«à¤¨": 4173,
      "Ġà¤ıà¤ıà¤¸à¤Ĩà¤Ī": 4174,
      "à¤Ľà¥ľ": 4175,
      "Ġà¤²à¤Ĺà¤µ": 4176,
      "Ġà¤¤à¤°à¤ľ": 4177,
      "Ġà¤¸à¤¬à¤¬": 4178,
      "à¤¸à¤®à¤¤": 4179,
      "Ġ4000": 4180,
      "à¤ıà¤«à¤ıà¤¸": 4181,
      "int": 4182,
      "à¤¨à¤¦à¤¯": 4183,
      "Ġà¤¹à¤²à¤ļà¤²": 4184,
      "Ġ1986": 4185,
      "Ġ1973": 4186,
      "CBSE": 4187,
      "ey": 4188,
      "ject": 4189,
      "à¤Ĥà¥ĩ": 4190,
      "à¤²à¤ķà¤¤": 4191,
      "à¤ľà¤ķà¤¤": 4192,
      "à¥Ĥà¥¤": 4193,
      "Ġà¤²à¤¸": 4194,
      "Ġà¤ĩà¤¥": 4195,
      "à¤ĩà¤ªà¤°": 4196,
      "à¤°à¤ķà¤²": 4197,
      "à¤Ľà¤ª": 4198,
      "à¤ıà¤¸à¤Ĩà¤Īà¤Ł": 4199,
      "Ġ103": 4200,
      "à¤°à¤¬à¤¦à¤²": 4201,
      "erv": 4202,
      "Ġ145": 4203,
      "ater": 4204,
      "ĠPlus": 4205,
      "rom": 4206,
      "ism": 4207,
      "ivers": 4208,
      "Ġ1975": 4209,
      "ystem": 4210,
      "napd": 4211,
      "CA": 4212,
      "Hz": 4213,
      "LA": 4214,
      "act": 4215,
      "cc": 4216,
      "mission": 4217,
      "à¤¾à¥Ī": 4218,
      "à¤¨à¤¬à¤°": 4219,
      "à¤¸à¤¡à¤°": 4220,
      "à¥ĩà¤Ĥà¤ĥ": 4221,
      "à¤Łà¤ľ": 4222,
      "à¤Łà¤Ĩà¤īà¤Ł": 4223,
      "à¤ľà¤¹à¤¨": 4224,
      "Ġà¤²à¤°": 4225,
      "Ġà¤ıà¤®à¤ķ": 4226,
      "à¤¾à¤Ĥà¥¤": 4227,
      "à¤Ľà¤µ": 4228,
      "Ġà¤ħà¤¨à¤µà¤°": 4229,
      "à¤¨à¤°à¤²": 4230,
      "à¤ıà¤«à¤ıà¤²": 4231,
      "ord": 4232,
      "Ġà¤ıà¤ļà¤ª": 4233,
      "Ġà¥¨à¥§": 4234,
      "ICI": 4235,
      "Ġà¤ªà¤¥à¤Ń": 4236,
      "OC": 4237,
      "Ġen": 4238,
      "à¤¾]": 4239,
      "à¤¾âĢį": 4240,
      "à¥įà¤¿": 4241,
      "à¤¯à¤ľà¤¨": 4242,
      "à¤¹à¤ľà¤¹": 4243,
      "à¤µà¤¨à¤ķ": 4244,
      "Ġà¤¬à¤¦à¤°": 4245,
      "Ġà¤¬à¤°à¤ķà¤¤": 4246,
      "Ġà¤ħà¤¥à¤ķ": 4247,
      "Ġà¤¦à¤¶à¤¹à¤°": 4248,
      "Ġà¤īà¤§à¤°": 4249,
      "à¤Īà¤¬": 4250,
      "à¤Īà¤Ĩà¤°à¤Ł": 4251,
      "Ġà¤ĩà¤£": 4252,
      "Ġà¤ĩà¤§à¤°": 4253,
      "à¤īà¤®à¤°": 4254,
      "à¤µà¤°à¤®": 4255,
      "à¤¯à¤®à¤¶": 4256,
      "à¤Ŀà¤ķ": 4257,
      "à¤µà¤¨à¤¡": 4258,
      "Ġà¤¸à¤®à¤¯à¤¸": 4259,
      "Ġà¤¸à¤°à¤²à¤¤": 4260,
      "Ġà¤Ĩà¤Īà¤Ĩà¤°à¤¸": 4261,
      "à¤Ĺà¤²à¤ª": 4262,
      "Ġà¤Ĩà¤Ĺà¤ľà¤¨": 4263,
      "Ġà¤®à¤¨à¤°": 4264,
      "à¤µà¤²à¤ª": 4265,
      "Ġà¤¨à¤µà¤¦": 4266,
      "Ġ153": 4267,
      "Ġ118": 4268,
      "Ġà¤ıà¤²à¤ıà¤®à¤Ł": 4269,
      "ĠAAP": 4270,
      "ĠUP": 4271,
      "Ġà¥¨à¥©": 4272,
      "Ġà¥ļà¤°à¥Ľ": 4273,
      "esults": 4274,
      "ragon": 4275,
      ")(": 4276,
      "CAA": 4277,
      "eb": 4278,
      "à¥ĩà¤¼": 4279,
      "à¤¸à¤ĸ": 4280,
      "Ġà¤¸à¤īà¤¦": 4281,
      "à¤®à¤¸à¤¨": 4282,
      "Ġà¤®à¤ķà¤°": 4283,
      "Ġà¤®à¤ľà¤²": 4284,
      "à¤Łà¤¨à¤®": 4285,
      "Ġà¤¬à¤ł": 4286,
      "à¤¡à¤¹": 4287,
      "à¥Īà¤Ĥà¤ĥ": 4288,
      "Ġà¤ıà¤ķà¥ľ": 4289,
      "Ġà¤ĸà¤Ĺ": 4290,
      "à¤Ĩà¤ı": 4291,
      "ĠâĢĺâĢĻ": 4292,
      "Ġà¤ĵà¤ıà¤¸": 4293,
      "Ġà¤ħà¤µà¤¯à¤µ": 4294,
      "à¥Ģ...": 4295,
      "Ġà¤Īà¤ľ": 4296,
      "Ġ6000": 4297,
      "à¤ıà¤«à¤ı": 4298,
      "à¤ıà¤ļà¤¯": 4299,
      "Ġ174": 4300,
      "ĠMar": 4301,
      "ĠGST": 4302,
      "Ġà¤¤à¤Łà¤¸": 4303,
      "Ġ1985": 4304,
      "napdragon": 4305,
      "CR": 4306,
      "HT": 4307,
      "Ġis": 4308,
      "à¤¾à¤¼": 4309,
      "à¤µà¤°à¤¤": 4310,
      "à¤ªà¤¸à¤¨": 4311,
      "à¤Łà¤°à¤ķ": 4312,
      "Ġà¤ħà¤Łà¤ķ": 4313,
      "à¤ıà¤¡à¤®": 4314,
      "à¤¬à¤ª": 4315,
      "à¤¡à¤¡": 4316,
      "Ġà¤īà¤¬à¤°à¤¨": 4317,
      "âĢİ": 4318,
      "Ġà¤¶à¤¹à¤¦": 4319,
      "à¤ĸà¤®": 4320,
      "Ġà¤¯à¤¶à¤µ": 4321,
      "à¤«à¤¹à¤®": 4322,
      "à¤ĩà¤ķà¤°": 4323,
      "à¤Ĩà¤¸à¤®": 4324,
      "à¤¯à¤ķà¤µ": 4325,
      "Ġà¤īà¤ªà¤ĸ": 4326,
      "à¤²à¤¯à¤¨": 4327,
      "Ġà¤ħà¤²à¤ķ": 4328,
      "à¤¼à¥ĩ.": 4329,
      "Ġà¤¹à¤°à¤ª": 4330,
      "Ġà¤¸à¤°à¤Ĺà¤¨": 4331,
      "Ġà¤Ńà¤°à¤ķà¤°": 4332,
      "Ġà¤ľà¤®à¤¶": 4333,
      "Ġà¤ıà¤¸à¤ıà¤¸": 4334,
      "Ġ123": 4335,
      "Ġ111": 4336,
      "Ġ132": 4337,
      "ĠSnapdragon": 4338,
      "Ġà¤ķà¤¬à¤¡": 4339,
      "ĠAir": 4340,
      "ĠThe": 4341,
      "à¤īà¤ªà¤§": 4342,
      "Ġ1976": 4343,
      "Ġ1951": 4344,
      "ĠXiaomi": 4345,
      "obile": 4346,
      "Ġà¤®à¤Ĺà¤§": 4347,
      "Com": 4348,
      "EC": 4349,
      "IT": 4350,
      "Oppo": 4351,
      "fo": 4352,
      "mm": 4353,
      "tra": 4354,
      "ver": 4355,
      "à¤į": 4356,
      "à¥ĢâĢĿ": 4357,
      "à¥Ģà¥°": 4358,
      "à¤®à¤ķà¤°à¤£": 4359,
      "à¤¹à¤¥": 4360,
      "Ġà¤¨à¤®à¤¸": 4361,
      "à¤ľà¤¡": 4362,
      "à¤§à¤°à¤¤": 4363,
      "à¤¼à¥ĩà¤Ĥà¥¤": 4364,
      "Ġà¤¶à¤¹à¤¨": 4365,
      "à¤Ĩà¤ĩà¤¸": 4366,
      "Ġ2025": 4367,
      "Ġà¤īà¤¤à¤°à¤¤": 4368,
      "Ġà¤Ĩà¤Īà¤Ĩà¤Īà¤ıà¤®": 4369,
      "Ġ\"\"%": 4370,
      "Ġà¤¸à¤«à¤¦à¤°à¤ľ": 4371,
      "Ġ113": 4372,
      "Ġà¤§à¤¨à¤¶": 4373,
      "Ġà¤¤à¤¸à¤¬": 4374,
      "esh": 4375,
      "ĠRBI": 4376,
      "Ġ,âĢĺâĢĺ": 4377,
      "ith": 4378,
      "128": 4379,
      "Ġà¤¹à¤¥à¤ķà¤°à¤ĺ": 4380,
      "und": 4381,
      "à¤īà¤ªà¤ļ": 4382,
      "à¤Ĩà¤Īà¤ıà¤¸à¤ıà¤«": 4383,
      "'s": 4384,
      "ple": 4385,
      "à¤¨à¤Ńà¤°": 4386,
      "à¤¤à¤«à¤°": 4387,
      "à¤¸à¤°à¤¦": 4388,
      "à¤²à¤ĺà¤°": 4389,
      "à¤®à¤¥": 4390,
      "à¤Łà¤Ĺ": 4391,
      "à¤ľà¤¬à¤²": 4392,
      "Ġà¤µà¤°à¤¦": 4393,
      "à¤¶à¤¶": 4394,
      "Ġà¤Ĺà¥Ŀ": 4395,
      "à¤Łà¤°à¤¸à¤¨": 4396,
      "Ġà¤ĳà¤¨à¤°": 4397,
      "à¤ľà¤¯à¤µ": 4398,
      "Ġà¤Ĺà¤°à¤ľ": 4399,
      "Ġà¤®à¤°à¤ľ": 4400,
      "Ġà¤®à¤¸à¤²à¤¨": 4401,
      "Ġ506": 4402,
      "ĠCon": 4403,
      "Ġ175": 4404,
      "à¤ĳà¤¨": 4405,
      "à¤Ĩà¤ľà¤ķà¤²": 4406,
      "2006": 4407,
      "Ġ288": 4408,
      "ĠTV": 4409,
      "Ġà¤ĩà¤¬à¤°à¤¤": 4410,
      "ĠOn": 4411,
      "tern": 4412,
      "duct": 4413,
      "ÂłĠÂłĠ": 4414,
      "As": 4415,
      "BC": 4416,
      "ix": 4417,
      "iew": 4418,
      "vent": 4419,
      "à¤¤à¤¦à¤¨": 4420,
      "à¤ªà¤°à¤¤": 4421,
      "Ġà¤¨à¤ª": 4422,
      "à¤Ńà¤¤": 4423,
      "Ġà¤ħà¤¨à¥ĺà¤°": 4424,
      "à¤łà¤¶": 4425,
      "à¤°à¤¹à¤²": 4426,
      "Ġ142": 4427,
      "Ġà¤ıà¤¯à¤°à¤«": 4428,
      "ĠAmazon": 4429,
      "2004": 4430,
      "ĠTest": 4431,
      "ĠGoogle": 4432,
      "ĠOne": 4433,
      "ĠUS": 4434,
      "Ġà¥ŀà¤°": 4435,
      "à¤£à¤¤à¤¯": 4436,
      "ĠâĤ": 4437,
      "An": 4438,
      "aun": 4439,
      "kar": 4440,
      "Ø±": 4441,
      "à¸": 4442,
      "Ġ\\\\": 4443,
      "Ġà¤¸à¤ĺà¤¨": 4444,
      "à¤µà¤¬": 4445,
      "à¤µà¤¯à¤ķ": 4446,
      "à¤¦à¤¡": 4447,
      "à¤Łà¤¹": 4448,
      "à¤ľà¤ľ": 4449,
      "Ġà¤¬à¤Ľà¤¡": 4450,
      "à¥ĭà¤Ĥ'": 4451,
      "Ġà¤ħà¤ľà¤¨": 4452,
      "Ġà¤¦à¤²à¤¬": 4453,
      "à¤¬à¤¦à¤®": 4454,
      "Ġà¤Ĩà¤Ĭ": 4455,
      "à¤Īà¤Ĺ": 4456,
      "à¤¥à¤¸": 4457,
      "à¤Ľà¤ł": 4458,
      "à¤¤à¤°à¤¨": 4459,
      "Ġà¤ªà¤¹à¤¨à¤¤": 4460,
      "Ġà¤Īà¤ıà¤®à¤Ĩà¤Ī": 4461,
      "Ġà¤ľà¤²à¤ķà¤°": 4462,
      "Ġà¤Ŀà¤°à¤¨": 4463,
      "Ġ135": 4464,
      "ĠShar": 4465,
      "ĠBS": 4466,
      "ĠModi": 4467,
      "stru": 4468,
      "ĠElection": 4469,
      "irst": 4470,
      "Ġ1972": 4471,
      "âĸª": 4472,
      "IND": 4473,
      "Ġà¤īà¤²à¤Ŀà¤¨": 4474,
      "HD": 4475,
      "MI": 4476,
      "SBI": 4477,
      "World": 4478,
      "ead": 4479,
      "get": 4480,
      "mart": 4481,
      "pe": 4482,
      "Ġat": 4483,
      "à¤¾à¤¿": 4484,
      "à¥ĩ|": 4485,
      "à¤°à¤²à¤¯": 4486,
      "à¤¿à¥ĩ": 4487,
      "Ġà¤ªà¤£": 4488,
      "à¤µà¤¦à¤²": 4489,
      "Ġà¤ľà¤¯à¤¦": 4490,
      "Ġà¤ħà¤µà¤¹": 4491,
      "à¤·à¤¦à¤°": 4492,
      "Ġà¤Ńà¤Ĺà¤¦": 4493,
      "à¤¾à¤Ĥà¥ĩ": 4494,
      "à¤ĩà¤Łà¤¨": 4495,
      "Ġà¤«à¤Łà¤¨": 4496,
      "Ġà¤īà¤ªà¤²à¤ķ": 4497,
      "Ġ2024": 4498,
      "à¤°à¤¸à¤¤": 4499,
      "à¤µà¤¨à¤¶": 4500,
      "à¤¾.\"\"\"": 4501,
      "Ġà¤ľà¤¨à¤ªà¤¦": 4502,
      "Ġà¤¦à¤²à¤¹à¤¨": 4503,
      "Ġà¤ľà¤Ĺà¤ľ": 4504,
      "Ġà¤ħà¤Ĺà¤°à¤ļ": 4505,
      "onor": 4506,
      "Ġ304": 4507,
      "Ġà¤ıà¤«à¤ª": 4508,
      "ions": 4509,
      "ĠNW": 4510,
      "Ġà¤®à¤ķà¤¬à¤°": 4511,
      "ower": 4512,
      "Ġex": 4513,
      "Ġà¤Ĩà¤Īà¤ıà¤¸à¤Ĩà¤Īà¤ıà¤¸": 4514,
      "Ġhttps": 4515,
      "echnology": 4516,
      "\"(": 4517,
      "MR": 4518,
      "NL": 4519,
      "ire": 4520,
      "oy": 4521,
      "tel": 4522,
      "Ġle": 4523,
      "Ġà¤Ĥ": 4524,
      "Ġà¤®à¤°à¤ķ": 4525,
      "à¥ģà¥į": 4526,
      "à¤µà¤¶à¤ķ": 4527,
      "Ġà¤ħà¤ł": 4528,
      "à¤¶à¤ĸ": 4529,
      "à¤¡à¤¯": 4530,
      "Ġà¤īà¤¥à¤²": 4531,
      "Ġà¤ıà¤ħà¤°": 4532,
      "Ġà¤¥à¤ª": 4533,
      "à¤ĩà¤¸à¤ªà¤°": 4534,
      "à¤ħà¤Ł": 4535,
      "à¤°à¤¦à¤¨": 4536,
      "à¤ıà¤¸à¤Ĩà¤Īà¤¸": 4537,
      "à¤ıà¤®à¤Ĩà¤°à¤¸": 4538,
      "Ġà¤ĩà¤¨à¤«": 4539,
      "à¤µà¤¤à¤®": 4540,
      "Ġ1960": 4541,
      "à¤Ĳà¤¤": 4542,
      "à¤ķà¤Łà¤¤": 4543,
      "à¤ķà¤Łà¤µà¤°": 4544,
      "Ġ147": 4545,
      "à¤¥à¤²à¤Ĺ": 4546,
      "Ġà¤ıà¤¯à¤°à¤¸": 4547,
      "à¥ĺà¤¸": 4548,
      "Ġà¤ķà¤¸à¤°à¤¤": 4549,
      "à¤ĭà¤¤": 4550,
      "ĠVivo": 4551,
      "Ġà¤°à¤®à¤ľ": 4552,
      "à¤Ĩà¤Īà¤ıà¤ıà¤¨à¤ıà¤¸": 4553,
      "Ġ1952": 4554,
      "à¤Ĺà¤Īà¤¹": 4555,
      "Ġà¤īà¤Ńà¤°à¤¨": 4556,
      "ific": 4557,
      "ding": 4558,
      "ral": 4559,
      "à§": 4560,
      "à¤°à¤ªà¤°": 4561,
      "à¤¯à¤Łà¤°": 4562,
      "Ġà¤¸à¤¯": 4563,
      "Ġà¤®à¤ĸ": 4564,
      "à¥¤à¥¤": 4565,
      "Ġà¤ľà¤ķ": 4566,
      "à¤ıà¤ıà¤«": 4567,
      "à¥Ĥ:": 4568,
      "Ġà¤Ĩà¤°à¤¤": 4569,
      "Ġà¤Ńà¤°à¤®": 4570,
      "Ġà¤ıà¤²à¤¬": 4571,
      "Ġà¤¯à¤®à¤¨": 4572,
      "Ġ220": 4573,
      "à¤ħà¤Łà¤²": 4574,
      "Ġà¤ħà¤²à¤µà¤°": 4575,
      "Ġà¤ĵà¤Ŀ": 4576,
      "à¤¾à¤ģ-": 4577,
      "Ġà¤ķà¤ªà¤Ł": 4578,
      "inist": 4579,
      "anc": 4580,
      "ann": 4581,
      "ans": 4582,
      "Ġ136": 4583,
      "Ġ182": 4584,
      "Ġà¤ıà¤²à¤¸": 4585,
      "ĠSamsung": 4586,
      "ĠSMS": 4587,
      "Ġà¤ļà¤°à¤£à¤¬à¤¦": 4588,
      "Ġà¤Ĺà¤²à¤¤à¤«à¤¹à¤®": 4589,
      "Ġà¤ıà¤ļà¤Ĩà¤Īà¤µ": 4590,
      "ility": 4591,
      "à¤ĭà¤·": 4592,
      "Ġ1977": 4593,
      "Ġà¥ŀà¤°à¤®": 4594,
      "à¤Ĺà¤£à¤¤": 4595,
      "Ġà¥©à¥¦": 4596,
      "à¤®à¤¶à¤¹": 4597,
      "à¤Ĩà¤Īà¤ıà¤®à¤¡": 4598,
      "rime": 4599,
      "à¦¾": 4600,
      "ock": 4601,
      "erala": 4602,
      "ĠOffice": 4603,
      "250": 4604,
      "dà¤¤": 4605,
      "yn": 4606,
      "Ġà¦": 4607,
      "Ġqu": 4608,
      "Ġà¤ķà¤«": 4609,
      "Ġà¤ķà¤Łà¤ķ": 4610,
      "à¥Ģ|": 4611,
      "à¤Ĥ:": 4612,
      "à¤¯à¤¸à¤®": 4613,
      "Ġà¤ªà¤Łà¤²": 4614,
      "Ġà¤ľà¤ĺà¤¨": 4615,
      "à¤¬à¤µ": 4616,
      "à¤§à¥ľ": 4617,
      "Ġà¤ļà¤¬": 4618,
      "à¤¾à¥¤\"\"": 4619,
      "Ġà¤ħà¤°à¤°": 4620,
      "Ġà¤ľà¤¨à¤¶à¤ķ": 4621,
      "Ġà¤īà¤®à¤¡": 4622,
      "Ġ720": 4623,
      "Ġà¤ĳà¤«à¤²": 4624,
      "à¤ĥ%": 4625,
      "Ġà¤ĸà¤°à¤¬": 4626,
      "Ġà¤ħà¤¦à¤²": 4627,
      "Ġà¤ħà¤¦à¤°à¤ķ": 4628,
      "ĠSon": 4629,
      "ĠPh": 4630,
      "à¤°à¤ļà¤²à¤¨": 4631,
      "2003": 4632,
      "ĠFin": 4633,
      "Ġà¤ļà¤®à¤ķà¤¤": 4634,
      "Ġà¤Ĩà¤«à¤¤": 4635,
      "à¤ıà¤¸à¤ıà¤²à¤µ": 4636,
      "Ġ(-)": 4637,
      "ĠUpdates": 4638,
      "ergy": 4639,
      "hatsApp": 4640,
      "DI": 4641,
      "DU": 4642,
      "Gold": 4643,
      "Home": 4644,
      "port": 4645,
      "so": 4646,
      "à¤°à¤¥à¤²": 4647,
      "à¤¤à¤ĸ": 4648,
      "à¤¤à¤¨à¤ķ": 4649,
      "Ġà¤®à¤¦à¤°": 4650,
      "Ġà¤¬à¤Ĺà¤¦": 4651,
      "Ġà¤ľà¤²à¤¤": 4652,
      "Ġà¤ħà¤·": 4653,
      "Ġà¤ħà¤°à¤¸": 4654,
      "à¤ıà¤ıà¤®": 4655,
      "à¥ĤâĢĻ": 4656,
      "Ġà¤²à¤ª": 4657,
      "Ġà¤ķà¤°à¤Ĺ": 4658,
      "à¤·à¤°à¤£": 4659,
      "à¤Ńà¤Ĺà¤¤": 4660,
      "Ġà¤¶à¤«": 4661,
      "à¤«à¤¨à¤®": 4662,
      "à¤°à¤¤à¤²": 4663,
      "à¥īà¤¼": 4664,
      "à¤ĩà¤¸à¤ľ": 4665,
      "Ġà¤īà¤ªà¤ķà¤°": 4666,
      "à¤Ĩà¤Īà¤ıà¤¨": 4667,
      "Ġà¤ĵà¤µà¤²": 4668,
      "à¥Ľà¥Ļ": 4669,
      "ari": 4670,
      "Ġ149": 4671,
      "Ġ1983": 4672,
      "Ġà¤¹à¤°à¤®à¤¨à¤ª": 4673,
      "struct": 4674,
      "Ġà¤Ńà¤Ĺà¤¦à¤¡": 4675,
      "PP": 4676,
      "lu": 4677,
      "ĨĴ": 4678,
      "à¥ĩà¤ĥ": 4679,
      "Ġà¤ķà¤¸à¤¤": 4680,
      "à¤®à¤¦à¤°": 4681,
      "à¥ĩà¤ĤâĢ¦": 4682,
      "à¤ıà¤¦": 4683,
      "Ġà¤¤à¤µà¤ľ": 4684,
      "Ġà¤¤à¤¦à¤¬": 4685,
      "Ġà¤īà¤Ľà¤²": 4686,
      "Ġà¤Ĺà¤¹à¤¨à¤¤": 4687,
      "à¥Īà¥¤âĢĻ": 4688,
      "à¤Ńà¤®": 4689,
      "à¤Ĩà¤ªà¤¸": 4690,
      "à¤īà¤ªà¤¨": 4691,
      "à¤ĵà¤¨": 4692,
      "à¤ģ.": 4693,
      "Ġà¤ĵà¤ľ": 4694,
      "Ġà¤¸à¤°à¤¨": 4695,
      "Ġà¤¬à¤°à¤¨": 4696,
      "Ġà¤Ĭà¤·": 4697,
      "à¤ıà¤«à¤¬": 4698,
      "Ġ116": 4699,
      "Ġ139": 4700,
      "ĠPay": 4701,
      "ĠRAM": 4702,
      "à¤īà¤ªà¤¬": 4703,
      "Ġ1962": 4704,
      "\"\"\"\"\"\"\"": 4705,
      "à¤ªà¤¹à¤ļ": 4706,
      "à¤ıà¤®à¤ıà¤²à¤ı": 4707,
      "ĠBox": 4708,
      ":%": 4709,
      "ME": 4710,
      "ND": 4711,
      "PR": 4712,
      "af": 4713,
      "ho": 4714,
      "uc": 4715,
      "à¤°à¤°à¤ķ": 4716,
      "à¥Ģ]": 4717,
      "à¤Ĥà¤Ĥ": 4718,
      "à¤¸à¥ľà¤ķ": 4719,
      "Ġà¤ªà¤ª": 4720,
      "à¤µà¤¥": 4721,
      "à¤µà¤ľà¤¹": 4722,
      "Ġà¤¨à¤Ĺà¤¦": 4723,
      "à¤Łà¤®à¤°": 4724,
      "Ġà¤¬à¤°à¤¹": 4725,
      "Ġà¤°à¤¡": 4726,
      "Ġà¤Ńà¤°à¤£": 4727,
      "à¤łà¤µ": 4728,
      "à¤°à¤¸à¤ķ": 4729,
      "à¤Ĩà¤Īà¤ĵ": 4730,
      "Ġ360": 4731,
      "à¤¼à¥ĩ)": 4732,
      "à¤¤à¤¨à¤ª": 4733,
      "Ġà¤ľà¤¨à¤ª": 4734,
      "Ġà¤ľà¤¨à¤¸à¤®": 4735,
      "à¤¨à¤µà¤®": 4736,
      "Ġà¥Ļà¤¤": 4737,
      "Ġ165": 4738,
      "Ġ176": 4739,
      "stit": 4740,
      "à¤°à¤Ĺà¤Ł": 4741,
      "Ġ1978": 4742,
      "Ġ1965": 4743,
      "Indian": 4744,
      "rans": 4745,
      "Ġà¤Ĩà¤ĩà¤Łà¤®": 4746,
      "stitut": 4747,
      ".\"\"\"": 4748,
      "NT": 4749,
      "TV": 4750,
      "ahar": 4751,
      "light": 4752,
      "Ġà¤Ļ": 4753,
      "à¤¤à¤¨à¤¤": 4754,
      "à¤²à¤¸à¤¨": 4755,
      "à¥Ī),": 4756,
      "à¤ľà¤ĺ": 4757,
      "à¤ľà¤¤à¤¨": 4758,
      "Ġà¤ħà¤¦à¤¨": 4759,
      "à¤ıà¤Ĩà¤°à¤ª": 4760,
      "à¤¡à¤¶": 4761,
      "Ġà¤¤à¤Łà¤µà¤°": 4762,
      "Ġà¤ªà¤°à¤²": 4763,
      "Ġà¤ıà¤¹à¤ķ": 4764,
      "Ġà¤ıà¤Ĩà¤Īà¤ıà¤®": 4765,
      "Ġà¤¶à¤®à¤¶": 4766,
      "à¤ĩà¤°à¤¸": 4767,
      "à¤Ĩà¤¹": 4768,
      "à¤Ĩà¤¨à¤¨": 4769,
      "Ġà¤¡à¤Ł": 4770,
      "Ġà¤ªà¤¹à¤°": 4771,
      "Ġà¤ªà¤¹à¤¨à¤ķà¤°": 4772,
      "Ġà¤Ľà¤®": 4773,
      "Ġà¤Ĩà¤¯à¤¨": 4774,
      "à¤°à¤µà¤¶": 4775,
      "à¤°à¤µà¤£": 4776,
      "à¤¨à¤ķà¤¦": 4777,
      "à¤ıà¤Ĺà¤ı": 4778,
      "Ġà¤Ĩà¤Īà¤ĵà¤ıà¤¸": 4779,
      "Ġà¤ħà¤ļà¤²": 4780,
      "Ġà¤ıà¤®à¤Ĩà¤Ī": 4781,
      "Ġ155": 4782,
      "ĠSch": 4783,
      "à¤®à¤¸à¤²à¤¨": 4784,
      "à¤ıà¤ļà¤ľ": 4785,
      "ĠCAA": 4786,
      "ork": 4787,
      "Ġ240": 4788,
      "ĠMP": 4789,
      "ĠMS": 4790,
      "ĠMax": 4791,
      "raft": 4792,
      "Ġ354": 4793,
      "ĠVideo": 4794,
      "Ġ1957": 4795,
      "ement": 4796,
      "hant": 4797,
      "ĠâĨĴ": 4798,
      "Step": 4799,
      "ĠPlay": 4800,
      "eather": 4801,
      "ĠMedia": 4802,
      "aunch": 4803,
      "AC": 4804,
      "NG": 4805,
      "Sus": 4806,
      "à¤¤à¥Ľ": 4807,
      "à¤¯à¤·": 4808,
      "à¤¸à¤¦à¤°": 4809,
      "Ġà¤®à¤°à¤£": 4810,
      "Ġà¤®à¤ľà¤¹": 4811,
      "à¤Ĺà¤¹": 4812,
      "à¤Ĺà¤ĩà¤¨": 4813,
      "Ġà¤¨à¥Ľ": 4814,
      "Ġà¤¬à¤ķà¤µ": 4815,
      "Ġà¤ľà¤°à¤¦": 4816,
      "Ġà¤ľà¤ķà¤¡": 4817,
      "à¤¶à¤ªà¤¥": 4818,
      "à¤ļà¤²à¤°": 4819,
      "à¤¼:": 4820,
      "Ġà¤ªà¤°à¤ľ": 4821,
      "à¤ĸà¤ľ": 4822,
      "à¤ķà¤°à¤¬à¤°": 4823,
      "Ġà¤ħà¤¨à¤¶à¤¨": 4824,
      "à¤¹à¤°à¤Ĺ": 4825,
      "Ġà¤īà¤ªà¤ª": 4826,
      "à¤Ŀà¤¨": 4827,
      "Ġà¤¤à¤°à¤¸": 4828,
      "Ġ320": 4829,
      "Ġà¤¦à¤°à¤ľ": 4830,
      "à¤ıà¤¨à¤µ": 4831,
      "ina": 4832,
      "alue": 4833,
      "Ġ148": 4834,
      "Ġ307": 4835,
      "ĠRE": 4836,
      "ĠBCCI": 4837,
      "2005": 4838,
      "elop": 4839,
      "III": 4840,
      "RCTC": 4841,
      "Ġà¤ľà¤¨à¤®à¤¤": 4842,
      "droid": 4843,
      "ĠâĤ¹": 4844,
      "Ar": 4845,
      "COVID": 4846,
      "lic": 4847,
      "pur": 4848,
      "à¤°à¤ĺ": 4849,
      "à¤¤à¤Ł": 4850,
      "à¤ªà¤¸à¤®": 4851,
      "Ġà¤¨à¤°à¤ķ": 4852,
      "Ġà¤¬à¤¸à¤¨": 4853,
      "Ġà¤Ĺà¤Ĺà¤¨": 4854,
      "à¤¾à¤Ĥ'": 4855,
      "à¤Ĩà¤ĩà¤¯": 4856,
      "à¤ıà¤®à¤Ĩà¤Īà¤ıà¤®": 4857,
      "Ġà¤¹à¤°à¤ľ": 4858,
      "à¤Ĩà¤°à¤ıà¤®": 4859,
      "à¤®à¤ķà¤¥": 4860,
      "à¤ıà¤²à¤Ĩà¤°": 4861,
      "Ġà¤ıà¤®à¤ıà¤²à¤¡": 4862,
      "ond": 4863,
      "Ġà¤Ķà¤ļ": 4864,
      "ali": 4865,
      "à¤¯à¤µà¤¶": 4866,
      "ative": 4867,
      "Ġ2500": 4868,
      "org": 4869,
      "Ġch": 4870,
      "Ġpr": 4871,
      "à¤¬à¤°à¤®à¤¤": 4872,
      "à¥Ĩà¤Ĥ": 4873,
      "hip": 4874,
      "ext": 4875,
      "ĠICICI": 4876,
      "structure": 4877,
      "AL": 4878,
      "Bihar": 4879,
      "NB": 4880,
      "Pro": 4881,
      "Te": 4882,
      "UI": 4883,
      "]]": 4884,
      "ka": 4885,
      "âĤ": 4886,
      "Ġun": 4887,
      "à¤Ĥ/": 4888,
      "à¤ªà¤ľ": 4889,
      "Ġà¤¬à¤¶": 4890,
      "à¤¶à¤°à¤¦": 4891,
      "à¤ļà¤ª": 4892,
      "à¤Īà¤¹": 4893,
      "à¤¥à¤°à¤¬": 4894,
      "à¤ĩà¤¦": 4895,
      "à¥Ģà¤Ĥ'": 4896,
      "Ġà¤ıà¤ķà¤°": 4897,
      "à¤°à¤¦à¤¯": 4898,
      "Ġà¥¤...": 4899,
      "à¤ıà¤¸à¤¡à¤¬": 4900,
      "à¤Ĩà¤Īà¤ĵà¤¸": 4901,
      "à¤®à¤¤à¤²à¤¬": 4902,
      "Ġà¤¬à¤¢à¤ķà¤°": 4903,
      "Ġà¤Ĩà¤Īà¤Ĩà¤Ī": 4904,
      "Ġà¤Īà¤¯": 4905,
      "Ġ1970": 4906,
      "arm": 4907,
      "arn": 4908,
      "Ġ137": 4909,
      "ature": 4910,
      "Ġ188": 4911,
      "ĠCR": 4912,
      "à¤¼à¥ĩà¤Ĥà¤ĥ": 4913,
      "edict": 4914,
      "Ġà¤Ńà¤¯à¤Ń": 4915,
      "à¤²à¤Ńà¤Ń": 4916,
      "ivity": 4917,
      "Ġà¤ªà¥Ŀà¤¨": 4918,
      "à¤ħà¤ĸà¤¬": 4919,
      "ĠQual": 4920,
      "iversity": 4921,
      "Ġà¤®à¤ľà¤¹à¤¬": 4922,
      "BO": 4923,
      "DM": 4924,
      "DS": 4925,
      "NS": 4926,
      "eg": 4927,
      "ime": 4928,
      "ool": 4929,
      "Ġad": 4930,
      "à¤°à¤Ī": 4931,
      "Ġà¤ķà¤µà¤ļ": 4932,
      "à¤¨à¤¸à¤°": 4933,
      "à¤®à¤¬à¤°": 4934,
      "à¤¹à¤°à¤¤": 4935,
      "Ġà¤®à¤Ł": 4936,
      "Ġà¤ªà¤²à¤ķ": 4937,
      "à¥ĪâĢ¦": 4938,
      "à¤ªà¤ł": 4939,
      "Ġà¤¨à¤Łà¤°": 4940,
      "à¥¤\"\"": 4941,
      "Ġà¤ħà¤¬à¤°": 4942,
      "à¤ıà¤ıà¤¨": 4943,
      "à¤¬à¤Łà¤¨": 4944,
      "à¤¡à¤ħà¤ª": 4945,
      "à¤¼à¥Ģà¤Ĥ": 4946,
      "à¤Ĩà¤Ĺà¤°": 4947,
      "Ġà¤Łà¤ļ": 4948,
      "Ġà¤¡à¤ļ": 4949,
      "à¤łà¤®à¤²": 4950,
      "Ġà¤¹à¤®à¤ªà¤°": 4951,
      "à¤¤à¤¨à¤¶": 4952,
      "Ġà¤Ĩà¤Īà¤ıà¤¨à¤ıà¤ķ": 4953,
      "Ġà¤ıà¤¸à¤ıà¤¸à¤¸": 4954,
      "Ġ190": 4955,
      "Ġ1946": 4956,
      "à¤ıà¤¨à¤ıà¤¸à¤ıà¤¸": 4957,
      "Ġ1080": 4958,
      "à¤Ĳà¤¶": 4959,
      "Ġà¤ıà¤¨à¤ıà¤¸à¤ıà¤¸": 4960,
      "à¤īà¤¸à¤«": 4961,
      "ert": 4962,
      "ery": 4963,
      "Ġ143": 4964,
      "Ġ134": 4965,
      "ĠMI": 4966,
      "ĠMan": 4967,
      "Ġà¤ıà¤¡à¤µà¤°": 4968,
      "à¤ıà¤¸à¤ıà¤¸à¤¸": 4969,
      "à¤²à¤ļà¤²à¤¨": 4970,
      "ĠLive": 4971,
      "ures": 4972,
      "asthan": 4973,
      "comm": 4974,
      "ĠApple": 4975,
      "ĠRajput": 4976,
      "130": 4977,
      "CO": 4978,
      "JEE": 4979,
      "RBI": 4980,
      "SL": 4981,
      "eh": 4982,
      "form": 4983,
      "uj": 4984,
      "Ġà¤ķà¤¸à¤®": 4985,
      "à¤¿\"\"": 4986,
      "à¤¸à¤®à¤¨": 4987,
      "Ġà¤¸à¤¹à¤®": 4988,
      "à¤®à¤ĸ": 4989,
      "Ġà¤¹à¤ł": 4990,
      "Ġà¤ªà¤¯": 4991,
      "Ġà¤¬à¤°à¤ķ": 4992,
      "Ġà¤µà¤¬": 4993,
      "Ġà¤°à¤Ĺ": 4994,
      "Ġà¤°à¤¬à¤°": 4995,
      "Ġà¤²à¤¹à¤ľ": 4996,
      "à¤¬à¤°à¤¤": 4997,
      "à¤ļà¤°à¤²": 4998,
      "Ġà¤¤à¤°à¤£": 4999,
      "Ġà¤¤à¤¦à¤¨": 5000,
      "Ġà¤¤à¤¸à¤¦": 5001,
      "Ġà¤Ńà¤£": 5002,
      "à¤¼à¤¾à¤Ĥ": 5003,
      "Ġà¤ıà¤¥": 5004,
      "Ġà¤¯à¤¸": 5005,
      "Ġ(%": 5006,
      "à¤Ĩà¤ĵ": 5007,
      "à¤¾,âĢĻ": 5008,
      "à¥Ģà¥¤\"\"\"": 5009,
      "à¤Ĩà¤Īà¤Ĩà¤°à¤¸": 5010,
      "Ġà¤ħà¤Ńà¤¦": 5011,
      "Ġà¤¸à¤¬à¤¨": 5012,
      "à¤µà¤¨à¤°": 5013,
      "Ġà¤ĳà¥ŀ": 5014,
      "Ġà¤¹à¤°à¤«à¤¨à¤®": 5015,
      "à¤¦à¤¨à¤Ĺà¤°": 5016,
      "à¤Ĺà¤²à¤ķ": 5017,
      "2022": 5018,
      "Ġà¤¬à¤°à¤ª": 5019,
      "à¥ĩà¤Ĥà¥¤\"": 5020,
      "\"\"\"(": 5021,
      "à¤¯à¤µà¤§": 5022,
      "Ġ138": 5023,
      "ĠSo": 5024,
      "Ġ245": 5025,
      "ĠICC": 5026,
      "ĠMain": 5027,
      "ĠMobile": 5028,
      "à¤¸à¤ļà¤®": 5029,
      "Ġà¥ĺà¤¬": 5030,
      "Ġà¤Ĩà¤¬à¤ķ": 5031,
      "ĠFor": 5032,
      "ĠFirst": 5033,
      "ush": 5034,
      "à¥Ĥà¤Ĥ.\"": 5035,
      "Ġ1982": 5036,
      "Ġà¥¨à¥Ń": 5037,
      "à¤¸à¤¹à¤¯": 5038,
      "à¥§à¥¦": 5039,
      "Ġà¥§à¥¯à¥«": 5040,
      "obal": 5041,
      "evelop": 5042,
      "ĠAdmit": 5043,
      "Al": 5044,
      "GST": 5045,
      "Kerala": 5046,
      "The": 5047,
      "rit": 5048,
      "ĠØ": 5049,
      "à¤¾\"\"\"\"": 5050,
      "Ġà¤ķà¤Łà¤¨": 5051,
      "à¤®à¤ķà¤°": 5052,
      "à¤®à¤ļà¤¨": 5053,
      "à¤¹à¥ĺ": 5054,
      "Ġà¤ªà¤łà¤¨": 5055,
      "Ġà¤ªà¤¨à¤¬": 5056,
      "Ġà¤ľà¤¯à¤ķ": 5057,
      "à¤¶à¥Ļà¤¬à¤°": 5058,
      "Ġà¤°à¤®à¤£": 5059,
      "Ġà¤¤à¤¸à¤²": 5060,
      "à¤¼.": 5061,
      "à¤¼à¥Ĥà¤Ĥ": 5062,
      "à¤Īà¤Ĩà¤°": 5063,
      "Ġà¤ıà¤¤": 5064,
      "à¤ĩà¤°à¤«": 5065,
      "à¤ĩà¤ĳà¤ķ": 5066,
      "à¤µà¤°à¤ļ": 5067,
      "à¤ħà¤µà¤§": 5068,
      "à¤°à¤®à¤¸": 5069,
      "Ġà¤§à¤¬": 5070,
      "Ġà¤¸à¤¹à¤Ĺà¤²": 5071,
      "à¤¸à¤¨à¤°": 5072,
      "Ġà¤¬à¤ļà¤ķà¤°": 5073,
      "Ġà¤Ĩà¤Īà¤ĵà¤¸": 5074,
      "Ġà¤ķà¤ªà¥ľ": 5075,
      "Ġà¤®à¤¨à¤¦": 5076,
      "Ġà¤Ŀà¤ľ": 5077,
      "à¥Ľà¤¨": 5078,
      "Ġà¤®à¤°à¤¯à¤®": 5079,
      "Ġ251": 5080,
      "Ġà¤ıà¤²à¤Ł": 5081,
      "Ġà¤ıà¤²à¤Ĩà¤Īà¤¸": 5082,
      "ĠSale": 5083,
      "ĠAss": 5084,
      "ĠRes": 5085,
      "à¤ĳà¤¡": 5086,
      "ĠNRC": 5087,
      "ital": 5088,
      "à¤ķà¤®à¤ľ": 5089,
      "Ġà¥ĺà¤¤": 5090,
      "ĠDelhi": 5091,
      "reat": 5092,
      "Ġà¤¶à¤¹à¤ľ": 5093,
      "etrol": 5094,
      "à¤Ĺà¤£à¤ķ": 5095,
      "à¤Ķà¤¸à¤¤": 5096,
      "Ġà¥§à¥¯à¥§à¥": 5097,
      "Ġ1958": 5098,
      "ealth": 5099,
      "orts": 5100,
      "ricket": 5101,
      "ĠCollection": 5102,
      "Ġà¤ıà¤²à¤¬à¤®": 5103,
      "750": 5104,
      "CBI": 5105,
      "DP": 5106,
      "DR": 5107,
      "ER": 5108,
      "Fi": 5109,
      "TS": 5110,
      "net": 5111,
      "ty": 5112,
      "à¤¾\"\"\"": 5113,
      "à¥ĩâĢĿ": 5114,
      "à¤°à¤Ľ": 5115,
      "Ġà¤¸à¤¹à¤°": 5116,
      "à¤ªà¤ª": 5117,
      "à¤Łà¤Ł": 5118,
      "Ġà¤µà¥ļ": 5119,
      "à¤¶à¤Ĺ": 5120,
      "Ġà¤Ĩà¤ĩà¤²": 5121,
      "Ġà¤Ńà¤°à¤¸à¤ķ": 5122,
      "à¤¼à¥ĭà¤Ĥ,": 5123,
      "à¤ĸà¤ª": 5124,
      "Ġà¤ĸà¤²à¤¨": 5125,
      "à¤Ĩà¤¦à¤°": 5126,
      "Ġà¤¹à¤®à¤¦à¤°": 5127,
      "à¤µà¤°à¤ª": 5128,
      "Ġ2023": 5129,
      "à¤°à¤£à¤¯": 5130,
      "Ġà¤Ĳà¤¡": 5131,
      "Ġà¤ķà¤²à¤¹": 5132,
      "ins": 5133,
      "Ġ151": 5134,
      "Ġ161": 5135,
      "ency": 5136,
      "Ġ243": 5137,
      "ĠIM": 5138,
      "ĠNar": 5139,
      "Ġ226": 5140,
      "2002": 5141,
      "amp": 5142,
      "à¥ħà¤¾": 5143,
      "à¥Ģ''": 5144,
      "Ġ377": 5145,
      "Ġ1974": 5146,
      "Ġà¥§à¥¯à¥ª": 5147,
      "Ġà¤ļà¤®à¤ķà¤¦": 5148,
      "ĠSharma": 5149,
      "CS": 5150,
      "FT": 5151,
      "az": 5152,
      "nov": 5153,
      "ram": 5154,
      "te": 5155,
      "à¤¾à¥Ģ": 5156,
      "à¤ķà¤§": 5157,
      "à¤ķà¤Ŀ": 5158,
      "à¤¸à¤ªà¤¨": 5159,
      "à¤®à¤ľà¤¬": 5160,
      "Ġà¤¹à¤¯": 5161,
      "à¥ĪâĢĿ": 5162,
      "à¤µà¤²à¤¨": 5163,
      "à¤µà¤Ńà¤°": 5164,
      "à¤ľà¤Ĺà¤¤": 5165,
      "Ġà¤ħà¤°à¤®": 5166,
      "Ġà¤²à¤²à¤ķ": 5167,
      "Ġà¤Ĩà¤µà¤°à¤£": 5168,
      "Ġà¤ĩà¤¡": 5169,
      "à¤£à¤Ĺ": 5170,
      "à¤«à¤¸à¤²": 5171,
      "à¤Ĩà¤¸à¤ª": 5172,
      "à¤¤à¤°à¤®": 5173,
      "à¤°à¤®à¤ľ": 5174,
      "à¤Ŀà¤ªà¤°": 5175,
      "Ġà¤Ĩà¤°à¤ıà¤¸": 5176,
      "à¤Ĩà¤Īà¤«": 5177,
      "Ġ310": 5178,
      "Ġà¤ĵà¤¹": 5179,
      "à¥Īà¤Ĥ.\"\"\"": 5180,
      "Ġà¤ħà¤¸à¤¤": 5181,
      "Ġà¤ħà¤ªà¤µà¤°": 5182,
      "Ġà¤ķà¤²à¤ª": 5183,
      "Ġ1920": 5184,
      "Ġ1949": 5185,
      "Ġ127": 5186,
      "inter": 5187,
      "à¤ļà¤°à¤°": 5188,
      "Ġ164": 5189,
      "ĠAm": 5190,
      "ĠAs": 5191,
      "ena": 5192,
      "Ġà¤ıà¤«à¤ıà¤®": 5193,
      "Ġà¥Ľà¤¬": 5194,
      "à¥ŀà¤¸": 5195,
      "ree": 5196,
      "use": 5197,
      "ĠInd": 5198,
      "Ġà¥¨à¥®": 5199,
      "à¤ĩà¤«à¤¸": 5200,
      "Ġ1963": 5201,
      "à¤¾à¤ĥ%": 5202,
      "udget": 5203,
      "Sushant": 5204,
      "LED": 5205,
      "Mi": 5206,
      "SR": 5207,
      "min": 5208,
      "out": 5209,
      "Ùħ": 5210,
      "Ġ`": 5211,
      "à¤¤à¤¬à¤²": 5212,
      "à¤¯à¤£à¤¨": 5213,
      "à¤¸à¤¹à¤®à¤¤": 5214,
      "à¤²à¤Ī": 5215,
      "Ġà¤®à¤²à¤ķ": 5216,
      "à¥ĩà¤Ĥ]": 5217,
      "à¤ıà¤ĵ": 5218,
      "à¤¶à¤Ń": 5219,
      "Ġà¤°à¤Īà¤¸": 5220,
      "Ġà¤²à¤ı": 5221,
      "Ġà¤²à¤ªà¤ķ": 5222,
      "Ġà¤²à¤¹à¤¸": 5223,
      "à¤ļà¤Ł": 5224,
      "Ġà¤¤à¤¬à¤²": 5225,
      "Ġà¤Ńà¥ľà¤ķ": 5226,
      "Ġà¤ıà¤²à¤°": 5227,
      "Ġà¤ıà¤Ĩà¤Īà¤¸": 5228,
      "à¤Ńà¤Ł": 5229,
      "Ġà¤«à¤²à¤¨": 5230,
      "Ġà¤«à¤¤à¤¹": 5231,
      "à¤Ĩà¤°à¤µ": 5232,
      "à¤¹à¤°à¤Ńà¤ľà¤¨": 5233,
      "Ġà¤īà¤ªà¤¶à¤®à¤¨": 5234,
      "à¤²à¤¨à¤ķ": 5235,
      "à¤®à¤¨à¤¦": 5236,
      "à¤°à¤µà¤¤": 5237,
      "Ġà¤īà¤¦à¤ĺ": 5238,
      "à¤¬à¤²à¤¡à¤¨": 5239,
      "Ġà¤®à¤¨à¤ľ": 5240,
      "Ġ1940": 5241,
      "à¤Ĳà¤ķ": 5242,
      "Ġà¤ıà¤¨à¤Ĩà¤Īà¤¸": 5243,
      "Ġà¤ıà¤¨à¤Ĩà¤Īà¤Ł": 5244,
      "Ġà¤ıà¤¨à¤ıà¤¸à¤Ī": 5245,
      "Ġà¤²à¤¡à¤ķ": 5246,
      "Ġ168": 5247,
      "Ġà¤¸à¤¡à¤ķ": 5248,
      "à¤¬à¤ļà¤ªà¤¨": 5249,
      "Ġ1966": 5250,
      "umb": 5251,
      "à¥¨à¥¦": 5252,
      "à¤ıà¤¯à¤°à¤Ł": 5253,
      "ighlight": 5254,
      "ĠEngl": 5255,
      "Ġà¤®à¤°à¤¤à¤¬": 5256,
      "Ġà¤Ĩà¤Īà¤ıà¤«à¤ıà¤«à¤Ĩà¤Ī": 5257,
      "Ġà¤ħà¤ľà¤¨à¤¬": 5258,
      "ĠQualcomm": 5259,
      "350": 5260,
      "JD": 5261,
      "JNU": 5262,
      "oad": 5263,
      "Ġà¤į": 5264,
      "Ġà¤İ": 5265,
      "à¥ĩ]": 5266,
      "à¤°à¤¬à¤°": 5267,
      "à¤¨à¤ªà¤¤": 5268,
      "à¤²à¤¶à¤¨": 5269,
      "à¤²à¤Ĺà¤¤": 5270,
      "à¤®à¤Ľ": 5271,
      "à¤®à¤°à¤¸": 5272,
      "Ġà¤¹à¥Ľ": 5273,
      "à¥ģà¥¤": 5274,
      "Ġà¤ħà¤¦à¤®": 5275,
      "à¤ıà¤¯": 5276,
      "à¤·à¤¯à¤µà¤¸": 5277,
      "Ġà¤¤à¤Ĺà¤¡": 5278,
      "à¤¼à¥¤": 5279,
      "Ġà¤ªà¤°à¤ķ": 5280,
      "à¥Īà¤ĤâĢ¦": 5281,
      "Ġà¤ıà¤ıà¤«à¤ª": 5282,
      "Ġà¤ĩà¤ķà¤¨": 5283,
      "à¤ĸà¤¸": 5284,
      "à¥Ģà¤ĤâĢĻ": 5285,
      "Ġà¤ıà¤ķà¤¬": 5286,
      "Ġà¤«à¤ľà¤²": 5287,
      "à¤°à¤ķà¤®": 5288,
      "à¥ī,": 5289,
      "à¤ĵà¤ľ": 5290,
      "à¤¶à¤¨à¤Ń": 5291,
      "à¤ģ?": 5292,
      "Ġ330": 5293,
      "Ġà¤ıà¤µà¤ľ": 5294,
      "à¤¸à¤ķà¤²": 5295,
      "à¤¤à¤¨à¤¹": 5296,
      "à¥ľà¤ª": 5297,
      "Ġ499": 5298,
      "Ġà¤¬à¤²à¤ľ": 5299,
      "Ġà¤Īà¤¨": 5300,
      "Ġà¤Īà¤²": 5301,
      "Ġà¤Īà¤¬": 5302,
      "à¥ĩ.\"\"\"": 5303,
      "Ġà¤¬à¤¦à¤ļà¤²à¤¨": 5304,
      "Ġ1914": 5305,
      "à¥Ī?\"\"\"": 5306,
      "à¤Ĭà¤¨": 5307,
      "Ġà¤Ķà¤ªà¤¨": 5308,
      "Ġ131": 5309,
      "Ġ166": 5310,
      "ĠNCP": 5311,
      "à¤Ĺà¤¡à¤ķà¤°": 5312,
      "ĠDate": 5313,
      "rev": 5314,
      "ĠHel": 5315,
      "ĠOppo": 5316,
      "ĠmAh": 5317,
      "ident": 5318,
      "Ġ1969": 5319,
      "à¤¸à¤«à¤²à¤¤": 5320,
      "Ġà¥§à¥¯à¥Ń": 5321,
      "Ġ1955": 5322,
      "hah": 5323,
      "ount": 5324,
      "Ø§ÙĦ": 5325,
      "earch": 5326,
      "%,": 5327,
      "120": 5328,
      "Air": 5329,
      "BCCI": 5330,
      "Covid": 5331,
      "Delhi": 5332,
      "IB": 5333,
      "Me": 5334,
      "NIA": 5335,
      "bps": 5336,
      "co": 5337,
      "eep": 5338,
      "htt": 5339,
      "pro": 5340,
      "ration": 5341,
      "ÙĨ": 5342,
      "Ġar": 5343,
      "à¥ĢâĢĻâĢĻ": 5344,
      "à¥ĭà¤ĥ": 5345,
      "à¥ĭ...": 5346,
      "à¤ķà¤®à¤°": 5347,
      "à¥ĩà¤Ĥ'": 5348,
      "Ġà¤¨à¤µà¤²": 5349,
      "à¤ıà¤ķà¤²": 5350,
      "à¤ıà¤¡à¤µ": 5351,
      "Ġà¤²à¤µà¤²": 5352,
      "à¤¬à¤¬": 5353,
      "à¤¬à¤ķà¤°": 5354,
      "à¤¬à¤ł": 5355,
      "à¤¬à¤¨à¤°": 5356,
      "à¤·à¤¸à¤¹": 5357,
      "Ġà¤¤à¤¦": 5358,
      "Ġà¤¤à¤ªà¤¨": 5359,
      "Ġà¤ĩà¤ľà¤¹": 5360,
      "Ġà¤¶à¤¤à¤°": 5361,
      "à¤ĸà¤°à¤¨": 5362,
      "à¤£à¤ķà¤Ł": 5363,
      "à¤«à¤Ł": 5364,
      "Ġà¤«à¤ķ": 5365,
      "Ġà¤«à¤µ": 5366,
      "à¤ĵà¤ªà¤¨": 5367,
      "Ġà¤īà¤ªà¤¬à¤¨": 5368,
      "à¤°à¤£à¤¤": 5369,
      "Ġà¤Ĩà¤°à¤¡": 5370,
      "à¤ıà¤®à¤ıà¤¸à¤ª": 5371,
      "Ġà¤Ĩà¤µà¤ķ": 5372,
      "Ġà¤Ĩà¤Īà¤Ĩà¤°": 5373,
      "Ġà¤ıà¤¸à¤µ": 5374,
      "Ġà¤ıà¤¸à¤Ĩà¤Ī": 5375,
      "Ġà¤ıà¤¸à¤ıà¤®à¤Ī": 5376,
      "Ġà¤ĸà¤°à¤Ĺ": 5377,
      "ĠâĢĿ-": 5378,
      "1999": 5379,
      "1962": 5380,
      "Ġ1200": 5381,
      "Ġà¤¤à¤¬à¤¦": 5382,
      "arb": 5383,
      "ated": 5384,
      "Ġ1800": 5385,
      "ĠSup": 5386,
      "ĠPrime": 5387,
      "ĠCase": 5388,
      "ĠRec": 5389,
      "ĠRSS": 5390,
      "à¤ªà¤²à¤Ł": 5391,
      "Ġà¥Ľà¤¬à¤°à¤¦à¤¸": 5392,
      "Ġ227": 5393,
      "Ġà¤®à¤¶à¤µ": 5394,
      "Ġ323": 5395,
      "à¤¾',": 5396,
      "à¥Ī)à¥¤": 5397,
      "ĠLED": 5398,
      "ĠIndian": 5399,
      "Ġph": 5400,
      "à¥§à¥«": 5401,
      "emper": 5402,
      "ĠiOS": 5403,
      "ĠSports": 5404,
      "ĠUpdate": 5405,
      "Ġà¤¨à¤°à¤µà¤£": 5406,
      "ĠREAD": 5407,
      ")/": 5408,
      "NEET": 5409,
      "RS": 5410,
      "TET": 5411,
      "xis": 5412,
      "Ãī": 5413,
      "à¥ĩ\\\\": 5414,
      "à¥į.": 5415,
      "à¤¸à¤¹à¤ķ": 5416,
      "à¥Ī\"\"\"": 5417,
      "à¤µà¤«": 5418,
      "à¤ªà¤µà¤¨": 5419,
      "à¥ĩà¤Ĥ),": 5420,
      "à¤Ĺà¤¹à¤°": 5421,
      "Ġà¤¦à¤Ĺ": 5422,
      "Ġà¤²à¤ĸà¤µ": 5423,
      "à¤ļà¤¬": 5424,
      "Ġà¤Ĺà¤ľà¤¬": 5425,
      "Ġà¤Ĩà¤ĩà¤¸à¤ķ": 5426,
      "Ġà¤ıà¤ıà¤®": 5427,
      "Ġà¤ıà¤Ĩà¤°": 5428,
      "à¤¾à¤ĤâĢĻ": 5429,
      "à¤ĩà¤¥": 5430,
      "à¤ĩà¤®à¤¨": 5431,
      "à¤°à¤¤à¤µà¤°": 5432,
      "à¤Ĩà¤«": 5433,
      "à¤Ĩà¤¯à¤°à¤²": 5434,
      "à¤Ĩà¤ĩà¤ª": 5435,
      "Ġà¤¸à¤®à¤¤à¤²": 5436,
      "à¤°à¤ķà¤ª": 5437,
      "à¥ī)": 5438,
      "à¥ĥ-": 5439,
      "à¤ħà¤¹": 5440,
      "à¥ĩà¥¤à¥¤": 5441,
      "Ġà¤¤à¤°à¤²à¤¤": 5442,
      "à¤²à¤¤à¤®": 5443,
      "à¤Ĩà¤Īà¤¡à¤¬": 5444,
      "à¤¼à¥Ģ.": 5445,
      "Ġà¤Ĩà¤Īà¤ıà¤®à¤ıà¤«": 5446,
      "à¤Ĺà¤²à¤®": 5447,
      "à¤Łà¤ķà¤Ł": 5448,
      "Ġ855": 5449,
      "à¤¦à¤®à¤ķà¤²": 5450,
      "Ġ129": 5451,
      "Ġà¤ıà¤®à¤ıà¤®à¤Ł": 5452,
      "à¤Ĭà¤¸": 5453,
      "ani": 5454,
      "Ġ1857": 5455,
      "ĠSBI": 5456,
      "Ġ167": 5457,
      "Ġà¤§à¤¨à¤ĸà¤¡": 5458,
      "esign": 5459,
      "eng": 5460,
      "Ġà¤ħà¤®à¤°à¤ľ": 5461,
      "ĠNokia": 5462,
      "à¤²à¤Ĺà¤ĩà¤¨": 5463,
      "lect": 5464,
      "row": 5465,
      "ream": 5466,
      "Ġ325": 5467,
      "ĠHC": 5468,
      "eli": 5469,
      "256": 5470,
      "à¤¾''": 5471,
      "à¤īà¤ªà¤²à¤¬": 5472,
      "otter": 5473,
      "ays": 5474,
      "Ġme": 5475,
      "à¤ıà¤¨à¤ıà¤¸à¤ľ": 5476,
      "à¤Ĩà¤Īà¤ıà¤ıà¤¸": 5477,
      "Ġ1968": 5478,
      "ution": 5479,
      "Ġà¥«à¥¦": 5480,
      "Ġà¤Ńà¤°à¤¤à¤ª": 5481,
      "anka": 5482,
      "ruit": 5483,
      "IMIM": 5484,
      "iesel": 5485,
      "Ġà¤®à¥Ľà¤¬": 5486,
      "outh": 5487,
      "Apple": 5488,
      "Ġorg": 5489,
      "Comment": 5490,
      "âĤ¬": 5491,
      "ĠCRPF": 5492,
      "Flipkart": 5493,
      "Jio": 5494,
      "Too": 5495,
      "la": 5496,
      "oth": 5497,
      "Ġ),": 5498,
      "Ġli": 5499,
      "à¤°à¥ŀ": 5500,
      "Ġà¤ķà¤Ľ": 5501,
      "à¤ķà¤Łà¤°": 5502,
      "Ġà¤ªà¤¸à¤°": 5503,
      "à¤µà¥ľ": 5504,
      "à¤¦à¤°à¤µ": 5505,
      "à¤Łà¤¦": 5506,
      "à¤ľà¤¯à¤ķ": 5507,
      "à¤ıà¤¨à¤ķ": 5508,
      "à¤ıà¤ķà¤¤": 5509,
      "à¤ıà¤Ĩà¤Īà¤¸": 5510,
      "Ġà¤°à¤ªà¤¯": 5511,
      "Ġà¤²à¤Ł": 5512,
      "à¤ļà¤²à¤¤": 5513,
      "Ġà¤īà¤«": 5514,
      "Ġà¤Ĺà¤²à¤µ": 5515,
      "Ġà¤ıà¤ıà¤¸": 5516,
      "à¥Īà¥¤-": 5517,
      "à¤ĸà¤ªà¤¤": 5518,
      "Ġà¤«à¥Ľà¤²": 5519,
      "âĢįà¥į": 5520,
      "Ġà¤¡à¤¸": 5521,
      "à¤°à¤®à¤°": 5522,
      "Ġ202": 5523,
      "Ġà¤§à¤®à¤¨": 5524,
      "Ġà¤§à¤¨à¤µ": 5525,
      "à¤Ĩà¤Īà¤ıà¤¨à¤ıà¤¸": 5526,
      "Ġà¤¸à¤¹à¤ľà¤¤": 5527,
      "à¤ĩà¤¨à¤ª": 5528,
      "à¥Īà¤Ĥ...": 5529,
      "à¤ľà¤ªà¤¥": 5530,
      "Ġà¤¸à¤°à¤Ĺ": 5531,
      "à¥Ģ):": 5532,
      "Ġà¤ķà¤²à¤ķ": 5533,
      "à¤ıà¤¨à¤ıà¤®": 5534,
      "à¤ıà¤«à¤Ĩà¤Īà¤Ĩà¤°": 5535,
      "Ġà¤ıà¤¨à¤«": 5536,
      "Ġà¤ıà¤¨à¤Ĩà¤°à¤Ĩà¤Ī": 5537,
      "1993": 5538,
      "à¤īà¤¸à¤ªà¤°": 5539,
      "anj": 5540,
      "à¤®à¤¹à¤¬": 5541,
      "era": 5542,
      "ala": 5543,
      "à¥ĭà¥¤\"\"": 5544,
      "ĠPar": 5545,
      "à¤ľà¤Ĺà¤¦": 5546,
      "ĠCO": 5547,
      "ĠCEO": 5548,
      "à¤Ĩà¤ªà¤¦": 5549,
      "Ġ177": 5550,
      "ĠMatch": 5551,
      "Ġ210": 5552,
      "ĠNS": 5553,
      "Ġ224": 5554,
      "125": 5555,
      "amm": 5556,
      "Ġà¥ĺà¤¦à¤®": 5557,
      "Ġ324": 5558,
      "rastructure": 5559,
      "ĠLe": 5560,
      "ĠLaunch": 5561,
      "Ġà¤Ĩà¤īà¤Łà¤¸": 5562,
      "Ġman": 5563,
      "ĠUN": 5564,
      "Ġà¥¨à¥¯": 5565,
      "Ġ498": 5566,
      "ode": 5567,
      "IIMS": 5568,
      "à¥¨à¥¦à¥¦": 5569,
      "ake": 5570,
      "SEB": 5571,
      "ĠHDFC": 5572,
      "ĠRead": 5573,
      "ustral": 5574,
      "appy": 5575,
      "MOST": 5576,
      "ternational": 5577,
      "ĠMediaTe": 5578,
      "ighlights": 5579,
      "ĠMediaTek": 5580,
      "IL": 5581,
      "dà¤²": 5582,
      "fin": 5583,
      "fer": 5584,
      "iPhone": 5585,
      "vel": 5586,
      "à¤¾%": 5587,
      "à¤°à¤ľà¤®": 5588,
      "Ġà¤ķà¤¸à¤¨": 5589,
      "à¥Ģ\"": 5590,
      "à¤Ĥà¤¾": 5591,
      "à¤ķà¤¹à¤¨": 5592,
      "Ġà¤¸à¤°à¤®": 5593,
      "à¤®à¤ł": 5594,
      "à¤®à¤Ľà¤²": 5595,
      "Ġà¤¹à¥ľà¤¤": 5596,
      "Ġà¤®à¤¢": 5597,
      "Ġà¤ªà¤ĸ": 5598,
      "à¤¦à¤°à¤®": 5599,
      "à¤Ĺà¤ļ": 5600,
      "à¤Łà¤¤à¤®": 5601,
      "à¤Łà¤ľà¤°à¤²": 5602,
      "Ġà¤¬à¤«à¤°": 5603,
      "Ġà¤ħà¤µà¤¨": 5604,
      "Ġà¤ħà¤ķà¤°à¤®": 5605,
      "à¤ıà¤¯à¤°à¤²": 5606,
      "à¥Īà¤Ĥ'": 5607,
      "Ġà¤ıà¤ķà¤¨": 5608,
      "Ġà¤ĸà¤¸": 5609,
      "Ġà¤ĸà¤ļ": 5610,
      "à¤Ĩà¤ľà¤®": 5611,
      "Ġà¤ħà¤¨à¤Ł": 5612,
      "à¤łà¤¤à¤®": 5613,
      "à¤łÃ¯": 5614,
      "à¤¤à¤°à¤¬": 5615,
      "à¤¯à¤°à¤¡": 5616,
      "à¤®à¤¨à¤°": 5617,
      "Ġà¥¯à¥": 5618,
      "Ġà¤ĵà¤¶": 5619,
      "Ġà¤ķà¤²à¤¸": 5620,
      "Ġà¤Ĩà¤¨à¤²": 5621,
      "Ġ193": 5622,
      "à¤ıà¤²à¤ıà¤®": 5623,
      "à¤²à¤ķà¤¨": 5624,
      "1996": 5625,
      "Ġà¤¦à¤²à¤¦à¤²": 5626,
      "Ġ154": 5627,
      "ong": 5628,
      "Ġ133": 5629,
      "à¤ıà¤ļà¤Ł": 5630,
      "à¤ıà¤ļà¤ıà¤«": 5631,
      "ĠCricket": 5632,
      "ick": 5633,
      "Ġà¤ķà¤¡à¤ª": 5634,
      "ional": 5635,
      "Ġà¤Ĺà¤£à¤ªà¤¤": 5636,
      "roup": 5637,
      "ĠâĢĻâĢĻ": 5638,
      "raph": 5639,
      "à¤ıà¤¸à¤ıà¤¸à¤ıà¤Ĩà¤Ī": 5640,
      "à¤īà¤ªà¤ķà¤°à¤£": 5641,
      "ĠLotter": 5642,
      "ural": 5643,
      "irth": 5644,
      "Ġà¥¨à¥¬": 5645,
      "à¤ıà¤Ĩà¤Īà¤ıà¤®à¤Ĩà¤Īà¤ıà¤®": 5646,
      "âĸ«": 5647,
      "duc": 5648,
      "ĠAndroid": 5649,
      "gress": 5650,
      "inister": 5651,
      "Ġà¤ıà¤Ĩà¤Īà¤ıà¤®à¤Ĩà¤Īà¤ıà¤®": 5652,
      "ĠSoC": 5653,
      "ĠEngland": 5654,
      "ĠHelio": 5655,
      "Con": 5656,
      "FA": 5657,
      "Google": 5658,
      "NA": 5659,
      "PA": 5660,
      "PU": 5661,
      "Petrol": 5662,
      "Sh": 5663,
      "UV": 5664,
      "dà¤®": 5665,
      "ei": 5666,
      "ian": 5667,
      "nd": 5668,
      "pen": 5669,
      "ror": 5670,
      "Ļª": 5671,
      "à¤Ĥ?": 5672,
      "à¤ĤâĢį": 5673,
      "à¤¤à¤ķà¤²": 5674,
      "à¤¹à¤ľà¤¨à¤ķ": 5675,
      "Ġà¤ªà¤¦à¤¸": 5676,
      "Ġà¤ªà¤Ĺà¤¡": 5677,
      "à¥ģà¥ģ": 5678,
      "à¤¦à¤¶à¤ķ": 5679,
      "à¤ªà¤²à¤¬": 5680,
      "Ġà¤¬à¤¬à¤²": 5681,
      "Ġà¤ľà¤®à¤¨": 5682,
      "Ġà¤¦à¤¯à¤¨": 5683,
      "à¤ıà¤Łà¤²": 5684,
      "à¥Ĥ),": 5685,
      "Ġà¤°à¤¨à¤µ": 5686,
      "Ġà¤²à¤¨": 5687,
      "à¤¬à¤ľà¤°": 5688,
      "à¤¬à¥Ŀ": 5689,
      "à¤Īà¤ıà¤«": 5690,
      "à¥Īà¥¤'": 5691,
      "à¤Ĩà¤ĩà¤Ł": 5692,
      "à¤µà¤°à¤«": 5693,
      "à¤°à¤£à¤¤à¤¯": 5694,
      "Ġà¤Ĳà¤¤à¤°": 5695,
      "Ġà¤¬à¤¤à¤²": 5696,
      "à¤¦à¤°à¤ª": 5697,
      "à¥ľà¤Ĺ": 5698,
      "Ġà¤¬à¤²à¤¦": 5699,
      "Ġà¤Īà¤¡à¤¨": 5700,
      "Ġà¤®à¤¨à¤µ": 5701,
      "Ġà¤ľà¤²à¤Ńà¤°": 5702,
      "Ġà¤łà¤Ł": 5703,
      "Ġà¤²à¤¡à¤©": 5704,
      "à¥Ī?\"\"": 5705,
      "à¤®à¤¦à¤¦": 5706,
      "Ġ156": 5707,
      "Ġà¤Ĩà¤®à¤ľà¤¨": 5708,
      "Ġà¤ªà¤ķà¥ľà¤¨": 5709,
      "Ġà¤ıà¤²à¤ıà¤¸": 5710,
      "Ġà¤ıà¤²à¤ıà¤¨à¤ľ": 5711,
      "ĠPhone": 5712,
      "ĠAxis": 5713,
      "eno": 5714,
      "à¤ħà¤Ĺà¤°à¤ļ": 5715,
      "ĠMov": 5716,
      "ĠNHT": 5717,
      "à¥Ī:-": 5718,
      "Ġà¤ĭà¤£à¤¦": 5719,
      "âĢ¦.": 5720,
      "Ġ1981": 5721,
      "Ġpl": 5722,
      "à¥Īà¤Ĥ:-": 5723,
      "Ġ1979": 5724,
      "Ġà¤¬à¤®à¤¬": 5725,
      "Ġà¥©à¥§": 5726,
      "ĠJNU": 5727,
      "à¤Ķà¤·à¤§": 5728,
      "Ġà¥§à¥¯à¥©": 5729,
      "ability": 5730,
      "Ġà¥ªà¥¦": 5731,
      "own": 5732,
      "dust": 5733,
      "ĠSci": 5734,
      "book": 5735,
      "ĠLottery": 5736,
      "Read": 5737,
      "SSC": 5738,
      "TM": 5739,
      "eat": 5740,
      "his": 5741,
      "»¿": 5742,
      "ï»¿": 5743,
      "Ġ]": 5744,
      "Ġ00": 5745,
      "à¥¯à¥": 5746,
      "à¤¾âĢĶ": 5747,
      "à¤°à¤ĸà¤¨": 5748,
      "à¥įà¤Ĥ": 5749,
      "à¤¤à¤²à¤µ": 5750,
      "à¤¯à¤«à¤²": 5751,
      "à¤®à¤°à¤ķ": 5752,
      "à¤®à¤¹à¤°": 5753,
      "à¤®à¤Ĺà¤¢": 5754,
      "Ġà¤¹à¤°à¤ķ": 5755,
      "à¤¦à¤£": 5756,
      "Ġà¤¬à¥ļ": 5757,
      "Ġà¤ħà¤ªà¤¤": 5758,
      "à¤ıà¤¹": 5759,
      "à¤§à¤¨à¤¤": 5760,
      "Ġà¤īà¤ĸà¤¡": 5761,
      "à¤¥à¤°à¤¸": 5762,
      "Ġà¤ıà¤²à¤¨": 5763,
      "à¤Ĩà¤ļ": 5764,
      "Ġ270": 5765,
      "à¤¶à¤¨à¤Ĺ": 5766,
      "à¤Ŀà¤°": 5767,
      "à¤¨à¤®à¤¨": 5768,
      "à¤ıà¤¸à¤ıà¤ļà¤ĵ": 5769,
      "à¤ıà¤®à¤ıà¤µ": 5770,
      "âĢĻà¥¤": 5771,
      "à¤Ķà¤°à¤¤": 5772,
      "2021": 5773,
      "Ġà¤¬à¤¦à¤¸à¤²": 5774,
      "Ġ1938": 5775,
      "à¤ıà¤²à¤ıà¤¸": 5776,
      "à¤ıà¤«à¤ıà¤®à¤ıà¤¸": 5777,
      "1984": 5778,
      "ink": 5779,
      "eries": 5780,
      "Ġ183": 5781,
      "à¤ıà¤ļà¤ı": 5782,
      "à¤ıà¤ļà¤Ĩà¤°à¤¡": 5783,
      "Ġ169": 5784,
      "ĠAg": 5785,
      "ĠCS": 5786,
      "Ġà¤ªà¤Łà¤µ": 5787,
      "icle": 5788,
      "Ġà¤ĭà¤ļ": 5789,
      "Ġà¥Ľà¤²": 5790,
      "ĠBl": 5791,
      "ĠMLA": 5792,
      "ĠTo": 5793,
      "Ġ260": 5794,
      "Ġsp": 5795,
      "rain": 5796,
      "oll": 5797,
      "ise": 5798,
      "à¥Ģ',": 5799,
      "ĠLite": 5800,
      "ĠODI": 5801,
      "ĠVo": 5802,
      "Ġà¥©à¥ª": 5803,
      "Ġby": 5804,
      "Ġà¥§à¥¯à¥¬": 5805,
      "Ġ1954": 5806,
      "---": 5807,
      "aka": 5808,
      "istan": 5809,
      "Ġà¤ĸà¤²à¤¬à¤²": 5810,
      "AAP": 5811,
      "ector": 5812,
      "endra": 5813,
      "ĠÂ°": 5814,
      "elect": 5815,
      "ways": 5816,
      "Ġà¤¨à¥Ľà¤¦": 5817,
      "evelopment": 5818,
      "ustralia": 5819,
      "!\"": 5820,
      "CM": 5821,
      "Nokia": 5822,
      "XIP": 5823,
      "day": 5824,
      "lobal": 5825,
      "tm": 5826,
      "à¥Ģà¤ģ": 5827,
      "à¤Ĥ'": 5828,
      "à¤ķà¤¥à¤¨": 5829,
      "à¤¸à¤¹à¤¨": 5830,
      "à¤²à¤ªà¤®": 5831,
      "Ġà¤¸à¤¤à¤¨": 5832,
      "à¤¹à¤°à¤®": 5833,
      "à¤¹à¤Ĺà¤¢": 5834,
      "à¤µà¤Łà¤°": 5835,
      "à¤Ĺà¤°à¤ķ": 5836,
      "Ġà¤¬à¤¸à¤°": 5837,
      "Ġà¤ľà¥ľ": 5838,
      "Ġà¤ħà¤¤à¤°": 5839,
      "à¤¶à¤°à¤£": 5840,
      "Ġà¤²à¤¬": 5841,
      "à¤¡à¤µà¤¤": 5842,
      "à¤§à¤¶": 5843,
      "à¤§à¤®à¤ķ": 5844,
      "Ġà¤Ĩà¤µà¤°": 5845,
      "à¤Īà¤ķà¤°": 5846,
      "Ġà¤ĩà¤¦": 5847,
      "à¤īà¤Ĺ": 5848,
      "à¤ĵà¤¹": 5849,
      "à¤ĵà¤ıà¤®": 5850,
      "à¤ħà¤¨à¤¨": 5851,
      "Ġà¤ĺà¤®à¤£": 5852,
      "à¤¢à¤¤": 5853,
      "\"\".\"": 5854,
      "Ġà¤īà¤ªà¤¸à¤Ń": 5855,
      "à¤Ŀà¤Ĺà¤¡": 5856,
      "à¤°à¤£à¤¨": 5857,
      "Ġà¤Ĩà¤ªà¤®": 5858,
      "à¤®à¤¨à¤¸": 5859,
      "Ġà¤¦à¤°à¤Ń": 5860,
      "Ġà¤ĵà¤¨": 5861,
      "Ġà¤¸à¤°à¤ľà¤®": 5862,
      "Ġà¤Īà¤ıà¤¸à¤Ĩà¤Īà¤¸": 5863,
      "à¤µà¤²à¤¦": 5864,
      "à¤Łà¤²à¤®": 5865,
      "Ġà¤¬à¤¦à¤¹": 5866,
      "Ġ1919": 5867,
      "à¤ıà¤¨à¤ıà¤«": 5868,
      "ĠâĢľ[": 5869,
      "Ġà¤¬à¤°à¤Ĺ": 5870,
      "à¤ıà¤«à¤ıà¤Ł": 5871,
      "à¤¶à¤²à¤®": 5872,
      "1990": 5873,
      "iness": 5874,
      "Ġà¤¹à¤ľà¤°à¤¤": 5875,
      "ere": 5876,
      "Ġ011": 5877,
      "à¤¬à¤¤à¤¦": 5878,
      "icon": 5879,
      "Ġ280": 5880,
      "edding": 5881,
      "à¤¡à¤¸à¤ĩ": 5882,
      "Ġà¤ªà¥ľà¤¨": 5883,
      "à¤¾âĢĻ,": 5884,
      "entre": 5885,
      "ĠOf": 5886,
      "Ġ[[": 5887,
      "Ġà¥©à¥©": 5888,
      "à¥Ĥà¤ģà¥¤\"\"\"": 5889,
      "Ġwith": 5890,
      "Ġà¤¿à¤¾": 5891,
      "ÂłÂłÂłÂł": 5892,
      "Ġà¤ıà¤¨à¤ıà¤ļà¤ıà¤Ĩà¤Ī": 5893,
      "à¤ķà¤®à¤²à¤¨": 5894,
      "MeToo": 5895,
      "eliance": 5896,
      "ruitment": 5897,
      "!\"\"\"": 5898,
      "080": 5899,
      "BA": 5900,
      "ES": 5901,
      "NRC": 5902,
      "TP": 5903,
      "Un": 5904,
      "kh": 5905,
      "Â°": 5906,
      "à¨": 5907,
      "à·": 5908,
      "Ġed": 5909,
      "à¤°à¤¹à¤¨": 5910,
      "à¤ĤâĢĻ": 5911,
      "à¤¨à¤ļà¤°": 5912,
      "à¥ĭ/": 5913,
      "à¥ĭà¥ĩà¤Ĥ": 5914,
      "à¤²à¤¹à¤°": 5915,
      "Ġà¤¸à¤¹à¤¤": 5916,
      "Ġà¤¨à¤¯à¤¨": 5917,
      "à¤Łà¤¶": 5918,
      "à¤Łà¤¶à¤¬": 5919,
      "à¤ıà¤¹à¤¤": 5920,
      "Ġà¤²à¤ªà¤Ł": 5921,
      "à¤¬à¤²à¤¤": 5922,
      "Ġà¤Ĺà¤§": 5923,
      "Ġà¤Ĩà¤ĩà¤ľ": 5924,
      "Ġà¤ªà¤°à¤¶": 5925,
      "à¥Īà¥¤âĢĻâĢĻ": 5926,
      "à¤ĵà¤Ĩà¤°": 5927,
      "Ġà¤ĺà¤£": 5928,
      "à¤ªà¤°à¤ľ": 5929,
      "Ġà¤Ĳà¤¬": 5930,
      "à¤Łà¤¨à¤°à¤¶": 5931,
      "à¤°à¤µà¤ļà¤¨": 5932,
      "à¤ıà¤®à¤Ĩà¤°à¤ª": 5933,
      "Ġà¤¹à¤°à¤¬": 5934,
      "Ġà¤¬à¤¡à¤Ĺ": 5935,
      "Ġà¤¸à¤°à¤¬à¤ľ": 5936,
      "Ġà¤ľà¤¨à¤µ": 5937,
      "Ġà¤ħà¤ķà¤¡": 5938,
      "ĠâĢľ%": 5939,
      "1980": 5940,
      "Ġà¤ªà¤°à¤®à¤ľ": 5941,
      "Ġà¤ıà¤®à¤µ": 5942,
      "Ġà¤ľà¤Ĺà¤®": 5943,
      "ara": 5944,
      "Ġ141": 5945,
      "Ġà¥Ļà¤¬à¤°à¤¦": 5946,
      "à¤Ĺà¤®à¤Ĺ": 5947,
      "Ġ303": 5948,
      "ĠAct": 5949,
      "ĠCoun": 5950,
      "ense": 5951,
      "Ġ172": 5952,
      "Ġà¤µà¤¨à¤ª": 5953,
      "ĠIT": 5954,
      "à¥ŀà¤°": 5955,
      "Ġ225": 5956,
      "rop": 5957,
      "à¥ĩ?\"\"\"": 5958,
      "usiness": 5959,
      "otos": 5960,
      "Ġ375": 5961,
      "à¥§à¥®": 5962,
      "Ġ1964": 5963,
      "Ġ1959": 5964,
      "IIT": 5965,
      "acc": 5966,
      "à¤ıà¤¯à¤°à¤ª": 5967,
      "à¥§à¥¯à¥¯à¥": 5968,
      "à¥Ĭà¤Ĥ": 5969,
      "Ø§Ø": 5970,
      "Ġquot": 5971,
      "stitute": 5972,
      "emperature": 5973,
      "720": 5974,
      "GS": 5975,
      "IRCTC": 5976,
      "NO": 5977,
      "Ph": 5978,
      "Raj": 5979,
      "],": 5980,
      "bh": 5981,
      "cess": 5982,
      "ior": 5983,
      "land": 5984,
      "mar": 5985,
      "na": 5986,
      "post": 5987,
      "rid": 5988,
      "ser": 5989,
      "ues": 5990,
      "ve": 5991,
      "ys": 5992,
      "ĠÐ": 5993,
      "Ġem": 5994,
      "ĠØ§ÙĦ": 5995,
      "à¤³": 5996,
      "à¤°à¤ħ": 5997,
      "à¤²à¥ľà¤ķ": 5998,
      "Ġà¤¹à¤µà¤²à¤¦": 5999,
      "Ġà¤ªà¤§": 6000,
      "Ġà¤ªà¤¨à¤ª": 6001,
      "à¤¦à¤ľ": 6002,
      "à¤¦à¤ĸà¤²": 6003,
      "à¤ªà¤Ĺà¤¢": 6004,
      "à¤ªà¤ļà¤¯": 6005,
      "à¤ľà¤¬à¤°": 6006,
      "à¤ľà¤Ńà¤°": 6007,
      "à¥ĭà¤Ĥ\"\"": 6008,
      "Ġà¤ħà¤ľà¤°": 6009,
      "Ġà¤ħà¤ľà¤¬": 6010,
      "Ġà¤µà¤¯": 6011,
      "à¤¶à¤Ł": 6012,
      "Ġà¤Ĺà¤«": 6013,
      "Ġà¤Ĺà¥ľ": 6014,
      "Ġà¤Ĩà¤£à¤µ": 6015,
      "Ġà¤ıà¤Ĩà¤Īà¤Ĩà¤°": 6016,
      "Ġà¤«à¤²à¤¤": 6017,
      "Ġà¤«à¤²à¤ķ": 6018,
      "à¤īà¤ľà¤°": 6019,
      "Ġà¤ħà¤¨à¤¬à¤¨": 6020,
      "Ġà¤¡à¤Ĺ": 6021,
      "à¤ħà¤¥à¤µ": 6022,
      "à¤ľà¤¨à¤¹": 6023,
      "Ġ204": 6024,
      "Ġà¤Ľà¤¤à¤°à¤ª": 6025,
      "à¤¨à¤®à¤¸": 6026,
      "Ġà¤ħà¤²à¤®": 6027,
      "Ġà¤ľà¤¬à¤¤à¤ķ": 6028,
      "à¤¤à¤¨à¤§": 6029,
      "à¤ķà¤²à¤µ": 6030,
      "Ġà¤ħà¤¸à¤Ĺà¤°": 6031,
      "Ġà¤Īà¤¸à¤µ": 6032,
      "Ġà¤Īà¤¡à¤¬": 6033,
      "à¤¹à¤¨à¤µ": 6034,
      "à¤¡à¤²à¤°": 6035,
      "à¥Ľà¤¬": 6036,
      "Ġà¤ıà¤¨à¤ıà¤«": 6037,
      "à¤ľà¤¯à¤¶": 6038,
      "Ġ152": 6039,
      "ĠSec": 6040,
      "Ġ162": 6041,
      "à¤¾?\"\"\"": 6042,
      "ĠAM": 6043,
      "ĠAus": 6044,
      "ĠClass": 6045,
      "ĠRev": 6046,
      "à¤ķà¤ªà¤¡": 6047,
      "Ġ179": 6048,
      "à¤ħà¤¬à¤¤à¤ķ": 6049,
      "à¤ĳà¤ª": 6050,
      "Ġà¤ħà¤°à¤¬à¤ªà¤¤": 6051,
      "Ġà¤ķà¤łà¤ª": 6052,
      "Ġ311": 6053,
      "Ġ272": 6054,
      "chit": 6055,
      "ĠKh": 6056,
      "adha": 6057,
      "ĠWhatsApp": 6058,
      "ump": 6059,
      "Ġà¤Ńà¤Ĺà¤µà¤¤": 6060,
      "ious": 6061,
      "acebook": 6062,
      "ashtra": 6063,
      "ption": 6064,
      "aharashtra": 6065,
      "1000": 6066,
      "CD": 6067,
      "Happy": 6068,
      "VD": 6069,
      "bi": 6070,
      "ton": 6071,
      "Ð°": 6072,
      "Ġas": 6073,
      "Ġà¤ķà¤¢": 6074,
      "à¤¤à¤µà¤°": 6075,
      "à¤¤à¤Ńà¤°": 6076,
      "à¤¯à¤ļà¤ķ": 6077,
      "à¤¸à¤Łà¤°": 6078,
      "à¤¸à¤Łà¤¨": 6079,
      "à¤²à¤®à¤¨": 6080,
      "à¤²à¤®à¤°": 6081,
      "Ġà¤¸à¤°à¤µ": 6082,
      "à¤®à¤¬à¤²": 6083,
      "à¤ªà¤¤à¤°à¤¸": 6084,
      "Ġà¤¦à¤¨": 6085,
      "à¥Ĥ(": 6086,
      "à¤¡à¤¹à¤°": 6087,
      "à¤¡à¤¬à¤²": 6088,
      "Ġà¤ķà¤°à¤®à¤¬": 6089,
      "à¤·à¤§à¤°": 6090,
      "Ġà¤Ĩà¤ĩà¤¶": 6091,
      "Ġà¤ıà¤¤à¤°": 6092,
      "à¤£à¤°": 6093,
      "à¥Į,": 6094,
      "à¤īà¤¬": 6095,
      "à¤īà¤£": 6096,
      "Ġà¤Łà¤ļà¤¸": 6097,
      "Ġ299": 6098,
      "Ġà¤ħà¤¨à¤°": 6099,
      "Ġà¤¡à¤²": 6100,
      "à¤ħà¤µà¤¸": 6101,
      "à¤ľà¤¨à¤¶": 6102,
      "à¤°à¤®à¤ķ": 6103,
      "à¥Ī.âĢĻ": 6104,
      "\"\".": 6105,
      "Ġ205": 6106,
      "à¤Ĩà¤Īà¤¯": 6107,
      "à¤ĺà¤¡": 6108,
      "à¤ĺà¤Łà¤ķ": 6109,
      "à¥ľà¤Ľ": 6110,
      "Ġà¤ĩà¤¨à¤¡": 6111,
      "Ġ430": 6112,
      "Ġà¤¸à¤°à¤¹à¤¦": 6113,
      "Ġà¤ľà¤²à¤Ĺ": 6114,
      "Ġà¤ľà¤²à¤®à¤Ĺ": 6115,
      "Ġà¤¶à¤°à¤ľ": 6116,
      "Ġ730": 6117,
      "à¤ıà¤¨à¤Ī": 6118,
      "à¤ıà¤¨à¤ıà¤¸à¤¸": 6119,
      "à¤²à¤ķà¤®": 6120,
      "à¤ķà¤¡à¤ª": 6121,
      "à¥Ī?\"": 6122,
      "Ġ159": 6123,
      "ane": 6124,
      "à¥Ģà¤Ĥà¥¤\"": 6125,
      "Ġ189": 6126,
      "à¤ĩà¤¸à¤²à¤²à¤ı": 6127,
      "ĠPre": 6128,
      "ĠAustralia": 6129,
      "ĠRail": 6130,
      "à¤ķà¤ªà¤Ł": 6131,
      "Ġà¤ıà¤«à¤ıà¤®à¤¸": 6132,
      "ĠNIA": 6133,
      "ĠNEET": 6134,
      "à¥ŀà¤°à¤®": 6135,
      "Ġ222": 6136,
      "à¤°à¤Ĺà¤®à¤¨": 6137,
      "Ġà¤ıà¤ļà¤ıà¤ıà¤²": 6138,
      "dies": 6139,
      "Ġà¤ªà¤²à¤µà¤²": 6140,
      "ĠTe": 6141,
      "Ġà¤°à¤¬à¤¡": 6142,
      "ĠGov": 6143,
      "ĠDi": 6144,
      "Ġ279": 6145,
      "à¥Ļà¤¤": 6146,
      "rav": 6147,
      "ull": 6148,
      "Ġ802": 6149,
      "Ġ4500": 6150,
      "Ġà¥©à¥«": 6151,
      "à¥ĭ?\"\"\"": 6152,
      "umber": 6153,
      "akistan": 6154,
      "à¤Ĩà¤°à¤Ĩà¤Īà¤ıà¤²": 6155,
      "Ġà¤Ĩà¤īà¤Łà¤°": 6156,
      "ound": 6157,
      "predict": 6158,
      "Ġenergy": 6159,
      "arnat": 6160,
      "ĠFirstpost": 6161,
      "irthday": 6162,
      "chitect": 6163,
      "360": 6164,
      "850": 6165,
      "LTE": 6166,
      "Moto": 6167,
      "RR": 6168,
      "cil": 6169,
      "craft": 6170,
      "dition": 6171,
      "les": 6172,
      "my": 6173,
      "mir": 6174,
      "ox": 6175,
      "phone": 6176,
      "rd": 6177,
      "test": 6178,
      "ule": 6179,
      "vi": 6180,
      "à¯": 6181,
      "à¶": 6182,
      "Ġal": 6183,
      "ĠGB": 6184,
      "à¤İ": 6185,
      "à¤¾\\\\": 6186,
      "à¤¨à¤Ĺà¤¢": 6187,
      "à¤¤à¤ľà¤¨": 6188,
      "à¤¤à¤¹à¤¤": 6189,
      "à¤ķà¤¦à¤²": 6190,
      "à¤¯à¥Ľ": 6191,
      "Ġà¤®à¥ļ": 6192,
      "à¤ªà¤Ĺ": 6193,
      "à¤ªà¤Łà¤ķ": 6194,
      "à¤ľà¤Ī": 6195,
      "à¤ľà¤¯à¤²à¤²": 6196,
      "Ġà¤ľà¤ľà¤ª": 6197,
      "à¤ıà¤¥à¤²": 6198,
      "à¤§à¤ªà¤¤": 6199,
      "à¤·à¤¨": 6200,
      "Ġà¤¤à¤¹à¤ķ": 6201,
      "Ġà¤Ĩà¤²à¤°": 6202,
      "Ġà¤Ĩà¤ĩà¤¸à¤²": 6203,
      "Ġà¤ªà¤°à¤ļà¤®": 6204,
      "Ġà¤ıà¤Ĺà¤°": 6205,
      "Ġà¤¶à¤®à¤¨": 6206,
      "Ġà¤¯à¤°à¤¦à¤¨": 6207,
      "Ġà¤ļà¤¤à¤°": 6208,
      "à¤¾à¤Ĥ.": 6209,
      "Ġà¤ĸà¤¤à¤¨": 6210,
      "Ġà¤«à¤ĸà¤°": 6211,
      "à¤¾à¥¤âĢĿ": 6212,
      "à¤ĩà¤¸à¤¬": 6213,
      "à¤ĵà¤ıà¤²": 6214,
      "à¤¯à¤®à¤ķ": 6215,
      "Ġà¤Ĳà¤ľ": 6216,
      "à¤Ĩà¤Īà¤ĵà¤ı": 6217,
      "Ġà¤Ĩà¤¯à¤²": 6218,
      "Ġà¤ķà¤®à¥Ľ": 6219,
      "à¤ĺà¤µà¤¨": 6220,
      "Ġà¤¸à¤¹à¤ª": 6221,
      "Ġ340": 6222,
      "Ġà¤¸à¤°à¤Ĺà¤°": 6223,
      "Ġà¤¬à¤²à¤ª": 6224,
      "Ġà¤Ĩà¤Īà¤ıà¤®à¤¡": 6225,
      "à¤²à¤¬à¤¤": 6226,
      "Ġ660": 6227,
      "à¥Ģ)à¥¤": 6228,
      "Ġà¤Ŀà¤Ł": 6229,
      "Ġà¤Ŀà¥ľà¤ª": 6230,
      "Ġ194": 6231,
      "Ġ1908": 6232,
      "à¤ıà¤¨à¤Ĩà¤Īà¤¸": 6233,
      "Ġà¤ıà¤¨à¤Ī": 6234,
      "Ġà¤ıà¤¨à¤Ĩà¤°": 6235,
      "Ġ9000": 6236,
      "Ġà¤°à¤ķà¤¬": 6237,
      "Ġ157": 6238,
      "ons": 6239,
      "eric": 6240,
      "Ġà¤ħà¤¹à¤®à¤¦à¤¨à¤Ĺà¤°": 6241,
      "à¥ĭà¥¤\"": 6242,
      "à¤ıà¤ļà¤Ī": 6243,
      "à¤Ĺà¤®à¤°à¤®à¤°": 6244,
      "Ġà¤ħà¤ľà¤®à¤²": 6245,
      "Ġ306": 6246,
      "ĠAf": 6247,
      "ĠAcc": 6248,
      "à¥ĺà¤¦": 6249,
      "Ġ10000": 6250,
      "Ġà¤ķà¤Łà¤µ": 6251,
      "Ġ215": 6252,
      "Ġ228": 6253,
      "Ġ234": 6254,
      "Ġ239": 6255,
      "Ġ263": 6256,
      "ĠDiesel": 6257,
      "Ġà¤¶à¤¹à¤¬": 6258,
      "Ġà¤Ĺà¤µà¤Ī": 6259,
      "eld": 6260,
      "otor": 6261,
      "à¤ıà¤¸à¤Īà¤¬": 6262,
      "andhi": 6263,
      "Ġpost": 6264,
      "Ġ371": 6265,
      "ape": 6266,
      "Ġ1967": 6267,
      "abad": 6268,
      "ews": 6269,
      "harat": 6270,
      "odel": 6271,
      "artment": 6272,
      "Ġà¤¦à¤¹à¤ķà¤¤": 6273,
      "umar": 6274,
      "ograph": 6275,
      "eck": 6276,
      "à¤Īà¤ıà¤¸à¤ıà¤²": 6277,
      "Ġà¤īà¤§à¤®à¤ª": 6278,
      "Ġà¤¯à¤¶à¤ª": 6279,
      "VIDEO": 6280,
      "Ġres": 6281,
      "Ġà¤Ĩà¤īà¤Łà¤«": 6282,
      "ATE": 6283,
      "Ġà¤·à¤¡à¤¯": 6284,
      "à¤ľà¤¯à¤¨à¤Ĺà¤°": 6285,
      "à¤ıà¤¨à¤ıà¤ļà¤ıà¤Ĩà¤Ī": 6286,
      "Ġà¤¤à¤¹à¤²à¤ķ": 6287,
      "ĠUniversity": 6288,
      "Ġà¤Ĩà¥Ľà¤®": 6289,
      "ĠOneindia": 6290,
      "Ġlevel": 6291,
      "ĠSony": 6292,
      "ĠRecruitment": 6293,
      "arnataka": 6294,
      "()": 6295,
      "299": 6296,
      "550": 6297,
      "AH": 6298,
      "Amazon": 6299,
      "CL": 6300,
      "Man": 6301,
      "PI": 6302,
      "RL": 6303,
      "action": 6304,
      "dà¤¤à¤°": 6305,
      "mp": 6306,
      "oint": 6307,
      "rat": 6308,
      "ti": 6309,
      "uaw": 6310,
      "ward": 6311,
      "zo": 6312,
      "¯à¥¦": 6313,
      "Ã©": 6314,
      "ÙĬ": 6315,
      "à¥ĭ\"\"": 6316,
      "à¤ķà¤¸à¤¨": 6317,
      "à¤ķà¤ļà¤°": 6318,
      "à¤ķà¤¬à¤¸": 6319,
      "à¤®à¤®à¤¯": 6320,
      "à¤ªà¤ķà¤¤": 6321,
      "à¤Łà¤°à¤¤": 6322,
      "à¤ľà¤Ł": 6323,
      "Ġà¤¬à¤°à¤¦": 6324,
      "Ġà¤µà¤¤à¤¨": 6325,
      "Ġà¤µà¥ĺ": 6326,
      "Ġà¤°à¤ļà¤¯": 6327,
      "à¤¡à¤°à¤¶": 6328,
      "Ġà¤¤à¤ªà¤¸": 6329,
      "Ġà¤Ĩà¤¥": 6330,
      "Ġà¤Ĩà¤ĩà¤ķ": 6331,
      "Ġà¤Ńà¤Łà¤¨": 6332,
      "Ġà¤Ńà¤¨à¤ķ": 6333,
      "à¤¥à¤ķà¤¤": 6334,
      "Ġà¤ıà¤Łà¤²": 6335,
      "à¤ĸà¤®à¤§": 6336,
      "Ġà¤ĸà¤«": 6337,
      "à¤Ĩà¤¡à¤µ": 6338,
      "Ġà¤Łà¤°à¤¬": 6339,
      "Ġà¤ħà¤¨à¤µà¤°à¤¤": 6340,
      "à¤ĵà¤ıà¤¨à¤ľ": 6341,
      "à¤¯à¤°à¤¨": 6342,
      "à¤¯à¤°à¤¹": 6343,
      "à¤ªà¤°à¤²": 6344,
      "à¤¹à¤®à¤¸": 6345,
      "Ġà¤Ĳà¤ªà¤²": 6346,
      "à¤¬à¤°à¤²": 6347,
      "Ġà¤¬à¤¢à¤¨": 6348,
      "à¤ıà¤®à¤µ": 6349,
      "à¤¤à¤¨à¤Ń": 6350,
      "à¤ķà¤²à¤°": 6351,
      "à¥Ģ.)": 6352,
      "Ġà¤ħà¤¸à¤¹à¤ľ": 6353,
      "Ġ1939": 6354,
      "Ġ1942": 6355,
      "Ġ7000": 6356,
      "à¤ıà¤¨à¤ıà¤®à¤¸": 6357,
      "Ġà¤¬à¤°à¤ĸ": 6358,
      "à¤ıà¤«à¤Ĩà¤°": 6359,
      "à¤¡à¤°à¤Ł": 6360,
      "Ġà¤¸à¤¤à¤²": 6361,
      "Ġà¤®à¤¤à¤ªà¤¤": 6362,
      "199": 6363,
      "1997": 6364,
      "1992": 6365,
      "Ġà¤¸à¤²à¤µ": 6366,
      "Ġà¤ħà¤Ĺà¤°à¤¤à¤²": 6367,
      "Ġà¤ļà¤°à¤ĸ": 6368,
      "Ġà¤¹à¤ľà¤ķ": 6369,
      "à¤¼à¥ĭà¥¤": 6370,
      "Ġ186": 6371,
      "ĠAN": 6372,
      "ĠCN": 6373,
      "ora": 6374,
      "ĠRate": 6375,
      "Ġà¤¹à¤Łà¤¤": 6376,
      "à¤¼à¥ĩà¤Ĥ]": 6377,
      "Ġ247": 6378,
      "Ġ173": 6379,
      "icy": 6380,
      "icro": 6381,
      "ĠIs": 6382,
      "à¤²à¤®à¤ª": 6383,
      "ĠMed": 6384,
      "ĠMinister": 6385,
      "ĠNZ": 6386,
      "Ġ235": 6387,
      "Ġà¤ľà¤¯à¤µà¤°": 6388,
      "Ġsc": 6389,
      "ĠHonor": 6390,
      "Ġinfo": 6391,
      "Ġcb": 6392,
      "Ġco": 6393,
      "ings": 6394,
      "rail": 6395,
      "une": 6396,
      "à¤ħà¤ķà¤¸à¤°": 6397,
      "ĠWi": 6398,
      "Ġà¥ŀà¥Ľà¤²": 6399,
      "ose": 6400,
      "à¤Ĩà¤Īà¤ıà¤ıà¤«": 6401,
      "Ġà¥©à¥¨": 6402,
      "Ġà¥©à¥¬": 6403,
      "à¤ħà¤«à¤¸": 6404,
      "à¤Ĩà¤Īà¤ıà¤®à¤ıà¤«": 6405,
      "Ġà¤Ĩà¤Īà¤ıà¤ıà¤«": 6406,
      "nect": 6407,
      "ateg": 6408,
      "à¤ħà¤µà¤¸à¤°": 6409,
      "ocial": 6410,
      "hatt": 6411,
      "à¤«à¤¡à¤£à¤µ": 6412,
      "à¥§à¥¯à¥®": 6413,
      "à¥įà¤¾à¤¾": 6414,
      "ourt": 6415,
      "ĠEng": 6416,
      "Ġà¤Ĩà¤ĩà¤¡à¤²": 6417,
      "BSNL": 6418,
      "ĠScore": 6419,
      "ĠReg": 6420,
      "ĠPlan": 6421,
      "ĠMovie": 6422,
      "ĠVoLTE": 6423,
      "adhaar": 6424,
      "uawei": 6425,
      ")\"\"": 6426,
      "110": 6427,
      "370": 6428,
      "KR": 6429,
      "air": 6430,
      "bsp": 6431,
      "frastructure": 6432,
      "hy": 6433,
      "ient": 6434,
      "ks": 6435,
      "ous": 6436,
      "ook": 6437,
      "ress": 6438,
      "uz": 6439,
      "àª": 6440,
      "Ġit": 6441,
      "à¥¥": 6442,
      "à¥ĩà¤ģ": 6443,
      "à¥Ģà¤¼": 6444,
      "à¤Ĥà¥Īà¥¤": 6445,
      "à¤Ĥ),": 6446,
      "à¤¨à¤Ĺà¤¤": 6447,
      "à¤ķà¤¶à¤¨": 6448,
      "à¤ķà¤«à¤°": 6449,
      "à¤ªà¤Łà¤²": 6450,
      "Ġà¤¬à¤¸à¤¤": 6451,
      "Ġà¤ľà¤¯à¤¤": 6452,
      "Ġà¤ľà¤¸à¤¬": 6453,
      "Ġà¤ħà¤¸à¤²à¤®": 6454,
      "à¤ıà¤ıà¤Ĩà¤Ī": 6455,
      "à¤ıà¤ıà¤¸à¤Ĩà¤Ī": 6456,
      "à¤¡à¤¬à¤°": 6457,
      "à¤§à¤ļ": 6458,
      "Ġà¤īà¤¬à¤²": 6459,
      "Ġà¤ĩà¤¯à¤°": 6460,
      "à¤ĸà¤®à¤°": 6461,
      "Ġà¤ļà¤ķà¤¨": 6462,
      "à¤«à¤°à¤¹": 6463,
      "à¥Į-": 6464,
      "à¥Į.": 6465,
      "Ġà¤ıà¤ķà¤®à¤¤": 6466,
      "à¤īà¤ł": 6467,
      "à¤Ľà¤Ł": 6468,
      "à¥Īà¤Ĥà¥¤âĢĿ": 6469,
      "Ġà¤¡à¤®": 6470,
      "Ġà¤¡à¤Ĺà¤®à¤Ĺ": 6471,
      "à¤īà¤¨à¤ªà¤°": 6472,
      "à¤Łà¤°à¤¡": 6473,
      "Ġà¤īà¤ªà¤¶": 6474,
      "Ġ2050": 6475,
      "Ġà¤§à¤°à¤®": 6476,
      "à¤¯à¤°à¤µ": 6477,
      "Ġà¤ªà¤¹à¤²à¤Ĺ": 6478,
      "à¤¹à¤®à¤®": 6479,
      "Ġà¤Ĩà¤ªà¤¬": 6480,
      "à¤¨à¤®à¤ķ": 6481,
      "Ġà¤Ĩà¤°à¤µ": 6482,
      "à¤¹à¤¤à¤Ĺ": 6483,
      "Ġ399": 6484,
      "Ġ390": 6485,
      "à¤°à¤§à¤¨": 6486,
      "Ġà¤ĵà¤¢": 6487,
      "Ġà¤ĵà¤¸à¤µ": 6488,
      "à¤ķà¤²à¤ķà¤¤": 6489,
      "Ġà¤ļà¤²à¤ļ": 6490,
      "Ġà¤®à¤¨à¤ªà¤¸": 6491,
      "Ġà¤łà¤£": 6492,
      "Ġà¤łà¤¹à¤°à¤¤": 6493,
      "à¤ıà¤²à¤ľ": 6494,
      "à¤Ĳà¤¬": 6495,
      "Ġ8000": 6496,
      "Ġà¤¸à¤¤à¤¬": 6497,
      "à¥Ľà¤®": 6498,
      "Ġ999": 6499,
      "1998": 6500,
      "1956": 6501,
      "Ġà¤¨à¤µà¤ª": 6502,
      "ines": 6503,
      "ination": 6504,
      "Ġà¤ıà¤®à¤ıà¤²à¤¸": 6505,
      "Ġà¤ľà¤Ĺà¤®à¤Ĺ": 6506,
      "Ġà¤īà¤²à¤Łà¤«": 6507,
      "ero": 6508,
      "ering": 6509,
      "Ġ146": 6510,
      "Ġ1400": 6511,
      "atus": 6512,
      "Ġ184": 6513,
      "Ġ185": 6514,
      "Ġà¤ıà¤²à¤ıà¤²à¤¬": 6515,
      "ĠSe": 6516,
      "à¤ıà¤ļà¤ıà¤®": 6517,
      "Ġà¤§à¤¨à¤¬": 6518,
      "ĠPower": 6519,
      "Ġ509": 6520,
      "Ġà¤¸à¤¡à¥ĺ": 6521,
      "Ġ244": 6522,
      "Ġ171": 6523,
      "Ġ178": 6524,
      "ĠID": 6525,
      "Ġà¤ıà¤«à¤¬": 6526,
      "Ġ217": 6527,
      "à¤¦à¤²à¤ª": 6528,
      "à¤¨à¤Ĺà¤°à¤ª": 6529,
      "Ġssc": 6530,
      "ĠDeath": 6531,
      "reen": 6532,
      "Ġ326": 6533,
      "ĠED": 6534,
      "ade": 6535,
      "Ġmore": 6536,
      "ĠWI": 6537,
      "Ġà¤Ľà¤łà¤µ": 6538,
      "\"\"\"\",": 6539,
      "odaf": 6540,
      "riend": 6541,
      "Ġwhat": 6542,
      "oco": 6543,
      "à¥Īà¤ĥ-": 6544,
      "ĠStar": 6545,
      "ublic": 6546,
      "à¤Ĩà¤Īà¤ıà¤«à¤ıà¤«à¤Ĩà¤Ī": 6547,
      "ohn": 6548,
      "IVE": 6549,
      "ÂłĠÂłĠÂłĠÂłĠ": 6550,
      "ĠFinal": 6551,
      "Ġà¥§à¥¯à¥§à¥ª": 6552,
      "novation": 6553,
      "NIAC": 6554,
      "arbon": 6555,
      "Ġà¤²à¤Łà¤ķà¤¤": 6556,
      "ducation": 6557,
      "chitecture": 6558,
      "odafone": 6559,
      "NAM": 6560,
      "NCR": 6561,
      "OO": 6562,
      "SI": 6563,
      "Variable": 6564,
      "dà¤¸": 6565,
      "hD": 6566,
      "ms": 6567,
      "pol": 6568,
      "weather": 6569,
      "Ø¨": 6570,
      "Ġec": 6571,
      "Ġapp": 6572,
      "à¤¾à¥ĭ": 6573,
      "à¥ĩâĢĻâĢĻ": 6574,
      "à¥į)": 6575,
      "Ġà¤ķà¤ĩà¤¯": 6576,
      "à¤¤à¤¡": 6577,
      "à¤¤à¤ļà¤°": 6578,
      "à¤¯à¤¸à¤¨": 6579,
      "à¤¸à¤¬à¤²": 6580,
      "à¤¸à¤«à¤²": 6581,
      "à¤¸à¤Īà¤¦": 6582,
      "Ġà¤¸à¤°à¤£": 6583,
      "Ġà¤¸à¤¨à¤ķ": 6584,
      "Ġà¤¸à¤¦à¤ķ": 6585,
      "à¤®à¤¢": 6586,
      "à¤¹à¤Ń": 6587,
      "à¤¹à¤µà¤°": 6588,
      "Ġà¤®à¤Łà¤°": 6589,
      "Ġà¤®à¥ĺà¤¸": 6590,
      "à¤µà¤£à¤ķ": 6591,
      "à¤ªà¥Ŀ": 6592,
      "Ġà¤¨à¤¨à¤ķ": 6593,
      "à¤Łà¤ĸ": 6594,
      "Ġà¤ľà¤¯à¤¨": 6595,
      "à¤ıà¤¥": 6596,
      "à¤ıà¤Ĩà¤Īà¤Ĩà¤°": 6597,
      "Ġà¤²à¤ĸà¤¨": 6598,
      "à¤¡à¥ļ": 6599,
      "Ġà¤¤à¤¦à¤°": 6600,
      "Ġà¤īà¤Ĺà¤¤": 6601,
      "Ġà¤Ĺà¤ª": 6602,
      "Ġà¤Ĩà¤ĩà¤¨": 6603,
      "Ġà¤Ĩà¤¬à¤¦": 6604,
      "Ġà¤Ĩà¤ĩà¤¯": 6605,
      "Ġà¤Ńà¤Ī": 6606,
      "à¤Īà¤ķà¤®": 6607,
      "Ġà¤ıà¤ªà¤²": 6608,
      "Ġà¤ĩà¤°à¤¶": 6609,
      "Ġà¤ļà¤ķà¤®": 6610,
      "Ġà¤¥à¤²à¤¸": 6611,
      "Ġà¤ĸà¤¶": 6612,
      "âĢįà¤¿à¤Ĥ": 6613,
      "Ġà¤¸à¤®à¤µà¤°": 6614,
      "à¤¾,âĢľ": 6615,
      "à¤īà¤§": 6616,
      "à¤īà¤ªà¤¸": 6617,
      "Ġà¤Łà¤¨à¤²": 6618,
      "à¤łà¤¯à¤ķ": 6619,
      "à¤¤à¤°à¤ľ": 6620,
      "Ġà¤¹à¤®à¤ľ": 6621,
      "à¤ħà¤¸à¤¦": 6622,
      "à¤ħà¤²à¤¬à¤¤": 6623,
      "à¤°à¤®à¤¬à¤¦": 6624,
      "à¤¸à¤°à¤²": 6625,
      "Ġà¤īà¤ªà¤ķà¤ª": 6626,
      "à¤®à¤²à¤¯": 6627,
      "Ġ208": 6628,
      "à¤Ŀà¤²": 6629,
      "à¤ªà¤°à¤«": 6630,
      "Ġà¤Ĩà¤°à¤ıà¤¨à¤ı": 6631,
      "Ġà¤Ĳà¤¡à¤®": 6632,
      "Ġà¤Ĩà¤¯à¤¶": 6633,
      "à¤¹à¤¤à¤®": 6634,
      "à¤®à¤¨à¤µ": 6635,
      "à¤µà¤¨à¤Ĺà¤°": 6636,
      "à¤¦à¤¨à¤ķà¤°": 6637,
      "Ġà¤ħà¤°à¤¹à¤°": 6638,
      "Ġà¤Ĩà¤Īà¤ıà¤¨à¤ı": 6639,
      "Ġà¤Ĩà¤Īà¤ĵà¤ı": 6640,
      "Ġà¤Ĩà¤Ĺà¤®": 6641,
      "Ġ665": 6642,
      "à¤¹à¤¨à¤ª": 6643,
      "Ġà¤łà¤¨": 6644,
      "Ġà¤Ŀà¤ªà¤ķ": 6645,
      "Ġà¤Ŀà¤²à¤ķà¤¤": 6646,
      "Ġ192": 6647,
      "Ġ1930": 6648,
      "à¤ıà¤²à¤Ĩà¤Īà¤¸": 6649,
      "à¤ıà¤²à¤ĵà¤¸": 6650,
      "Ġà¤ĩà¤²à¤ľ": 6651,
      "Ġà¤ħà¤¤à¤ıà¤µ": 6652,
      "à¤Ĳà¤²": 6653,
      "à¤¡à¤°à¤Ĺ": 6654,
      "Ġ::": 6655,
      "info": 6656,
      "à¤ķà¤Łà¤Ĺ": 6657,
      "online": 6658,
      "att": 6659,
      "Ġà¤ıà¤²à¤ı": 6660,
      "esident": 6661,
      "à¤¾?\"": 6662,
      "à¤ĩà¤¡à¤¨": 6663,
      "orp": 6664,
      "ices": 6665,
      "Ġ218": 6666,
      "Ġà¤¸à¤¦à¤Ń": 6667,
      "Ġ223": 6668,
      "105": 6669,
      "Ġ406": 6670,
      "amil": 6671,
      "à¥ĩ?\"\"": 6672,
      "ĠDes": 6673,
      "Ġ298": 6674,
      "à¤¤à¤²à¤¹à¤°": 6675,
      "Ġà¤ħà¤¡à¤µ": 6676,
      "ĠEMI": 6677,
      "à¤ĩà¤¨à¤ķà¤®": 6678,
      "Ġà¤¶à¤ªà¤¥à¤ªà¤¤": 6679,
      "iver": 6680,
      "ĠInter": 6681,
      "Ġper": 6682,
      "Ġà¤ªà¥Ŀà¤¤": 6683,
      "à¤ĩà¤«à¤Ł": 6684,
      "Ġname": 6685,
      "Ġà¥©à¥Ń": 6686,
      "emb": 6687,
      "à¤Ĩà¤Īà¤ıà¤¸à¤ı": 6688,
      "upsc": 6689,
      "agnet": 6690,
      "Ġà¤Ĩà¤ľà¤®à¤Ĺà¤¢": 6691,
      "IDAI": 6692,
      "âĢĶâĢĶ": 6693,
      "à¤¿à¤ĥ%": 6694,
      "Ġà¤²à¤²à¤ı": 6695,
      "Ġà¤ļà¤°à¤®à¤°": 6696,
      "Ġà¤Ĺà¤ľà¤Ł": 6697,
      "à¤Ĩà¤Īà¤ıà¤«à¤ıà¤¸": 6698,
      "Ġà¤Ĩà¤ĩà¤ķà¤¨": 6699,
      "ika": 6700,
      "ĠCommission": 6701,
      "Ġà¤ħà¤ªà¤¤à¤Ł": 6702,
      ".,": 6703,
      "BG": 6704,
      "Budget": 6705,
      "En": 6706,
      "JI": 6707,
      "MW": 6708,
      "RA": 6709,
      "VP": 6710,
      "WHO": 6711,
      "ces": 6712,
      "cent": 6713,
      "ih": 6714,
      "pet": 6715,
      "ts": 6716,
      "variable": 6717,
      "wit": 6718,
      "ÙĪ": 6719,
      "Ġart": 6720,
      "à¤¸à¤¶à¤¸": 6721,
      "à¤²à¤µà¤°": 6722,
      "Ġà¤¹à¤°à¤µ": 6723,
      "Ġà¤®à¤ª": 6724,
      "à¤¦à¤ķà¤Ł": 6725,
      "à¤Ĺà¤Ĺ": 6726,
      "à¤ľà¤ĸ": 6727,
      "à¤ľà¤¯à¤¦": 6728,
      "Ġà¤ľà¥Ľ": 6729,
      "à¥ĭà¤ĤâĢĻâĢĻ": 6730,
      "Ġà¤¦à¤¹à¤¨": 6731,
      "à¤ıà¤ıà¤¨à¤Ĩà¤Ī": 6732,
      "à¤¬à¤°à¤¸": 6733,
      "à¤§à¤¹": 6734,
      "à¤·à¤¬": 6735,
      "Ġà¤Ĩà¤ķà¤¡": 6736,
      "Ġà¤Ĩà¤ĵà¤Ĺ": 6737,
      "Ġà¤Ńà¤¨": 6738,
      "à¤¼à¥ĩà¤Ĥ,": 6739,
      "à¤¼à¥ĭ,": 6740,
      "à¤Īà¤ıà¤ķ": 6741,
      "Ġà¤ıà¤¥à¤¨": 6742,
      "Ġà¤ıà¤°à¤°": 6743,
      "à¤Ńà¤ļ": 6744,
      "à¤Ńà¤°à¤£": 6745,
      "à¤Ńà¤®à¤¨": 6746,
      "Ġà¤¯à¤¶à¤°": 6747,
      "à¤«à¤¸": 6748,
      "Ġà¤«à¤Ĺ": 6749,
      "Ġà¤«à¤¸à¤¹": 6750,
      "à¤¾à¥¤âĢĻ": 6751,
      "à¤Ĩà¤Ń": 6752,
      "Ġà¤¸à¤®à¤°à¤¸à¤¤": 6753,
      "à¤¿à¤Ĥ.": 6754,
      "Ġà¤Łà¤¹à¤¨": 6755,
      "Ġà¤¡à¤Łà¤ķà¤°": 6756,
      "à¤°à¤®à¤¯": 6757,
      "Ġà¤Ĳà¤¹à¤¤": 6758,
      "Ġà¤ķà¤®à¤¤à¤°": 6759,
      "Ġ380": 6760,
      "à¤¨à¤ķà¤²": 6761,
      "Ġà¤ĩà¤¨à¤¬": 6762,
      "Ġà¤Ĩà¤Ĺà¤µ": 6763,
      "Ġà¤ħà¤ªà¤¶à¤¬": 6764,
      "à¤ıà¤ķà¤®": 6765,
      "Ġà¤¸à¤ļà¤¦": 6766,
      "Ġ1935": 6767,
      "Ġ1945": 6768,
      "Ġ710": 6769,
      "à¤Łà¤ķà¤ķ": 6770,
      "à¤ıà¤²à¤Ĩà¤Ī": 6771,
      "Ġà¤ĳà¤«à¤¸": 6772,
      "Ġ845": 6773,
      "à¤¤à¤®à¤¬": 6774,
      "Ġà¤¶à¤¹à¤°à¤ªà¤¨": 6775,
      "Ġà¤¢à¤²à¤¨": 6776,
      "Ġà¤¨à¤Īà¤®": 6777,
      "onal": 6778,
      "Ġà¤ªà¤¢à¤¨": 6779,
      "arat": 6780,
      "Ġ252": 6781,
      "Ġ257": 6782,
      "ĠSE": 6783,
      "ĠSP": 6784,
      "Ġ163": 6785,
      "ĠAMO": 6786,
      "ĠAIIMS": 6787,
      "orth": 6788,
      "ĠReno": 6789,
      "à¥Īà¤Ĥ?\"": 6790,
      "ication": 6791,
      "Ġà¥§à¥§à¥": 6792,
      "Ġà¥Ľà¤ķ": 6793,
      "à¤ĳà¤¨à¤°": 6794,
      "Ġ213": 6795,
      "Ġ214": 6796,
      "à¥ŀà¤ķ": 6797,
      "Ġ282": 6798,
      "ama": 6799,
      "Ġà¤¤à¤¨à¤ĸ": 6800,
      "Ġà¤ªà¤²à¤Łà¤ķà¤°": 6801,
      "ĠTechnology": 6802,
      "Ġ269": 6803,
      "ĠDh": 6804,
      "Ġ275": 6805,
      "omen": 6806,
      "ĠEducation": 6807,
      "over": 6808,
      "aya": 6809,
      "Ġà¤Ĩà¤īà¤Łà¤¡": 6810,
      "à¥ĢâĢĻ,": 6811,
      "ĠWW": 6812,
      "à¤Īà¤ĵà¤µà¤°": 6813,
      "à¤ıà¤Ĩà¤Īà¤¬": 6814,
      "à¤īà¤²à¤Ł": 6815,
      "à¥§à¥Ń": 6816,
      "Ġà¤¬à¤°à¤¸à¤¤": 6817,
      "Inter": 6818,
      "aking": 6819,
      "à¤°à¤ľà¤¨à¤¹": 6820,
      "Ġeff": 6821,
      "mail": 6822,
      "à¤ıà¤®à¤ıà¤ıà¤ļ": 6823,
      "ĠYou": 6824,
      "Ġà¤²à¤¶à¤ķà¤°": 6825,
      "space": 6826,
      "ĠQu": 6827,
      "Ġupsc": 6828,
      "BOSE": 6829,
      "ĠMIUI": 6830,
      "ĠScience": 6831,
      "ĠAMOLED": 6832,
      ".âĢĵ": 6833,
      "450": 6834,
      "CW": 6835,
      "GC": 6836,
      "IF": 6837,
      "MB": 6838,
      "Maharashtra": 6839,
      "SO": 6840,
      "data": 6841,
      "gen": 6842,
      "nbsp": 6843,
      "pm": 6844,
      "red": 6845,
      "results": 6846,
      "sha": 6847,
      "uid": 6848,
      "Ġà¤¾": 6849,
      "à¤¾à¥į": 6850,
      "à¥ĩâĢľ": 6851,
      "à¤¨à¤°à¤¸": 6852,
      "à¤¨à¥ľ": 6853,
      "à¤¨à¤ĵà¤µà¤°": 6854,
      "à¥ĭ\"": 6855,
      "à¥ĭà¥ĩ": 6856,
      "à¤¸à¤²à¤¨": 6857,
      "à¤²à¤ļà¤°": 6858,
      "à¤¹à¤¸à¤¨": 6859,
      "à¥Īà¥į": 6860,
      "à¥ĩà¤Ĥ/": 6861,
      "Ġà¤¨à¤Ł": 6862,
      "Ġà¤ľà¤ª": 6863,
      "Ġà¤ħà¤¯à¤ª": 6864,
      "Ġà¤µà¤¨à¤µ": 6865,
      "Ġà¤²à¤¥": 6866,
      "à¤¡à¤¦": 6867,
      "à¤¡à¤°à¤µ": 6868,
      "Ġà¤īà¤¥à¤ª": 6869,
      "Ġà¤Ĺà¤¬": 6870,
      "Ġà¤Ĩà¤ĩà¤µ": 6871,
      "à¤¼'": 6872,
      "à¤Ńà¤¸": 6873,
      "à¤ĸà¥ľ": 6874,
      "à¤¾à¤Ĥ?": 6875,
      "à¤«à¤²à¤¸": 6876,
      "Ġà¤¥à¤®à¤¨": 6877,
      "à¤ķà¤°à¤¦": 6878,
      "à¤ħà¤¹à¤²": 6879,
      "ĠâĢ¢": 6880,
      "Ġà¤ĺà¥ľ": 6881,
      "à¤°à¤®à¤ª": 6882,
      "\"\"à¥¤\"": 6883,
      "Ġ207": 6884,
      "Ġà¤§à¤µà¤²": 6885,
      "à¤ģ)": 6886,
      "Ġà¤Ĩà¤°à¤Ĩà¤°": 6887,
      "Ġà¤Ĩà¤°à¤Ĩà¤°à¤¬": 6888,
      "à¤Ĩà¤Īà¤ıà¤¨à¤ıà¤ķ": 6889,
      "à¤ĺà¤¬à¤°": 6890,
      "à¤¸à¤®à¤Ĺ": 6891,
      "à¤¾à¤ģà¥¤": 6892,
      "Ġ460": 6893,
      "à¤ķà¤²à¤®": 6894,
      "Ġà¤ħà¤°à¤¹": 6895,
      "Ġà¤Ĩà¤Īà¤¡à¤¬": 6896,
      "à¥Ģ.\"\"\"": 6897,
      "Ġà¤ħà¤¸à¤¹à¤¨": 6898,
      "Ġà¤®à¤¨à¤¶": 6899,
      "Ġà¤®à¤¨à¤Ĺà¤¢": 6900,
      "Ġà¤ªà¤¡à¤¤": 6901,
      "Ġà¤Ŀà¤®": 6902,
      "Ġà¤ıà¤¸à¤Ī": 6903,
      "Ġà¤ıà¤¸à¤ĵà¤ª": 6904,
      "Ġà¤ªà¤¦à¤ļ": 6905,
      "Ġ1931": 6906,
      "Ġ1934": 6907,
      "à¤¾--": 6908,
      "Ġà¤ıà¤¨à¤ıà¤¸à¤ı": 6909,
      "1988": 6910,
      "Ġà¤¨à¤µà¤¯": 6911,
      "Ġà¤¢à¤¹à¤¨": 6912,
      "Ġà¤ıà¤®à¤ıà¤¸à¤¸": 6913,
      "à¤®à¤¦à¤²": 6914,
      "à¤¤à¤µà¤¯": 6915,
      "à¥ĩ)à¥¤": 6916,
      "Ġ158": 6917,
      "ones": 6918,
      "à¥Ģà¤Ĥà¥¤\"\"\"": 6919,
      "Ġ1100": 6920,
      "ĠSmart": 6921,
      "ĠSouth": 6922,
      "à¤¾?\"\"": 6923,
      "Ġ305": 6924,
      "ĠAB": 6925,
      "ĠRCB": 6926,
      "Ġà¤¹à¤Łà¤µ": 6927,
      "Ġ249": 6928,
      "à¤°à¤®à¤£à¤ķ": 6929,
      "ĠBirthday": 6930,
      "à¤ħà¤ªà¤®": 6931,
      "Ġà¤¤à¤¯à¤¶": 6932,
      "ĠNDA": 6933,
      "à¥ĩà¤Ĥ.\"": 6934,
      "ited": 6935,
      "ities": 6936,
      "led": 6937,
      "à¤¶à¤°à¤¥": 6938,
      "à¤·à¤°à¤ķà¤°": 6939,
      "Ġ315": 6940,
      "ĠTh": 6941,
      "ĠTr": 6942,
      "Ġsub": 6943,
      "Ġsays": 6944,
      "ĠGandhi": 6945,
      "à¤Łà¤¤à¤¯": 6946,
      "olution": 6947,
      "ĠList": 6948,
      "iron": 6949,
      "irat": 6950,
      "à¤ĭà¤·à¤Ń": 6951,
      "ĠWedding": 6952,
      "Ġvalue": 6953,
      "à¤¯à¤£à¤¸": 6954,
      "à¤ıà¤¨à¤ıà¤¸à¤¡": 6955,
      "Ġtrans": 6956,
      "Ġà¥§à¥¯à¥¨": 6957,
      "hief": 6958,
      "à¤¾à¥ħ.": 6959,
      "à¤ħà¤®à¤°à¤¨": 6960,
      "Ġà¤Ńà¤ľà¤¨à¤¹": 6961,
      "à¤Īà¤ľà¤Ĺà¤¤": 6962,
      "Ġà¤¨à¤°à¤®à¤ª": 6963,
      "imes": 6964,
      "ube": 6965,
      "à¤Ĩà¤Īà¤ıà¤«à¤ıà¤«": 6966,
      "ants": 6967,
      "pdf": 6968,
      "ĠIIT": 6969,
      "ashmir": 6970,
      "Ġà¤¤à¤«à¤¸": 6971,
      "Ġà¥¦à¥¦à¥¦": 6972,
      "ernment": 6973,
      "ĠAirtel": 6974,
      "à¤ľà¤¬à¤²à¤ª": 6975,
      "ĠUSB": 6976,
      "umbai": 6977,
      "\"'": 6978,
      "'%": 6979,
      "230": 6980,
      ":\\\\": 6981,
      "?\"": 6982,
      "AB": 6983,
      "AF": 6984,
      "BN": 6985,
      "EP": 6986,
      "Honor": 6987,
      "IG": 6988,
      "JK": 6989,
      "Nm": 6990,
      "OG": 6991,
      "Prev": 6992,
      "Reliance": 6993,
      "WhatsApp": 6994,
      "cl": 6995,
      "hya": 6996,
      "ier": 6997,
      "ke": 6998,
      "lay": 6999,
      "of": 7000,
      "rand": 7001,
      "wood": 7002,
      "ÃŃ": 7003,
      "Ø¯": 7004,
      "Ġà¥ĩ": 7005,
      "Ġan": 7006,
      "Ġant": 7007,
      "à¤¾à¥Ĥ": 7008,
      "à¤¿?": 7009,
      "à¤¿...": 7010,
      "à¥Ģà¥ĩ": 7011,
      "à¤¤à¤¬à¤°": 7012,
      "Ġà¤¸à¤¶à¤°": 7013,
      "à¤®à¤¬à¤¨": 7014,
      "Ġà¤¹à¥ľà¤ķ": 7015,
      "à¤Ĺà¤ı": 7016,
      "à¤Ĺà¤Ń": 7017,
      "à¤Łà¤ļà¤°": 7018,
      "à¤ľà¤¹à¤°": 7019,
      "à¤ľà¤¸à¤ª": 7020,
      "Ġà¤ľà¤²à¤¯": 7021,
      "Ġà¤ħà¥ľ": 7022,
      "à¥Ĥ/": 7023,
      "à¤§à¤¯": 7024,
      "à¤§à¤°à¤®": 7025,
      "Ġà¤¤à¤¨à¤µ": 7026,
      "Ġà¤Ĩà¤£": 7027,
      "Ġà¤Ĩà¥ľ": 7028,
      "Ġà¤¶à¤°à¤¤": 7029,
      "à¤£à¤¯à¤¨": 7030,
      "Ġà¤ļà¤¯": 7031,
      "Ġà¤ļà¤¹à¤°": 7032,
      "Ġà¤ĸà¤ª": 7033,
      "à¤ķà¤°à¤µ": 7034,
      "Ġà¤Łà¤Ł": 7035,
      "à¤ĵà¤Ĩà¤Ī": 7036,
      "à¤ľà¤¨à¤¨": 7037,
      "à¤°à¤®à¤¤": 7038,
      "à¤Łà¤°à¤¶": 7039,
      "à¥Ī,\"\"": 7040,
      "Ġà¥¤\"": 7041,
      "Ġà¤īà¤ªà¤¸à¤®": 7042,
      "Ġ203": 7043,
      "Ġ209": 7044,
      "Ġà¤Ľà¤ªà¤°": 7045,
      "Ġà¤Ĩà¤°à¤ıà¤²à¤¡": 7046,
      "Ġà¤Ĳà¤°": 7047,
      "à¤ĺà¤¶": 7048,
      "à¤¸à¤®à¤ķ": 7049,
      "Ġà¤ĵà¤ĸà¤²": 7050,
      "à¥Ĥà¤Ĥ:": 7051,
      "Ġ520": 7052,
      "Ġ530": 7053,
      "Ġ536": 7054,
      "Ġà¤¸à¤°à¤¹": 7055,
      "Ġà¤Ĩà¤Īà¤Ĩà¤Īà¤ª": 7056,
      "Ġà¤ħà¤¸à¤°à¤¦": 7057,
      "à¤Ĺà¤²à¤¸": 7058,
      "Ġà¤Īà¤ıà¤¸à¤Ĩà¤Ī": 7059,
      "Ġ640": 7060,
      "Ġà¤ľà¤¨à¤§à¤¨": 7061,
      "Ġà¤®à¤¨à¤Ń": 7062,
      "Ġà¤ħà¤ªà¤¸": 7063,
      "à¤¹à¤¨à¤Ĺà¤°": 7064,
      "à¤ıà¤ķà¤¦à¤®": 7065,
      "Ġà¤Ŀà¤ķà¤Ŀ": 7066,
      "Ġà¤ħà¤ķà¤®à¤²": 7067,
      "Ġ1918": 7068,
      "Ġ850": 7069,
      "Ġà¤¸à¤¤à¤µ": 7070,
      "Ġà¤ıà¤¨à¤ıà¤¬": 7071,
      "Ġà¤ıà¤¨à¤ıà¤¸à¤¯": 7072,
      "Ġà¤ıà¤®à¤ıà¤²": 7073,
      "Ġà¤ľà¤Ĺà¤¬": 7074,
      "Ġà¤ľà¤Ĺà¤¨à¤®": 7075,
      "à¥Ĥà¤ģ)": 7076,
      "Ġà¤ªà¤ķà¤µ": 7077,
      "Ġà¤¬à¤¸à¤µ": 7078,
      "Ġ181": 7079,
      "à¤ľà¤¦à¤¯": 7080,
      "ĠServ": 7081,
      "à¤ıà¤ļà¤Īà¤ıà¤²": 7082,
      "à¤¬à¤¹à¤¸": 7083,
      "ĠPat": 7084,
      "ĠPad": 7085,
      "Ġà¤¤à¤²à¤Ľà¤Ł": 7086,
      "Ġà¤ıà¤¯à¤°à¤¬à¤¸": 7087,
      "à¤²à¤¹à¤µ": 7088,
      "enov": 7089,
      "Ġà¤ıà¤«à¤ıà¤¸à¤ıà¤¸à¤ıà¤Ĩà¤Ī": 7090,
      "ĠMoto": 7091,
      "Ġà¤ķà¤Łà¤ĺà¤°": 7092,
      "ĠNational": 7093,
      "sthis": 7094,
      "109": 7095,
      "ĠTR": 7096,
      "ĠTour": 7097,
      "Ġshar": 7098,
      "ĠDC": 7099,
      "à¥Ļà¤²": 7100,
      "ctor": 7101,
      "Ġcard": 7102,
      "à¤ħà¤¤à¤ıà¤µ": 7103,
      "140": 7104,
      "ision": 7105,
      "ents": 7106,
      "etoo": 7107,
      "Ġà¤ªà¤¨à¤ªà¤¤": 7108,
      "ĠOS": 7109,
      "ĠOpen": 7110,
      "uring": 7111,
      "à¤¤à¤ķà¤°à¤¨": 7112,
      "Ġ338": 7113,
      "à¥Ī--": 7114,
      "à¤ıà¤¨à¤ıà¤¸à¤ı": 7115,
      "Ġtechnology": 7116,
      "à¤¸à¤¹à¤µ": 7117,
      "''.": 7118,
      "Ġbe": 7119,
      "Ġbl": 7120,
      "ĠJEE": 7121,
      "à¤ıà¤®à¤Īà¤ľ": 7122,
      "288": 7123,
      "Ġ1953": 7124,
      "Ġ497": 7125,
      "riy": 7126,
      "Ġà¤²à¥ľà¤¤": 7127,
      "Ġ439": 7128,
      "ecast": 7129,
      "Ġoff": 7130,
      "à¦²": 7131,
      "opra": 7132,
      "Ġà¤Ĺà¤ľà¤ªà¤¤": 7133,
      "rance": 7134,
      "ĠAnd": 7135,
      "INX": 7136,
      "Ġà¤®à¥Ľà¤¦": 7137,
      "ĠISIS": 7138,
      "ohli": 7139,
      "ĠSuper": 7140,
      "Ġà¤Ĺà¥ľà¤¬à¥ľ": 7141,
      "Ġwhatsthis": 7142,
      "witter": 7143,
      "Ġà¤²à¤¥à¤ªà¤¥": 7144,
      ")âĢĻ": 7145,
      "118": 7146,
      "320": 7147,
      "340": 7148,
      "744": 7149,
      "AIMIM": 7150,
      "FI": 7151,
      "Galaxy": 7152,
      "GHz": 7153,
      "OOC": 7154,
      "PSC": 7155,
      "Son": 7156,
      "TB": 7157,
      "TR": 7158,
      "UN": 7159,
      "ck": 7160,
      "design": 7161,
      "iy": 7162,
      "ield": 7163,
      "low": 7164,
      "mer": 7165,
      "value": 7166,
      "war": 7167,
      "yl": 7168,
      "ËĪ": 7169,
      "Ð»": 7170,
      "Ùĩ": 7171,
      "Ġà¥ģ": 7172,
      "Ġus": 7173,
      "Ġag": 7174,
      "Ġà¤ĥ": 7175,
      "à¥ĩ(": 7176,
      "à¤°à¤¨à¤¤": 7177,
      "à¤¿âĢ¦": 7178,
      "à¥ĭâĢ¦": 7179,
      "à¤ķà¤·": 7180,
      "à¤¯à¤²à¤¯": 7181,
      "à¤¯à¤¦à¤°": 7182,
      "à¤¸à¤§": 7183,
      "à¤¸à¤¤à¤°": 7184,
      "Ġà¤¸à¤Ī": 7185,
      "à¤®à¤ļà¤°": 7186,
      "Ġà¤¹à¤¶": 7187,
      "Ġà¤®à¤Ĺà¤¨": 7188,
      "à¤¦à¤ĸ": 7189,
      "à¤ªà¤®à¤¤": 7190,
      "à¥ĩà¤Ĥ\\\\": 7191,
      "Ġà¤¨à¤ļ": 7192,
      "Ġà¤ħà¤¶à¤ķ": 7193,
      "Ġà¤¦à¤¶à¤®": 7194,
      "à¤¶à¤§": 7195,
      "Ġà¤°à¤¸à¤¦": 7196,
      "Ġà¤°à¤Ĺà¤¡": 7197,
      "à¤¬à¤Ĺà¤¦": 7198,
      "à¤§à¤¦": 7199,
      "à¤ļà¤®à¤ķ": 7200,
      "Ġà¤¤à¤«à¤°": 7201,
      "à¤¼à¤¼": 7202,
      "à¤Īà¤ķà¤²": 7203,
      "Ġà¤ªà¤°à¤ª": 7204,
      "Ġà¤ıà¤®à¤°": 7205,
      "à¤ĸà¤¤à¤°": 7206,
      "à¤£à¤¬": 7207,
      "Ġà¤¯à¤¨": 7208,
      "Ġà¤¯à¤ķà¤¤": 7209,
      "Ġà¤ĸà¤¬à¤°à¤¦": 7210,
      "Ġà¤«à¤¤à¤µ": 7211,
      "à¤Ĩà¤¡": 7212,
      "à¤īà¤ªà¤ķ": 7213,
      "Ġà¤ħà¤¨à¤Ń": 7214,
      "à¤µà¤°à¤Ĺ": 7215,
      "à¤ħà¤¸à¤°": 7216,
      "Ġà¤ķà¤°à¤¤à¤¬": 7217,
      "à¤°à¤®à¤ļ": 7218,
      "à¥Ī.'": 7219,
      "à¤¸à¤°à¤¶": 7220,
      "Ġà¤§à¤ľ": 7221,
      "à¤Ŀà¤ľ": 7222,
      "Ġà¤Ľà¤¦": 7223,
      "à¤²à¤¨à¤¶": 7224,
      "Ġà¤Ĩà¤°à¤ı": 7225,
      "Ġà¤Ĩà¤°à¤ĵ": 7226,
      "à¤Ĩà¤Īà¤ıà¤ļ": 7227,
      "à¤Ĩà¤Īà¤Ĩà¤Īà¤ª": 7228,
      "à¤ĺà¤¤": 7229,
      "à¤®à¤¤à¤Ĺà¤£à¤¨": 7230,
      "à¤µà¤¨à¤ª": 7231,
      "à¤¯à¤¨à¤°": 7232,
      "Ġà¤ĵà¤¤": 7233,
      "à¤¦à¤°à¤¬": 7234,
      "Ġà¤¹à¤°à¤¨": 7235,
      "Ġà¤ĩà¤¨à¤²": 7236,
      "Ġà¤Ĩà¤µà¤§": 7237,
      "Ġà¤ħà¤®à¤ľà¤¦": 7238,
      "Ġà¤Ĩà¤Īà¤ıà¤¸à¤ıà¤¸": 7239,
      "Ġà¤Ĩà¤Īà¤ıà¤¸à¤¬": 7240,
      "Ġ625": 7241,
      "Ġ675": 7242,
      "Ġ636": 7243,
      "Ġà¤ľà¤¨à¤Ń": 7244,
      "à¤°à¤¹à¤¸": 7245,
      "Ġà¤ªà¤¦à¤§": 7246,
      "Ġ737": 7247,
      "à¤ıà¤¨à¤ıà¤¬": 7248,
      "à¤¯à¤¦à¤²": 7249,
      "Ġà¤ıà¤¨à¤ıà¤¸à¤¡": 7250,
      "Ġà¤®à¤¤à¤µ": 7251,
      "1970": 7252,
      "1985": 7253,
      "1951": 7254,
      "Ġà¤¨à¤µà¤µà¤°": 7255,
      "à¤¸à¤¤à¤¤": 7256,
      "Ġà¤§à¤°à¤ªà¤ķà¤¡": 7257,
      "à¤µà¤°à¤£à¤µ": 7258,
      "Ġà¤ıà¤²à¤¡": 7259,
      "Ġà¤ıà¤²à¤ĵà¤¸": 7260,
      "ĠSal": 7261,
      "Ġ1600": 7262,
      "ĠPart": 7263,
      "ĠCar": 7264,
      "à¤ªà¤²à¤µà¤²": 7265,
      "ĠIm": 7266,
      "ĠMB": 7267,
      "ĠMy": 7268,
      "iti": 7269,
      "itle": 7270,
      "à¤ªà¤Łà¤¤": 7271,
      "103": 7272,
      "Ġà¤ıà¤ļà¤¯": 7273,
      "Ġà¤ıà¤ļà¤ıà¤¸à¤¬": 7274,
      "123": 7275,
      "Ġ287": 7276,
      "ames": 7277,
      "amera": 7278,
      "à¤īà¤¦à¤¯": 7279,
      "ĠTime": 7280,
      "à¥ĩ?\"": 7281,
      "Ġse": 7282,
      "Ġsector": 7283,
      "ĠGo": 7284,
      "Ġà¤ªà¤¦à¤ķà¤§": 7285,
      "Ġ273": 7286,
      "reme": 7287,
      "Ġ295": 7288,
      "Ġ328": 7289,
      "ĠFC": 7290,
      "160": 7291,
      "ĠHealth": 7292,
      "Ġcl": 7293,
      "145": 7294,
      "Ġ3500": 7295,
      "Ġà¤īà¤¤à¤°à¤ķà¤°": 7296,
      "Ġà¤Ńà¤Łà¤ķà¤¤": 7297,
      "olid": 7298,
      "eter": 7299,
      "ĠLIVE": 7300,
      "urg": 7301,
      "Ġpart": 7302,
      "Ġval": 7303,
      "à¤ıà¤®à¤ıà¤¸à¤¡": 7304,
      "Ġ[âĢľ": 7305,
      "Ġ342": 7306,
      "Ġne": 7307,
      "Ġdo": 7308,
      "à¥Ĥà¤ģà¥¤\"\"": 7309,
      "ĠXUV": 7310,
      "Ġà¤ĺà¤¨à¤¶": 7311,
      "agement": 7312,
      "Ġà¤¡à¤¬à¤µ": 7313,
      "ments": 7314,
      "Ġà¤ķà¤¦à¤°à¤¦": 7315,
      "ICMR": 7316,
      "à¦¿": 7317,
      "à¤Īà¤ıà¤¸à¤Ĩà¤°à¤¸": 7318,
      "à¤¸à¤®à¤Ŀà¤ķà¤°": 7319,
      "Ġà¥§à¥¦à¥¦": 7320,
      "Ġà¤Ĺà¤¦à¤¹": 7321,
      "ransp": 7322,
      "à¥§à¥¯à¥Ń": 7323,
      "à¤Ĩà¤Īà¤ıà¤«à¤Ł": 7324,
      "à¤ľà¤¯à¤¨à¤Ĺà¤°à¤®": 7325,
      "Ġà¤ħà¤®à¤¨à¤¦": 7326,
      "ĠAdmission": 7327,
      "à¥Ī'à¥¤": 7328,
      "à¤ıà¤¨à¤ıà¤¨l": 7329,
      "âĢİ,": 7330,
      "Ġprice": 7331,
      "ĠIMX": 7332,
      "Airtel": 7333,
      "Ġà¤¨à¤µà¤²à¤ĸ": 7334,
      "ĠCouncil": 7335,
      "ĠReview": 7336,
      "Previous": 7337,
      "399": 7338,
      "5000": 7339,
      "AY": 7340,
      "DG": 7341,
      "Ex": 7342,
      "Gov": 7343,
      "GATE": 7344,
      "NP": 7345,
      "RE": 7346,
      "Th": 7347,
      "adi": 7348,
      "hel": 7349,
      "mon": 7350,
      "mod": 7351,
      "oot": 7352,
      "ting": 7353,
      "viron": 7354,
      "wal": 7355,
      "ype": 7356,
      "ØŃ": 7357,
      "ÛĮ": 7358,
      "Ġap": 7359,
      "Ġone": 7360,
      "à¤¾âĢĵ": 7361,
      "Ġà¤ķà¤¨à¤ķ": 7362,
      "à¤Ĥà¥ģ": 7363,
      "à¤¤à¤¹à¤°": 7364,
      "à¤¤à¤®à¤ķ": 7365,
      "à¤¤à¤²à¤ķ": 7366,
      "à¥ĭâĢį": 7367,
      "à¤¯à¤ªà¤°": 7368,
      "à¤¸à¤¶à¤ķ": 7369,
      "Ġà¤¸à¤§": 7370,
      "Ġà¤¸à¤¨à¤¦": 7371,
      "à¤®à¤¬à¤¤": 7372,
      "Ġà¤®à¤°à¤µ": 7373,
      "à¥Īà¤ģ": 7374,
      "à¥ĪâĢĶ": 7375,
      "à¥ģ'": 7376,
      "à¤¦à¤®à¤¨": 7377,
      "à¥ĩà¤Ĥ|": 7378,
      "Ġà¤¨à¤¸à¤°": 7379,
      "Ġà¤¨à¤ľà¤®": 7380,
      "Ġà¤¨à¤Ĺà¤£": 7381,
      "à¤Łà¤ļ": 7382,
      "à¤ľà¤¯à¤°": 7383,
      "Ġà¤ľà¤ķà¤°": 7384,
      "Ġà¤ħà¤¹à¤¦": 7385,
      "Ġà¤¦à¤¶à¤°à¤¥": 7386,
      "à¤ıà¤¯à¤°à¤¸": 7387,
      "à¤ıà¤ıà¤®à¤¸": 7388,
      "Ġà¤°à¤¨à¤°": 7389,
      "à¤¬à¤ķà¤®": 7390,
      "à¤§à¤¬": 7391,
      "à¤ļà¤²à¤ķ": 7392,
      "à¤ļà¥Ŀ": 7393,
      "Ġà¤īà¤¦à¤°": 7394,
      "Ġà¤Ĩà¤¹à¤°à¤£": 7395,
      "Ġà¤Ńà¤ľ": 7396,
      "Ġà¤ªà¤°à¤ĸà¤¨": 7397,
      "à¥Īà¤ĤâĢĻ": 7398,
      "à¤Ńà¤²à¤ķà¤°": 7399,
      "Ġà¤¶à¤¯": 7400,
      "à¤ĸà¤ļ": 7401,
      "à¤ĸà¤¤à¤°à¤¨": 7402,
      "à¥Ģà¤Ĥ\"": 7403,
      "Ġà¤ıà¤ķà¤¸à¤®": 7404,
      "Ġà¤«à¤²à¤¦": 7405,
      "à¤¾à¥¤'": 7406,
      "à¤ķà¤°à¤Ĺ": 7407,
      "à¤¾,âĢĿ": 7408,
      "à¥Īà¤Ĥà¥¤à¥¤": 7409,
      "à¥Īà¤Ĥà¥¤âĢĻ": 7410,
      "Ġ219": 7411,
      "Ġà¤ħà¤¨à¤¹": 7412,
      "Ġà¤ħà¤¨à¤ª": 7413,
      "à¤µà¤°à¤¸": 7414,
      "à¤ħà¤µà¤ķ": 7415,
      "à¤īà¤¨à¤¶": 7416,
      "à¤¢à¤ķ": 7417,
      "à¤¸à¤°à¤Ĺ": 7418,
      "à¤Łà¤°à¤¬": 7419,
      "à¤¹à¤°à¤¨": 7420,
      "Ġà¤§à¤¨à¤¤": 7421,
      "à¤¯à¤°à¤«": 7422,
      "Ġà¤Ľà¤¤à¤°": 7423,
      "Ġà¤Ĩà¤°à¤ıà¤«": 7424,
      "Ġà¤Ĩà¤°à¤Ĩà¤Īà¤ıà¤²": 7425,
      "à¤ıà¤¸à¤ĵà¤ª": 7426,
      "à¤Ĩà¤Īà¤ıà¤¸à¤ıà¤¸": 7427,
      "à¤Ĩà¤Īà¤ıà¤¸à¤¸": 7428,
      "Ġ312": 7429,
      "Ġ344": 7430,
      "à¤·à¤£à¤µ": 7431,
      "Ġà¤ĵà¤¹à¤¦": 7432,
      "à¤¦à¤°à¤ĸ": 7433,
      "Ġ440": 7434,
      "à¤Ĩà¤°à¤Ī": 7435,
      "à¤Ĩà¤°à¤Ĩà¤°à¤¬": 7436,
      "Ġà¤Ĩà¤Īà¤ķ": 7437,
      "à¤µà¤¤à¤ĸ": 7438,
      "Ġà¤ıà¤¸à¤ıà¤¨": 7439,
      "Ġà¤ıà¤¸à¤ıà¤¸à¤¬": 7440,
      "Ġà¤¬à¤¦à¤¤à¤®": 7441,
      "Ġà¤ªà¤¦à¤¯": 7442,
      "Ġ191": 7443,
      "Ġ1923": 7444,
      "Ġà¤¨à¤°à¤Ĺ": 7445,
      "1977": 7446,
      "1989": 7447,
      "1971": 7448,
      "Ġà¤¬à¤¦à¤²à¤µ": 7449,
      "ini": 7450,
      "à¤®à¤¦à¤Ĺ": 7451,
      "à¤Ĺà¤¨à¤¬": 7452,
      "Ġ1860": 7453,
      "Ġ1872": 7454,
      "Ġ253": 7455,
      "Ġ255": 7456,
      "ĠSR": 7457,
      "ĠSSC": 7458,
      "à¤ıà¤ļà¤ıà¤ıà¤²": 7459,
      "ĠPU": 7460,
      "ĠPNB": 7461,
      "Ġ308": 7462,
      "Ġ504": 7463,
      "ĠCovid": 7464,
      "ĠRhD": 7465,
      "Ġà¤ļà¤°à¤£à¤ľ": 7466,
      "à¤ĳà¤¯à¤²": 7467,
      "ĠMal": 7468,
      "its": 7469,
      "101": 7470,
      "122": 7471,
      "Ġ403": 7472,
      "rome": 7473,
      "111": 7474,
      "ĠDis": 7475,
      "à¥Ļà¤°": 7476,
      "omy": 7477,
      "Ġ294": 7478,
      "ĠHighlights": 7479,
      "Ġint": 7480,
      "Ġinter": 7481,
      "Ġcap": 7482,
      "Ġcase": 7483,
      "144": 7484,
      "Ġ356": 7485,
      "ĠENIAC": 7486,
      "unj": 7487,
      "unction": 7488,
      "âĢĮà¤¿": 7489,
      "ĠKumar": 7490,
      "ĠKohli": 7491,
      "ild": 7492,
      "ival": 7493,
      "Ġà¤īà¤ľà¤¡": 7494,
      "Ġpre": 7495,
      "Ġpol": 7496,
      "ĠVi": 7497,
      "ĠVs": 7498,
      "ĠWatch": 7499,
      "Ġfrom": 7500,
      "à¥§à¥¬": 7501,
      ")à¥¤\"": 7502,
      "âĢĭâĢĭ": 7503,
      "Ġà¤¹à¤®à¤¸à¤«à¤°": 7504,
      "SCO": 7505,
      "ocal": 7506,
      "Ġ......": 7507,
      "Ġà¤Ńà¤Łà¤ķà¤¨": 7508,
      "Ġà¤¬à¤¹à¤°à¤¹": 7509,
      "ĠChopra": 7510,
      "indow": 7511,
      "Ġà¤ıà¤Ĩà¤Īà¤ıà¤¡": 7512,
      "ahul": 7513,
      "ization": 7514,
      "Ġà¤²à¤ĸà¤ªà¤¤": 7515,
      "ĠPolicy": 7516,
      "Ġraj": 7517,
      "à¥Ī\"\"à¥¤\"": 7518,
      "ĠPhotos": 7519,
      "PPO": 7520,
      "ĠSchool": 7521,
      "Ġà¤¬à¤°à¤ķà¤¤à¤µ": 7522,
      "ĠResearch": 7523,
      "http": 7524,
      "Rajasthan": 7525,
      "ĠCNY": 7526,
      "embly": 7527,
      "enovo": 7528,
      "riyanka": 7529,
      "vironment": 7530,
      "'.": 7531,
      "'à¥¤": 7532,
      "170": 7533,
      "650": 7534,
      "AE": 7535,
      "AG": 7536,
      "Gen": 7537,
      "IO": 7538,
      "NCP": 7539,
      "QOO": 7540,
      "SA": 7541,
      "SP": 7542,
      "Sp": 7543,
      "Shah": 7544,
      "TO": 7545,
      "VI": 7546,
      "au": 7547,
      "bability": 7548,
      "de": 7549,
      "ner": 7550,
      "now": 7551,
      "res": 7552,
      "uf": 7553,
      "wali": 7554,
      "à°": 7555,
      "ĠÏ": 7556,
      "Ġro": 7557,
      "à¤¾âĢľ": 7558,
      "à¤°à¤ĸà¤¤": 7559,
      "à¥Ģ\\\\": 7560,
      "à¤¨à¤¤à¤°": 7561,
      "à¥ĭà¤ģ": 7562,
      "à¤®à¤ľà¤¨": 7563,
      "à¤®à¤¸à¤²": 7564,
      "à¤®à¤¶à¤µ": 7565,
      "à¤¹à¤²à¤¨": 7566,
      "Ġà¤®à¤¡": 7567,
      "à¤µà¤§à¤°": 7568,
      "à¤µà¤ĺà¤°": 7569,
      "à¤¦à¤¯à¤¤": 7570,
      "à¤¦à¤¤à¤¨": 7571,
      "à¤ªà¤Łà¤°": 7572,
      "à¥ĩà¤ĤâĢĿ": 7573,
      "à¤ľà¤Ĺà¤¢": 7574,
      "Ġà¤ľà¤Ĺà¤°": 7575,
      "Ġà¤µà¤¤": 7576,
      "à¤ıà¤ıà¤¸à¤ª": 7577,
      "à¤ıà¤ıà¤«à¤ª": 7578,
      "à¤¶à¤«": 7579,
      "à¥Ĥ\"\"": 7580,
      "Ġà¤°à¤¤à¤²": 7581,
      "à¤¡à¤ıà¤®": 7582,
      "à¤§à¤¨à¤ķ": 7583,
      "Ġà¤ķà¤°à¤ª": 7584,
      "à¤·à¤¶": 7585,
      "Ġà¤Ĺà¤¹": 7586,
      "Ġà¤Ĺà¤Ĺ": 7587,
      "Ġà¤Ĺà¤°à¤¦à¤¨": 7588,
      "Ġà¤Ĩà¤¬à¤°": 7589,
      "Ġà¤Ĩà¤®à¤¦": 7590,
      "à¤¼âĢĻ": 7591,
      "à¥Īà¤Ĥ),": 7592,
      "Ġà¤ıà¤ıà¤®à¤ľ": 7593,
      "Ġà¤ĩà¤ķà¤°": 7594,
      "Ġà¤¶à¤Łà¤²": 7595,
      "à¤ĸà¤Ĺ": 7596,
      "à¤ĸà¤¬à¤¦": 7597,
      "Ġà¤¯à¤µà¤¤à¤®": 7598,
      "à¤ĩà¤®à¤²": 7599,
      "à¤ĩà¤µà¤¸": 7600,
      "à¤°à¤¤à¤¨": 7601,
      "à¤Ĩà¤²à¤®": 7602,
      "Ġà¤¸à¤®à¤ľ": 7603,
      "à¥īà¥°": 7604,
      "à¤īà¤ªà¤®": 7605,
      "à¥Ģà¥¤à¥¤": 7606,
      "Ġà¤®à¤¹à¤ķà¤®": 7607,
      "Ġà¤ĺà¤Ī": 7608,
      "Ġà¤§à¥ľ": 7609,
      "à¤ªà¤°à¤µà¤°": 7610,
      "Ġà¤Ľà¤¨": 7611,
      "Ġà¤Ľà¤Ł": 7612,
      "à¤ªà¤¤à¤²": 7613,
      "à¤¹à¤®à¤¦": 7614,
      "à¤ıà¤¸à¤ıà¤Ł": 7615,
      "à¤ıà¤¸à¤Ĩà¤°à¤Ł": 7616,
      "à¤¬à¤°à¤ª": 7617,
      "à¤Ĩà¤Īà¤Ĩà¤Īà¤ıà¤®": 7618,
      "à¤·à¤£à¤ķ": 7619,
      "à¤Ĺà¤¤à¤¤": 7620,
      "Ġà¤ĵà¤¬à¤°": 7621,
      "à¤ĩà¤¨à¤µ": 7622,
      "à¤¦à¤°à¤°": 7623,
      "Ġ',": 7624,
      "Ġà¤Ĩà¤Īà¤ıà¤«à¤¸": 7625,
      "Ġà¤Ĩà¤Īà¤ıà¤®à¤ı": 7626,
      "à¤¬à¤²à¤°": 7627,
      "à¤¬à¤²à¤¸": 7628,
      "à¤¬à¤²à¤ª": 7629,
      "à¤¦à¤¸à¤µ": 7630,
      "à¤ıà¤ķà¤¦": 7631,
      "Ġà¤ªà¤¡à¤©": 7632,
      "Ġà¤ķà¤²à¤¶": 7633,
      "Ġà¤ıà¤¸à¤ıà¤®": 7634,
      "Ġà¤ıà¤¸à¤Ĩà¤°": 7635,
      "Ġ1900": 7636,
      "Ġ1921": 7637,
      "Ġ1925": 7638,
      "Ġ1932": 7639,
      "à¤Łà¤ķà¤®": 7640,
      "Ġ888": 7641,
      "à¤¤à¤®à¤¯": 7642,
      "à¤ıà¤«à¤ıà¤ķ": 7643,
      "à¤¡à¤°à¤µà¤°": 7644,
      "à¤¦à¤®à¤¯": 7645,
      "Ġà¤īà¤ļà¤ķ": 7646,
      "à¤¹à¤²à¤«à¤¨": 7647,
      "Ġà¤ıà¤¨à¤Ĩà¤Ī": 7648,
      "Ġà¤ıà¤¨à¤ıà¤ļà¤ª": 7649,
      "1950": 7650,
      "1986": 7651,
      "1976": 7652,
      "1991": 7653,
      "1994": 7654,
      "1974": 7655,
      "Ġ12000": 7656,
      "à¤¾).": 7657,
      "à¤¾):": 7658,
      "Ġà¤ıà¤®à¤ĵ": 7659,
      "Ġà¤ħà¤Ĺà¤°à¤¬à¤¤": 7660,
      "oni": 7661,
      "erman": 7662,
      "aran": 7663,
      "Ġà¥Ļà¥Ľ": 7664,
      "ati": 7665,
      "atest": 7666,
      "ĠPO": 7667,
      "Ġà¤ħà¤ľà¤Ĺà¤°": 7668,
      "à¤°à¤ľà¤ķ": 7669,
      "ĠAI": 7670,
      "à¤ªà¤£à¤ľ": 7671,
      "ĠCo": 7672,
      "Ġà¤Ĩà¤²à¤¸": 7673,
      "ĠRR": 7674,
      "ĠBand": 7675,
      "âĢĿ,": 7676,
      "Ġ211": 7677,
      "ĠNe": 7678,
      "102": 7679,
      "amb": 7680,
      "Ġà¤ªà¤²à¤¡": 7681,
      "180": 7682,
      "Ġsystem": 7683,
      "Ġ271": 7684,
      "ĠFacebook": 7685,
      "161": 7686,
      "ĠHot": 7687,
      "ĠHome": 7688,
      "Ġà¤¤à¤Łà¤¬": 7689,
      "Ġà¤ĵà¤µà¤°à¤²": 7690,
      "Ġà¤ĵà¤µà¤°à¤¡": 7691,
      "Ġ353": 7692,
      "257": 7693,
      "ĠKXIP": 7694,
      "ĠOTP": 7695,
      "ĠInternational": 7696,
      "ĠInstitute": 7697,
      "urf": 7698,
      "à¤ĭà¤ļ": 7699,
      "ĠWHO": 7700,
      "ĠUI": 7701,
      "Ġà¥ŀà¤¸": 7702,
      "Ġ348": 7703,
      "osystem": 7704,
      "Ġnot": 7705,
      "ĠJan": 7706,
      "à¤ħà¤«à¤µ": 7707,
      "Ġà¥§à¥¯à¥¯à¥¦": 7708,
      "ages": 7709,
      "rib": 7710,
      "Ġ471": 7711,
      "à¦°": 7712,
      "oper": 7713,
      "oci": 7714,
      "Ġà¥¬à¥¦": 7715,
      "à¤Ńà¤ľà¤¨à¤¹": 7716,
      "Ġà¤¦à¤®à¤ķà¤²à¤ķà¤°": 7717,
      "Ġà¤¿à¥ĩ": 7718,
      "ĠExyn": 7719,
      "ÂłÂłÂł": 7720,
      "ĠAdv": 7721,
      "ĠHDR": 7722,
      "ological": 7723,
      "iii": 7724,
      "Ġcomp": 7725,
      "illion": 7726,
      "Ġà¤ľà¤¨à¤ķà¤ª": 7727,
      "box": 7728,
      "cont": 7729,
      "Ġà¤ıà¤®à¤ıà¤®à¤ıà¤¸à¤¸": 7730,
      "ukh": 7731,
      "ĠPoll": 7732,
      "--------": 7733,
      "ĠOnline": 7734,
      "ixel": 7735,
      "HDFC": 7736,
      "ujarat": 7737,
      "ĠNarzo": 7738,
      "Ġà¤İà¤¸": 7739,
      "unjab": 7740,
      "ĠExynos": 7741,
      "050": 7742,
      "049": 7743,
      "DC": 7744,
      "DE": 7745,
      "DF": 7746,
      "EX": 7747,
      "Karnataka": 7748,
      "RSS": 7749,
      "Sc": 7750,
      "Video": 7751,
      "Weather": 7752,
      "dom": 7753,
      "ren": 7754,
      "ris": 7755,
      "tion": 7756,
      "uel": 7757,
      "uch": 7758,
      "uary": 7759,
      "vest": 7760,
      "we": 7761,
      "Îĳ": 7762,
      "Ñģ": 7763,
      "Ñĥ": 7764,
      "Ø©": 7765,
      "Ġz": 7766,
      "Ġà¥į": 7767,
      "Ġass": 7768,
      "Ġare": 7769,
      "à¥ĩâĢį": 7770,
      "à¤°à¤Īà¤¸": 7771,
      "Ġà¤ķà¤²à¤¬": 7772,
      "à¤¿à¥°": 7773,
      "à¤¤à¤Ĺà¤¤": 7774,
      "à¤ķà¤ı": 7775,
      "à¤ķà¤¤à¤¨": 7776,
      "à¤²à¤¯à¤®": 7777,
      "Ġà¤¸à¤µà¤°": 7778,
      "à¤®à¤ªà¤¤": 7779,
      "à¤¹à¤°à¤¦": 7780,
      "Ġà¤¹à¤ı": 7781,
      "Ġà¤®à¤¶à¤°": 7782,
      "Ġà¤ªà¤²à¤¨": 7783,
      "à¤¦à¤¨à¤ķ": 7784,
      "à¤¦à¤¹à¤µ": 7785,
      "à¤Ĺà¤¨à¤°": 7786,
      "à¤Ĺà¤ľà¤¨à¤ķ": 7787,
      "à¤Ĺà¥ľà¤¨": 7788,
      "Ġà¤¨à¥ŀ": 7789,
      "Ġà¤¬à¤«": 7790,
      "Ġà¤¬à¤ľà¤¨": 7791,
      "Ġà¤¬à¥Ļ": 7792,
      "Ġà¤ħà¥ŀ": 7793,
      "à¥Ĥà¥į": 7794,
      "à¤§à¤ľà¤¨": 7795,
      "Ġà¤Ķà¤°à¤¸": 7796,
      "Ġà¤Ĺà¤¬à¤¨": 7797,
      "à¤¼),": 7798,
      "à¥Īà¤Ĥà¤Ĥ": 7799,
      "Ġà¤ıà¤¦": 7800,
      "Ġà¤ıà¤ħ": 7801,
      "Ġà¤ıà¤ıà¤®à¤¯": 7802,
      "Ġà¤ĩà¤ª": 7803,
      "Ġà¤¶à¤Łà¤²à¤°": 7804,
      "à¤¾à¤Ĥ/": 7805,
      "à¤Ĩà¤Ł": 7806,
      "à¤°à¤ķà¤¬": 7807,
      "à¤ĩà¤¸à¤ª": 7808,
      "à¤īà¤ļà¤°": 7809,
      "à¤īà¤ªà¤¦": 7810,
      "à¤īà¤¡à¤¸": 7811,
      "Ġà¤Łà¤¹à¤²": 7812,
      "Ġà¤ħà¤¨à¤¬": 7813,
      "à¤µà¤°à¤²": 7814,
      "à¤ħà¤ľà¤®": 7815,
      "à¤¼à¤¾?": 7816,
      "à¤Łà¤°à¤¹": 7817,
      "à¤®à¤²à¤²": 7818,
      "à¤®à¤²à¤¬": 7819,
      "à¤¯à¤¹à¤¸": 7820,
      "à¤ĺà¤ļ": 7821,
      "à¤®à¤¨à¤µà¤®": 7822,
      "à¤¾..": 7823,
      "à¤¸à¤²à¤µ": 7824,
      "à¤¦à¤°à¤¬à¤¨": 7825,
      "à¤¾à¤ģ.": 7826,
      "à¤¯à¤²à¤°": 7827,
      "Ġ---": 7828,
      "Ġà¤¬à¤²à¤µà¤¨": 7829,
      "Ġà¤Ĩà¤Īà¤µ": 7830,
      "Ġà¤Ĩà¤¦à¤°à¤£": 7831,
      "Ġà¤ľà¤²à¤ķ": 7832,
      "à¤¶à¤¤à¤¤": 7833,
      "Ġà¤Ŀà¤£": 7834,
      "Ġà¤ıà¤¸à¤Īà¤ľ": 7835,
      "Ġà¤ıà¤¸à¤ıà¤«à¤Ĩà¤Ī": 7836,
      "Ġà¤ıà¤¸à¤ıà¤ļà¤ľ": 7837,
      "Ġà¤ªà¤¦à¤®": 7838,
      "Ġà¤ªà¤¦à¤µ": 7839,
      "à¤¤à¤ķà¤µ": 7840,
      "à¤ıà¤¨à¤ıà¤«à¤¸": 7841,
      "à¤ıà¤²à¤Ī": 7842,
      "à¤ıà¤²à¤ıà¤¸à¤ıà¤¸": 7843,
      "à¤¦à¤µà¤ª": 7844,
      "Ġ865": 7845,
      "à¤ĩà¤Łà¤¹": 7846,
      "à¤ıà¤«à¤Ĩà¤°à¤¡": 7847,
      "Ġà¤ıà¤¨à¤ĵà¤¸": 7848,
      "1960": 7849,
      "1972": 7850,
      "1979": 7851,
      "à¤µà¤ªà¤²": 7852,
      "Ġà¤ªà¤°à¤®à¤ª": 7853,
      "Ġà¤¦à¤²à¤ľ": 7854,
      "à¤®à¤¹à¤ľ": 7855,
      "à¤°à¤ªà¤Ł": 7856,
      "Ġà¤Ķà¤ļà¤ķ": 7857,
      "ars": 7858,
      "ating": 7859,
      "Ġ1897": 7860,
      "Ġ25000": 7861,
      "à¤ıà¤ļà¤Ĩà¤°": 7862,
      "à¤ıà¤ļà¤ıà¤²": 7863,
      "à¤ıà¤ļà¤ıà¤«à¤ıà¤²": 7864,
      "Ġà¤¹à¤¸à¤°à¤¤": 7865,
      "à¤°à¤ľà¤¤": 7866,
      "ĠAli": 7867,
      "ĠCC": 7868,
      "ĠChar": 7869,
      "ĠCoronavirus": 7870,
      "ĠCBSE": 7871,
      "icial": 7872,
      "Ġà¤®à¤²à¤ª": 7873,
      "ĠIN": 7874,
      "ĠIR": 7875,
      "ĠIV": 7876,
      "ĠIRCTC": 7877,
      "Ġà¤ıà¤«à¤Ĩà¤Īà¤ª": 7878,
      "Ġà¤ĭà¤Ĺ": 7879,
      "Ġà¤ķà¤°à¤µà¤Ł": 7880,
      "ĠBh": 7881,
      "à¤ħà¤ªà¤¹à¤°à¤£": 7882,
      "Ġ216": 7883,
      "Ġà¤ıà¤ļà¤ıà¤¸": 7884,
      "lease": 7885,
      "Ġà¤ªà¤ķà¤¡à¤©": 7886,
      "Ġ285": 7887,
      "Ġ401": 7888,
      "Ġ236": 7889,
      "Ġà¤®à¤¶à¤µà¤°": 7890,
      "ĠTMC": 7891,
      "Ġsec": 7892,
      "114": 7893,
      "115": 7894,
      "224": 7895,
      "à¤¨à¤¹à¤Ĺ": 7896,
      "elf": 7897,
      "142": 7898,
      "ther": 7899,
      "ola": 7900,
      "à¤Ĩà¤Īà¤Ĩà¤°à¤ıà¤«": 7901,
      "à¥Ī).": 7902,
      "Ġà¤¶à¤ªà¤¥à¤Ĺ": 7903,
      "133": 7904,
      "135": 7905,
      "139": 7906,
      "uld": 7907,
      "ular": 7908,
      "ĠKKR": 7909,
      "ĠLG": 7910,
      "Ġà¤īà¤ľà¤°à¤¤": 7911,
      "andra": 7912,
      "Ġ336": 7913,
      "Ġ337": 7914,
      "Ġmar": 7915,
      "Ġ384": 7916,
      "Ġà¥ļà¤²à¤¤": 7917,
      "abel": 7918,
      "Ġà¤ıà¤®à¤ıà¤¸à¤ķ": 7919,
      "uman": 7920,
      "astic": 7921,
      "come": 7922,
      "Ġresult": 7923,
      "Ġresults": 7924,
      "duction": 7925,
      "ĠâĻª": 7926,
      "rica": 7927,
      "Ġforecast": 7928,
      "Ġà¥§à¥¯à¥¯à¥Ń": 7929,
      "press": 7930,
      "Ġà¤Ŀà¤Ĺà¥ľà¤¤": 7931,
      "ĠAlso": 7932,
      "Ġà¤ªà¤£à¤ľ": 7933,
      "ification": 7934,
      "à§į": 7935,
      "NTA": 7936,
      "ĠNarendra": 7937,
      "https": 7938,
      "ĠCSK": 7939,
      "electron": 7940,
      "otorola": 7941,
      "orpor": 7942,
      "agnetic": 7943,
      "Ġeffect": 7944,
      ")'": 7945,
      "-\"": 7946,
      "220": 7947,
      "326": 7948,
      "490": 7949,
      "799": 7950,
      "Am": 7951,
      "DO": 7952,
      "EW": 7953,
      "HS": 7954,
      "Im": 7955,
      "John": 7956,
      "Lenovo": 7957,
      "New": 7958,
      "PNB": 7959,
      "Pakistan": 7960,
      "RF": 7961,
      "RI": 7962,
      "SB": 7963,
      "SMS": 7964,
      "TA": 7965,
      "TT": 7966,
      "eop": 7967,
      "for": 7968,
      "gm": 7969,
      "gn": 7970,
      "ness": 7971,
      "ssc": 7972,
      "temperature": 7973,
      "ura": 7974,
      "yt": 7975,
      "Ġab": 7976,
      "ĠÂ»": 7977,
      "ĺ»": 7978,
      "à¤°à¤Łà¤°": 7979,
      "à¤°à¤ĸà¤°": 7980,
      "Ġà¤ķà¤ķà¤²": 7981,
      "à¤¿),": 7982,
      "à¤Ĥ!": 7983,
      "à¤¤à¤²à¤¨": 7984,
      "à¤¤à¤ķà¤¤": 7985,
      "à¤ķà¤Łà¤¨": 7986,
      "à¤ķà¤Łà¤ķ": 7987,
      "à¤¯à¤Ĺà¤£": 7988,
      "à¤¸à¤Ī": 7989,
      "à¤²à¤¯à¤ķ": 7990,
      "à¤²à¤Łà¤¨": 7991,
      "à¤²à¤¬à¤²": 7992,
      "à¤²à¤Ĺà¤¢": 7993,
      "à¤²à¤Ńà¤°": 7994,
      "à¤²à¤°à¤¸à¤¨": 7995,
      "Ġà¤¹à¤¥à¤ķ": 7996,
      "Ġà¤ªà¤ķà¤¨": 7997,
      "à¤µà¤µà¤¤": 7998,
      "à¤µà¤¬à¤¤": 7999,
      "à¤ªà¤µà¤°": 8000,
      "à¤ªà¤²à¤°": 8001,
      "à¤ªà¤¬à¤¦": 8002,
      "à¥ĩà¤ĤâĢĻ": 8003,
      "à¤Ĺà¤¹à¤²": 8004,
      "à¥¤âĢĿ": 8005,
      "à¤ľà¤Ĺà¤¨": 8006,
      "à¥ĭà¤Ĥ(": 8007,
      "à¤ıà¤¤": 8008,
      "à¤ıà¤Ĩà¤°à¤¸": 8009,
      "à¤¬à¤¦à¤°": 8010,
      "à¤¡à¤§": 8011,
      "Ġà¤Ķà¤°à¤ª": 8012,
      "Ġà¤¤à¥ľà¤ķ": 8013,
      "Ġà¤Ńà¤Ĺà¤¨": 8014,
      "à¤¼à¥Ģà¤Ĥà¥¤": 8015,
      "à¤¼âĢįà¤¿": 8016,
      "à¤Īà¤Ĩà¤Ī": 8017,
      "Ġà¤ıà¤ıà¤¨": 8018,
      "Ġà¤ıà¤ıà¤¸à¤ª": 8019,
      "Ġà¤ıà¤ıà¤®à¤Ł": 8020,
      "Ġà¤¶à¤²à¤Ń": 8021,
      "à¤£à¤¦": 8022,
      "à¤«à¤°à¤²": 8023,
      "à¤°à¤¤à¤ħ": 8024,
      "Ġà¤¥à¤²à¤Ĺ": 8025,
      "Ġà¤ĩà¤¸à¤¬": 8026,
      "à¤ķà¤°à¤ķ": 8027,
      "à¤Ĩà¤¯à¤¤": 8028,
      "à¤Ĩà¤ĩà¤¡": 8029,
      "à¤Ĩà¤ķà¤²à¤¨": 8030,
      "à¤īà¥ľ": 8031,
      "à¤Ľà¤ķ": 8032,
      "Ġà¤Łà¤ªà¤ķ": 8033,
      "Ġà¤Łà¤ĸà¤¨": 8034,
      "Ġà¤ħà¤¨à¤ªà¤¢": 8035,
      "à¤¯à¤ķà¤®": 8036,
      "Ġà¤¹à¤®à¤°": 8037,
      "à¤ħà¤ł": 8038,
      "à¤ħà¤«à¤°": 8039,
      "à¤ľà¤¨à¤°": 8040,
      "à¥Ģà¥¤âĢĻâĢĻ": 8041,
      "à¥ĩà¥¤âĢĻ": 8042,
      "à¤¸à¤°à¤¨": 8043,
      "Ġà¤īà¤ªà¤¤": 8044,
      "Ġà¤īà¤ªà¤²": 8045,
      "à¤°à¤£à¤ľ": 8046,
      "Ġà¤Ĩà¤°à¤Īà¤¸": 8047,
      "à¤Ĩà¤Īà¤ıà¤®à¤ıà¤¸": 8048,
      "Ġà¤Ĺà¤ıà¤¹": 8049,
      "à¤®à¤¨à¤ª": 8050,
      "à¤°à¤µà¤ª": 8051,
      "Ġà¤ľà¤¬à¤¡": 8052,
      "à¤¨à¤¤à¤µ": 8053,
      "à¤¨à¤¤à¤¦": 8054,
      "à¤¸à¤²à¤ķà¤°": 8055,
      "à¤ıà¤®à¤Ĩà¤Īà¤¸": 8056,
      "Ġà¤ĵà¤¶à¤¨": 8057,
      "à¥ľà¤²": 8058,
      "Ġ5500": 8059,
      "Ġà¤ħà¤µà¤ļ": 8060,
      "Ġ410": 8061,
      "Ġ425": 8062,
      "Ġà¤¸à¤°à¤¯": 8063,
      "Ġà¤¸à¤°à¤«": 8064,
      "Ġ-\"": 8065,
      "à¤Ĩà¤°à¤¯": 8066,
      "à¤Ĩà¤°à¤ıà¤¸à¤Ī": 8067,
      "Ġà¤Ĩà¤Īà¤²": 8068,
      "Ġà¤Ĩà¤Īà¤Ĩà¤Īà¤ıà¤¸à¤ıà¤«": 8069,
      "Ġà¤ħà¤¸à¤¬": 8070,
      "Ġà¤Īà¤§à¤¨": 8071,
      "Ġ620": 8072,
      "Ġ632": 8073,
      "à¤¹à¤¨à¤²": 8074,
      "Ġ1917": 8075,
      "Ġ1916": 8076,
      "Ġ1922": 8077,
      "Ġ1924": 8078,
      "Ġ1943": 8079,
      "Ġ765": 8080,
      "à¤ıà¤¨à¤ıà¤ļà¤ª": 8081,
      "à¤ĥ-": 8082,
      "Ġà¤Ĭà¤§": 8083,
      "à¤ıà¤«à¤ıà¤®": 8084,
      "à¤ıà¤«à¤ıà¤«": 8085,
      "à¤°à¤«à¤¤": 8086,
      "Ġà¤ıà¤¨à¤ıà¤¸": 8087,
      "Ġà¤ıà¤¨à¤Ĩà¤Īà¤ª": 8088,
      "Ġà¤¨à¤µà¤Ĺà¤ł": 8089,
      "à¤¥à¤¨à¤Ĺà¤°": 8090,
      "Ġà¤¢à¤²à¤¤": 8091,
      "Ġà¤¤à¤¬à¤¸": 8092,
      "Ġà¤ħà¤«à¤ľà¤²": 8093,
      "error": 8094,
      "Ġ1300": 8095,
      "Ġ1882": 8096,
      "Ġ1881": 8097,
      "ĠSA": 8098,
      "ĠSk": 8099,
      "ĠSan": 8100,
      "ĠPrad": 8101,
      "ĠAward": 8102,
      "ĠCET": 8103,
      "ĠChief": 8104,
      "Ġà¤ĩà¤ķà¤ł": 8105,
      "ĠRam": 8106,
      "à¤¦à¤¬à¤°à¤®": 8107,
      "Ġà¤ıà¤«à¤Īà¤Ī": 8108,
      "Ġà¤ħà¤¶à¤«": 8109,
      "ĠBen": 8110,
      "ĠMah": 8111,
      "Ġ229": 8112,
      "star": 8113,
      "à¤°à¤Ĺà¤£": 8114,
      "lex": 8115,
      "Ġ284": 8116,
      "Ġ289": 8117,
      "Ġ231": 8118,
      "Ġà¤ªà¤²à¤Łà¤¤": 8119,
      "ĠTimes": 8120,
      "Ġ264": 8121,
      "ĠGen": 8122,
      "ĠGold": 8123,
      "ĠDev": 8124,
      "ĠDVD": 8125,
      "Ġ276": 8126,
      "reet": 8127,
      "172": 8128,
      "Ġ290": 8129,
      "Ġ293": 8130,
      "ĠFl": 8131,
      "163": 8132,
      "ets": 8133,
      "uly": 8134,
      "ott": 8135,
      "ilicon": 8136,
      "à¤°à¤ķà¤°à¤¨": 8137,
      "ĠIndies": 8138,
      "uri": 8139,
      "ĠVer": 8140,
      "à¤Ĩà¤Ĺà¤ľà¤¨": 8141,
      "ĠWest": 8142,
      "Ġvariable": 8143,
      "2400": 8144,
      "ĠUl": 8145,
      "à¤ħà¤¦à¤°à¤ķ": 8146,
      "Ġ[(": 8147,
      "à¤¯à¤£à¤ª": 8148,
      "237": 8149,
      "Ġ365": 8150,
      "Ġà¥©à¥®": 8151,
      "à¤Ńà¤µà¤¤à¤¯": 8152,
      "ĠJDU": 8153,
      "à¥§à¥¨": 8154,
      "ulture": 8155,
      "ealand": 8156,
      "à¤¿.,": 8157,
      "ĠXI": 8158,
      "ĠXS": 8159,
      "à¥¨à¥«": 8160,
      "à¤ıà¤¸à¤Ĩà¤Īà¤¡": 8161,
      "ICS": 8162,
      "ICICI": 8163,
      "Ġwork": 8164,
      "ership": 8165,
      "epartment": 8166,
      "ĠZealand": 8167,
      "Ġà¤®à¤Ĺà¤°à¤®à¤ļ": 8168,
      "Ġà¤¦à¤®à¤¨à¤ķ": 8169,
      "Ġà¤Ĩà¤Īà¤ıà¤¸à¤ĵ": 8170,
      "lywood": 8171,
      "Ġrec": 8172,
      "ife": 8173,
      "ource": 8174,
      "Ġà¥¨à¥¦à¥¦à¥®": 8175,
      "Ġà¥¨à¥¦à¥¦à¥¯": 8176,
      "ĠISRO": 8177,
      "Ġdist": 8178,
      "à¥ĪâĢĻà¥¤": 8179,
      "echnical": 8180,
      "ukone": 8181,
      "à¥Ī\"\".\"": 8182,
      "aterial": 8183,
      "acturing": 8184,
      "plement": 8185,
      "ductivity": 8186,
      "Asia": 8187,
      "Ġexam": 8188,
      "ĠPaytm": 8189,
      "Ġà¤Ĩà¤Īà¤Ĩà¤Īà¤ıà¤¸à¤¸": 8190,
      "uja": 8191,
      "ampions": 8192,
      "à¥ĪâĢĿà¥¤": 8193,
      "lectron": 8194,
      "ammu": 8195,
      "accine": 8196,
      "ĠTeam": 8197,
      "à¯į": 8198,
      "nectivity": 8199,
      "NAME": 8200,
      "119": 8201,
      "240": 8202,
      "950": 8203,
      "Ad": 8204,
      "Amit": 8205,
      "Bharat": 8206,
      "FS": 8207,
      "ML": 8208,
      "NH": 8209,
      "Pr": 8210,
      "Serv": 8211,
      "ci": 8212,
      "cri": 8213,
      "dà¤ķ": 8214,
      "dà¤¹": 8215,
      "ga": 8216,
      "jun": 8217,
      "ler": 8218,
      "load": 8219,
      "ole": 8220,
      "oard": 8221,
      "son": 8222,
      "udi": 8223,
      "vin": 8224,
      "val": 8225,
      "za": 8226,
      "Ã³": 8227,
      "Ð¸": 8228,
      "âĻª": 8229,
      "Ġ000": 8230,
      "à¥¢": 8231,
      "à¤°à¤Ĺà¤²": 8232,
      "à¤°à¤Ĺà¤®": 8233,
      "à¤¨à¤¥": 8234,
      "à¤¨à¤Ń": 8235,
      "à¤¨à¤°à¤®": 8236,
      "à¤¨à¤Ńà¤¦": 8237,
      "à¥ĭà¤¼": 8238,
      "à¤ķà¤ĸ": 8239,
      "à¤²à¤§à¤¨": 8240,
      "à¤²à¤Ńà¤Ĺ": 8241,
      "à¤®à¤¹à¤²": 8242,
      "à¤¹à¥ľ": 8243,
      "Ġà¤¹à¤¸à¤®": 8244,
      "Ġà¤®à¤¨à¤ķ": 8245,
      "Ġà¤ªà¤¨à¤µ": 8246,
      "à¥Ī]": 8247,
      "à¤µà¤Ī": 8248,
      "à¤ªà¤ķà¤²": 8249,
      "à¥ĩà¤Ĥ%": 8250,
      "à¤Ĺà¤ĸ": 8251,
      "Ġà¤¨à¤¥": 8252,
      "à¤Łà¤ĵà¤µà¤°": 8253,
      "à¥ĭà¤ĤâĢ¦": 8254,
      "Ġà¤ħà¤ĸà¤°": 8255,
      "Ġà¤¦à¤²à¤µ": 8256,
      "à¤ıà¤Ń": 8257,
      "à¤¬à¤°à¤ķ": 8258,
      "à¤¬à¤ªà¤¤": 8259,
      "à¤¡à¤ķà¤ª": 8260,
      "à¤ļà¤Ĺ": 8261,
      "à¤·à¤¯à¤°": 8262,
      "Ġà¤Ĩà¤¢": 8263,
      "à¤¼/": 8264,
      "à¤Īà¤¸à¤µ": 8265,
      "à¤Īà¤ıà¤«à¤ı": 8266,
      "à¤¥à¤¹": 8267,
      "Ġà¤ıà¤ı": 8268,
      "à¤Ńà¤¡": 8269,
      "à¤Ńà¤§": 8270,
      "Ġà¤¶à¤¯à¤¨": 8271,
      "à¤ĸà¤°à¤£": 8272,
      "Ġà¤¯à¤¶à¤¸": 8273,
      "Ġà¤ļà¤®à¤¨": 8274,
      "Ġà¤ļà¤ĸà¤¨": 8275,
      "Ġà¤ļà¤°à¤¬": 8276,
      "à¤¾à¤Ĥà¤Ĥ": 8277,
      "Ġà¤«à¥ľ": 8278,
      "à¤Ĩà¤ªà¤¤": 8279,
      "à¤īà¤°à¤ķ": 8280,
      "Ġà¤ħà¤¨à¤ļ": 8281,
      "Ġà¤¡à¤²à¤¹": 8282,
      "Ġà¤¡à¤¡à¤Ĺ": 8283,
      "à¤łà¤¹à¤°": 8284,
      "Ġà¤¹à¤®à¤µà¤¤à¤¨": 8285,
      "à¤ĵà¤ıà¤²à¤Ł": 8286,
      "à¤µà¤°à¤¶": 8287,
      "à¤ħà¤µà¤¤": 8288,
      "à¥Ģà¥¤\"\"": 8289,
      "à¥ĩà¥¤âĢĿ": 8290,
      "à¤°à¤®à¤¦": 8291,
      "à¤°à¤®à¤¶à¤ķ": 8292,
      "à¤¸à¤°à¤ª": 8293,
      "à¤Ŀà¤Ł": 8294,
      "à¤Ŀà¤¡": 8295,
      "à¤¯à¤°à¤¨à¤®": 8296,
      "à¤²à¤¨à¤Ĺà¤¤": 8297,
      "à¤°à¤¸à¤®": 8298,
      "à¤¬à¤°à¤¶": 8299,
      "à¤Ĩà¤Īà¤ıà¤¸à¤ª": 8300,
      "à¤¼à¥Ģ'": 8301,
      "à¤ĺà¤²à¤¨": 8302,
      "Ġ319": 8303,
      "Ġ321": 8304,
      "à¤µà¤¨à¤¦": 8305,
      "à¤ıà¤®à¤ıà¤¨à¤¸": 8306,
      "à¤®à¤°à¤ľ": 8307,
      "Ġ540": 8308,
      "Ġà¤ĩà¤¨à¤°": 8309,
      "Ġ470": 8310,
      "Ġ427": 8311,
      "Ġ436": 8312,
      "Ġà¤¸à¤°à¤µà¤°": 8313,
      "Ġà¤Ĩà¤Īà¤ıà¤²": 8314,
      "Ġà¤Ĩà¤Īà¤ıà¤¸à¤ıà¤²": 8315,
      "à¥Ģ.,": 8316,
      "à¥Ģ.),": 8317,
      "205": 8318,
      "à¥Ģ).": 8319,
      "Ġà¤®à¤¨à¤ļ": 8320,
      "Ġà¤łà¤ķ": 8321,
      "Ġà¤łà¤Ĺà¤¨": 8322,
      "à¤µà¤²à¤ķà¤°": 8323,
      "Ġà¤Ŀà¤²": 8324,
      "Ġà¤ıà¤¸à¤ĵ": 8325,
      "Ġ1915": 8326,
      "Ġ1928": 8327,
      "Ġ1936": 8328,
      "Ġ712": 8329,
      "à¤ıà¤¨à¤Īà¤¸": 8330,
      "à¤ıà¤²à¤ıà¤²": 8331,
      "à¤ıà¤²à¤ıà¤Ł": 8332,
      "à¤ıà¤²à¤Īà¤¡": 8333,
      "Ġà¤ıà¤¨à¤¡à¤¬": 8334,
      "Ġà¤ıà¤¨à¤ıà¤®à¤¸": 8335,
      "\"\"\"âĢľ": 8336,
      "Ġ918": 8337,
      "1978": 8338,
      "Ġà¤ıà¤®à¤ıà¤¸à¤Ī": 8339,
      "Ġà¤ħà¤¦à¤Ń": 8340,
      "Ġà¤¤à¤¬à¤¤à¤ķ": 8341,
      "Ġà¤ľà¤Ĺà¤¦à¤²à¤ª": 8342,
      "à¥Ĥà¤ģ!": 8343,
      "anve": 8344,
      "Ġà¤ħà¤«à¤ľ": 8345,
      "à¤ħà¤²à¤µà¤°": 8346,
      "alk": 8347,
      "à¤¬à¤¦à¤²à¤¤": 8348,
      "à¤ħà¤¨à¤ľ": 8349,
      "à¥ĩ--": 8350,
      "atic": 8351,
      "atta": 8352,
      "Ġ187": 8353,
      "ĠSS": 8354,
      "ĠST": 8355,
      "ĠSab": 8356,
      "ĠAk": 8357,
      "ĠAIMIM": 8358,
      "à¤Ĩà¤ªà¤®": 8359,
      "ene": 8360,
      "enn": 8361,
      "Ġà¤¤à¤®à¤Ĺ": 8362,
      "ĠRep": 8363,
      "ĠRJD": 8364,
      "à¤¼à¥ĩà¤Ĥ.": 8365,
      "Ġ241": 8366,
      "Ġ246": 8367,
      "Ġ2400": 8368,
      "ici": 8369,
      "ĠIND": 8370,
      "à¤¸à¤¬à¤®": 8371,
      "ĠMT": 8372,
      "Ġ212": 8373,
      "ĠND": 8374,
      "ĠNH": 8375,
      "Ġà¤ķà¤¥à¤ķ": 8376,
      "217": 8377,
      "1080": 8378,
      "Ġà¤ıà¤ļà¤Ł": 8379,
      "Ġà¤ıà¤ļà¤Ĩà¤°": 8380,
      "Ġà¤®à¤ķà¤¬": 8381,
      "Ġà¤Ĩà¤¦à¤®à¤ª": 8382,
      "Ġà¤ķà¤łà¤ĺà¤°": 8383,
      "Ġà¤ıà¤¡à¤ľà¤¸": 8384,
      "Ġ286": 8385,
      "ross": 8386,
      "Ġ262": 8387,
      "Ġ265": 8388,
      "Ġsmart": 8389,
      "ĠGlobal": 8390,
      "ĠDe": 8391,
      "Ġ274": 8392,
      "à¤ªà¤¶à¤ª": 8393,
      "158": 8394,
      "Ġ292": 8395,
      "ĠFA": 8396,
      "165": 8397,
      "169": 8398,
      "cta": 8399,
      "Ġcol": 8400,
      "148": 8401,
      "Ġà¤Ńà¤Łà¤ķà¤²": 8402,
      "oli": 8403,
      "olar": 8404,
      "ĠEV": 8405,
      "à¤¾âĢĻà¥¤": 8406,
      "ential": 8407,
      "ask": 8408,
      "ety": 8409,
      "Ġà¤ªà¤¨à¤ªà¤¨": 8410,
      "ilm": 8411,
      "urity": 8412,
      "à¤ĭà¤°": 8413,
      "Ġ452": 8414,
      "ĠVID": 8415,
      "ĠVOOC": 8416,
      "243": 8417,
      "Ġ363": 8418,
      "Ġte": 8419,
      "355": 8420,
      "Ġbihar": 8421,
      "264": 8422,
      "à¤Ĩà¤Īà¤ıà¤¸à¤Ĩà¤Īà¤ıà¤¸": 8423,
      "à¤°à¤¥à¤®à¤¦": 8424,
      "ĠXR": 8425,
      "ĠXT": 8426,
      "à¤ħà¤ľà¤¹à¤°": 8427,
      "Ġà¤«à¤¡à¤¨à¤µ": 8428,
      "379": 8429,
      "ecific": 8430,
      "ecosystem": 8431,
      "Ġà¥ªà¥ª": 8432,
      "ave": 8433,
      "Ġthat": 8434,
      "aste": 8435,
      "à¤¨à¤«à¤°à¤¤": 8436,
      "à¤Ĺà¤Īà¤¥": 8437,
      "Ġà¤Ĩà¤īà¤Łà¤ķà¤®": 8438,
      "à¥§à¥¯à¥¬": 8439,
      "aif": 8440,
      "Ġà¤°à¤®à¤¨à¤¦": 8441,
      "ĠPresident": 8442,
      "ĠIPS": 8443,
      "ISRO": 8444,
      "Ġrev": 8445,
      "Ġà¤ıà¤¨à¤ıà¤ļà¤ıà¤®": 8446,
      "phase": 8447,
      "angana": 8448,
      "ĠChrome": 8449,
      "indra": 8450,
      "areena": 8451,
      "ize": 8452,
      "gram": 8453,
      "Ġà¥¨à¥¦à¥§à¥¦": 8454,
      "ASA": 8455,
      "Ġeng": 8456,
      "ĠBSP": 8457,
      "Ġà¤¬à¤°à¤¹à¤ķ": 8458,
      "Ġà¤¬à¤°à¤¹à¥ĺ": 8459,
      "ushka": 8460,
      "eepika": 8461,
      "engal": 8462,
      "à¤ıà¤ļà¤ıà¤«à¤¡à¤¬": 8463,
      "ensex": 8464,
      "Ġà¤ħà¤ľà¤°à¤¬": 8465,
      "ĠSecond": 8466,
      "Ġà¤ļà¤¤à¤°à¤¥": 8467,
      "Ġà¤Ŀà¤Łà¤ªà¤Ł": 8468,
      "ĠMedical": 8469,
      "Ġecon": 8470,
      "Ġarticle": 8471,
      "ĠDhoni": 8472,
      "ĠUltra": 8473,
      "à¤²à¤Ńà¤Ĺà¤¢": 8474,
      "anveer": 8475,
      "-)": 8476,
      "317": 8477,
      "380": 8478,
      "480": 8479,
      "699": 8480,
      "DT": 8481,
      "EL": 8482,
      "EPF": 8483,
      "HP": 8484,
      "Huawei": 8485,
      "PC": 8486,
      "Poco": 8487,
      "Tech": 8488,
      "Tube": 8489,
      "Vodafone": 8490,
      "YC": 8491,
      "aut": 8492,
      "bl": 8493,
      "cel": 8494,
      "core": 8495,
      "covid": 8496,
      "carbon": 8497,
      "hu": 8498,
      "iya": 8499,
      "pa": 8500,
      "pos": 8501,
      "uth": 8502,
      "uil": 8503,
      "Ġall": 8504,
      "à¤¾âĢĺ": 8505,
      "à¤°à¤Ŀ": 8506,
      "Ġà¤ķà¤µà¤ķ": 8507,
      "Ġà¤ķà¤«à¤°": 8508,
      "à¤¿âĢĿ": 8509,
      "à¤Ĥà¥Ĥ": 8510,
      "à¤¤à¤ĺ": 8511,
      "à¤ķà¤¦à¤¨": 8512,
      "à¤ķà¤¨à¤°": 8513,
      "à¤¯à¤¸à¤°": 8514,
      "à¤¸à¤Ĩà¤°": 8515,
      "à¤¸à¤ıà¤²": 8516,
      "Ġà¤¸à¥ŀ": 8517,
      "Ġà¤®à¤ķà¤¡": 8518,
      "Ġà¤®à¤ľà¤®": 8519,
      "Ġà¤ªà¤Ĺ": 8520,
      "Ġà¤ªà¤¸à¤²": 8521,
      "à¤¦à¤°à¤¦": 8522,
      "à¤¦à¤°à¤¸": 8523,
      "à¥ĩà¤Ĥ\"\"": 8524,
      "Ġà¤ľà¤ķà¤°à¤¬à¤°": 8525,
      "à¥ĭà¤ĤâĢĿ": 8526,
      "Ġà¤ħà¤¸à¤¨": 8527,
      "Ġà¤¦à¤¦": 8528,
      "Ġà¤¦à¤ĸ": 8529,
      "Ġà¤°à¤¦à¤°": 8530,
      "à¤¬à¤¶": 8531,
      "à¤¬à¤ļà¤¨": 8532,
      "à¤¬à¤ļà¤¤": 8533,
      "à¤¡à¤°à¤®": 8534,
      "à¤¡à¤¸à¤®": 8535,
      "à¤¡Ã¯": 8536,
      "à¤ļà¤¹": 8537,
      "Ġà¤Ķà¤°à¤¨": 8538,
      "à¤·à¤ļ": 8539,
      "à¤·à¤ķà¤¤": 8540,
      "à¤¼\"\"": 8541,
      "à¤Īà¤Ń": 8542,
      "à¤Īà¤µà¤°": 8543,
      "à¥Īà¤Ĥ\"": 8544,
      "Ġà¤ıà¤¤à¤¬": 8545,
      "à¤ĸà¤°à¤¹": 8546,
      "à¤£à¤ľ": 8547,
      "à¤¾à¤Ĥ:": 8548,
      "à¤«à¤µ": 8549,
      "à¤«à¤Ĺ": 8550,
      "à¤«à¤²à¤ķ": 8551,
      "à¤ĩà¤²à¤¨": 8552,
      "Ġà¤«à¤¹": 8553,
      "Ġà¤«à¤«": 8554,
      "à¤¾à¥¤âĢĻâĢĻ": 8555,
      "Ġ(@": 8556,
      "à¤Ĩà¤ķà¤¸": 8557,
      "Ġà¤¸à¤®à¤¦": 8558,
      "à¤īà¤·": 8559,
      "à¥Īà¤Ĥà¥¤'": 8560,
      "Ġà¤ħà¤¨à¤µ": 8561,
      "à¥ĥ.": 8562,
      "à¤µà¤°à¤¬": 8563,
      "à¤ħà¤¥": 8564,
      "à¤ħà¤®à¤²": 8565,
      "à¤ħà¤¦à¤¨": 8566,
      "à¤°à¤¦à¤°à¤¹": 8567,
      "à¤°à¤®à¤µ": 8568,
      "à¤¢à¤¸": 8569,
      "à¤Łà¤°à¤ļ": 8570,
      "à¤¹à¤°à¤ħà¤²": 8571,
      "Ġà¤īà¤ªà¤Ĺà¤¤": 8572,
      "Ġ206": 8573,
      "à¤ªà¤°à¤¬": 8574,
      "Ġà¤Ľà¤ªà¤¨": 8575,
      "Ġà¤µà¤°à¤µà¤°": 8576,
      "Ġà¤Ĩà¤°à¤Ī": 8577,
      "à¤ıà¤¸à¤ıà¤®à¤ıà¤¸": 8578,
      "Ġà¤Ĳà¤®": 8579,
      "Ġà¤ķà¤®à¤¸": 8580,
      "à¥Ĥà¤Ĥ!": 8581,
      "à¤¤à¤¨à¤µ": 8582,
      "à¤¤à¤¨à¤Ĺà¤°": 8583,
      "à¤¦à¤°à¤Ń": 8584,
      "à¤¦à¤°à¤¬à¤²": 8585,
      "Ġà¤ħà¤µà¤¤à¤°à¤£": 8586,
      "Ġà¤¸à¤°à¤ľ": 8587,
      "Ġà¤¬à¤²à¤ķ": 8588,
      "Ġà¤Ĩà¤Īà¤¯": 8589,
      "Ġà¤Ĩà¤Īà¤Īà¤¸": 8590,
      "Ġà¤ľà¤°à¤¨": 8591,
      "Ġà¤ħà¤¸à¤Ń": 8592,
      "à¤Ĺà¤²à¤¦": 8593,
      "à¤Ĺà¤²à¤ªà¤¨": 8594,
      "à¤ªà¤ķà¥ľ": 8595,
      "Ġ630": 8596,
      "à¥Ģ)-": 8597,
      "à¤ľà¤¬à¤¤à¤ķ": 8598,
      "à¤µà¤²à¤°": 8599,
      "Ġ1929": 8600,
      "Ġ1937": 8601,
      "Ġ799": 8602,
      "Ġà¤ħà¤¬à¤¶": 8603,
      "à¤ıà¤¨à¤ıà¤®à¤¡": 8604,
      "à¤ıà¤²à¤ıà¤®à¤Ł": 8605,
      "âĢĺâĢĻ": 8606,
      "à¤ĩà¤Łà¤¸": 8607,
      "Ġà¤ĸà¤°à¤¡": 8608,
      "1947": 8609,
      "1948": 8610,
      "1981": 8611,
      "à¤°à¤¬à¤¤": 8612,
      "Ġà¤ıà¤®à¤Ĩà¤°": 8613,
      "Ġà¤ıà¤®à¤Ĩà¤Īà¤ľ": 8614,
      "à¤¸à¤¤à¤¹": 8615,
      "à¥Ĥà¤ģ\"": 8616,
      "Ġà¤Ĩà¤®à¤¸à¤Ń": 8617,
      "aram": 8618,
      "ared": 8619,
      "alys": 8620,
      "ator": 8621,
      "Ġ1890": 8622,
      "Ġ254": 8623,
      "ĠSIT": 8624,
      "à¤ıà¤ļà¤¬": 8625,
      "ĠPost": 8626,
      "ĠPixel": 8627,
      "esia": 8628,
      "Ġ301": 8629,
      "Ġ309": 8630,
      "Ġ505": 8631,
      "ĠAt": 8632,
      "ĠABS": 8633,
      "ĠCorpor": 8634,
      "orb": 8635,
      "à¤²à¤¹à¤¸": 8636,
      "Ġ248": 8637,
      "ĠISC": 8638,
      "Ġà¤ĭà¤¦": 8639,
      "ĠBe": 8640,
      "ĠBan": 8641,
      "ĠBang": 8642,
      "ĠBudget": 8643,
      "ĠBhatt": 8644,
      "âĢĻâĢĻà¥¤": 8645,
      "ĠNET": 8646,
      "ĠName": 8647,
      "itive": 8648,
      "212": 8649,
      "216": 8650,
      "Ġsh": 8651,
      "Ġsqu": 8652,
      "ĠDo": 8653,
      "Ġ278": 8654,
      "omb": 8655,
      "ĠHy": 8656,
      "uss": 8657,
      "226": 8658,
      "228": 8659,
      "147": 8660,
      "Ġ352": 8661,
      "Ġà¤īà¤¤à¤°à¤µ": 8662,
      "ĠEm": 8663,
      "ased": 8664,
      "eta": 8665,
      "ĠKashmir": 8666,
      "iven": 8667,
      "Ġport": 8668,
      "Ġ331": 8669,
      "à¤ĭà¤¦": 8670,
      "à¤ĭà¤Ĺ": 8671,
      "Ġmm": 8672,
      "Ġmon": 8673,
      "ĠWeb": 8674,
      "à¤Ĩà¤®à¤¦à¤¨": 8675,
      "Ġ345": 8676,
      "Ġ349": 8677,
      "Ġnta": 8678,
      "Ġnumber": 8679,
      "Ġà¥©à¥¯": 8680,
      "Ġbih": 8681,
      "apil": 8682,
      "à¥§à¥¯": 8683,
      "à¤Ķà¤¸à¤¤à¤¨": 8684,
      "Ġdr": 8685,
      "Ġdevelopment": 8686,
      "Ġ491": 8687,
      "459": 8688,
      "Ġà¥ļà¥Ľà¤¬": 8689,
      "365": 8690,
      "à¤¾!\"": 8691,
      "Ġà¤¬à¤°à¤¤à¤°": 8692,
      "Ġgroup": 8693,
      "hik": 8694,
      "392": 8695,
      "Ġà¥ªà¥¨": 8696,
      "951": 8697,
      "à¤ıà¤¸à¤ıà¤«à¤Ĩà¤Ī": 8698,
      "Ġworld": 8699,
      "Ġà¤¨à¤«à¤¸": 8700,
      "à¥©à¥¦": 8701,
      "à¤ıà¤¸à¤ıà¤²à¤¸": 8702,
      "ĠStore": 8703,
      "Ġà¥®à¥¦": 8704,
      "ĠBook": 8705,
      "Ġà¤ķà¤¤à¤°à¤¨": 8706,
      "à¥§à¥¯à¥©": 8707,
      "à¥§à¥¯à¥§à¥": 8708,
      "IMD": 8709,
      "à¤ıà¤¨à¤ıà¤ļà¤ıà¤®": 8710,
      "à¤ıà¤¨à¤ıà¤ļà¤Ĩà¤°à¤¸": 8711,
      "ohit": 8712,
      "Ġcont": 8713,
      "board": 8714,
      "glesia": 8715,
      "Ġproject": 8716,
      "Ġ*.": 8717,
      "ĠMarket": 8718,
      "ĠElections": 8719,
      "oyal": 8720,
      "anced": 8721,
      "soft": 8722,
      "luetoo": 8723,
      "arming": 8724,
      "bhp": 8725,
      "ĠAfrica": 8726,
      "Interior": 8727,
      "Ġanti": 8728,
      "ĠPadukone": 8729,
      "Ġvalues": 8730,
      "ĠJanuary": 8731,
      "ÎĳÎ": 8732,
      "eople": 8733,
      "ĠPradesh": 8734,
      "ĠVIDEO": 8735,
      "uilding": 8736,
      "alysis": 8737,
      "luetooth": 8738,
      "!\"\"": 8739,
      ",,": 8740,
      "599": 8741,
      "767": 8742,
      "AK": 8743,
      "Ay": 8744,
      "Class": 8745,
      "GT": 8746,
      "HU": 8747,
      "Highlights": 8748,
      "Mumbai": 8749,
      "NE": 8750,
[...]
